{
  "version": "1.0",
  "truncation": null,
  "padding": null,
  "added_tokens": [
    {
      "id": 0,
      "content": "<unk>",
      "single_word": false,
      "lstrip": false,
      "rstrip": false,
      "normalized": false,
      "special": true
    },
    {
      "id": 1,
      "content": "<s>",
      "single_word": false,
      "lstrip": false,
      "rstrip": false,
      "normalized": false,
      "special": true
    },
    {
      "id": 2,
      "content": "</s>",
      "single_word": false,
      "lstrip": false,
      "rstrip": false,
      "normalized": false,
      "special": true
    },
    {
      "id": 3,
      "content": "<user>",
      "single_word": false,
      "lstrip": false,
      "rstrip": false,
      "normalized": false,
      "special": true
    },
    {
      "id": 4,
      "content": "<assistant>",
      "single_word": false,
      "lstrip": false,
      "rstrip": false,
      "normalized": false,
      "special": true
    },
    {
      "id": 5,
      "content": "<pad>",
      "single_word": false,
      "lstrip": false,
      "rstrip": false,
      "normalized": false,
      "special": true
    }
  ],
  "normalizer": {
    "type": "Sequence",
    "normalizers": [
      {
        "type": "NFKC"
      },
      {
        "type": "Strip",
        "strip_left": true,
        "strip_right": true
      }
    ]
  },
  "pre_tokenizer": {
    "type": "ByteLevel",
    "add_prefix_space": true,
    "trim_offsets": true,
    "use_regex": true
  },
  "post_processor": null,
  "decoder": {
    "type": "ByteLevel",
    "add_prefix_space": true,
    "trim_offsets": true,
    "use_regex": true
  },
  "model": {
    "type": "BPE",
    "dropout": null,
    "unk_token": "<unk>",
    "continuing_subword_prefix": null,
    "end_of_word_suffix": null,
    "fuse_unk": false,
    "byte_fallback": false,
    "ignore_merges": false,
    "vocab": {
      "<unk>": 0,
      "<s>": 1,
      "</s>": 2,
      "<user>": 3,
      "<assistant>": 4,
      "<pad>": 5,
      "!": 6,
      "\"": 7,
      "#": 8,
      "$": 9,
      "%": 10,
      "&": 11,
      "'": 12,
      "(": 13,
      ")": 14,
      "*": 15,
      "+": 16,
      ",": 17,
      "-": 18,
      ".": 19,
      "/": 20,
      "0": 21,
      "1": 22,
      "2": 23,
      "3": 24,
      "4": 25,
      "5": 26,
      "6": 27,
      "7": 28,
      "8": 29,
      "9": 30,
      ":": 31,
      ";": 32,
      "<": 33,
      "=": 34,
      ">": 35,
      "?": 36,
      "@": 37,
      "A": 38,
      "B": 39,
      "C": 40,
      "D": 41,
      "E": 42,
      "F": 43,
      "G": 44,
      "H": 45,
      "I": 46,
      "J": 47,
      "K": 48,
      "L": 49,
      "M": 50,
      "N": 51,
      "O": 52,
      "P": 53,
      "Q": 54,
      "R": 55,
      "S": 56,
      "T": 57,
      "U": 58,
      "V": 59,
      "W": 60,
      "X": 61,
      "Y": 62,
      "Z": 63,
      "[": 64,
      "\\": 65,
      "]": 66,
      "^": 67,
      "_": 68,
      "`": 69,
      "a": 70,
      "b": 71,
      "c": 72,
      "d": 73,
      "e": 74,
      "f": 75,
      "g": 76,
      "h": 77,
      "i": 78,
      "j": 79,
      "k": 80,
      "l": 81,
      "m": 82,
      "n": 83,
      "o": 84,
      "p": 85,
      "q": 86,
      "r": 87,
      "s": 88,
      "t": 89,
      "u": 90,
      "v": 91,
      "w": 92,
      "x": 93,
      "y": 94,
      "z": 95,
      "{": 96,
      "|": 97,
      "}": 98,
      "~": 99,
      "¡": 100,
      "¢": 101,
      "£": 102,
      "¤": 103,
      "¥": 104,
      "¦": 105,
      "§": 106,
      "¨": 107,
      "©": 108,
      "ª": 109,
      "«": 110,
      "¬": 111,
      "®": 112,
      "¯": 113,
      "°": 114,
      "±": 115,
      "²": 116,
      "³": 117,
      "´": 118,
      "µ": 119,
      "¶": 120,
      "·": 121,
      "¸": 122,
      "¹": 123,
      "º": 124,
      "»": 125,
      "¼": 126,
      "½": 127,
      "¾": 128,
      "¿": 129,
      "Â": 130,
      "Ã": 131,
      "Ä": 132,
      "Å": 133,
      "Æ": 134,
      "Ç": 135,
      "È": 136,
      "É": 137,
      "Ê": 138,
      "Ë": 139,
      "Ì": 140,
      "Í": 141,
      "Î": 142,
      "Ï": 143,
      "Ð": 144,
      "Ñ": 145,
      "Ò": 146,
      "Ó": 147,
      "Ô": 148,
      "Õ": 149,
      "Ö": 150,
      "×": 151,
      "Ø": 152,
      "Ù": 153,
      "Ú": 154,
      "Û": 155,
      "Ü": 156,
      "Ý": 157,
      "ß": 158,
      "à": 159,
      "á": 160,
      "â": 161,
      "ã": 162,
      "ä": 163,
      "å": 164,
      "æ": 165,
      "ç": 166,
      "è": 167,
      "é": 168,
      "ê": 169,
      "ë": 170,
      "ì": 171,
      "í": 172,
      "î": 173,
      "ï": 174,
      "ð": 175,
      "ó": 176,
      "Ġ": 177,
      "Ģ": 178,
      "ģ": 179,
      "Ĥ": 180,
      "ĥ": 181,
      "Ħ": 182,
      "ħ": 183,
      "Ĩ": 184,
      "ĩ": 185,
      "Ī": 186,
      "ī": 187,
      "Ĭ": 188,
      "ĭ": 189,
      "Į": 190,
      "į": 191,
      "İ": 192,
      "ı": 193,
      "Ĳ": 194,
      "ĳ": 195,
      "Ĵ": 196,
      "ĵ": 197,
      "Ķ": 198,
      "ķ": 199,
      "ĸ": 200,
      "Ĺ": 201,
      "ĺ": 202,
      "Ļ": 203,
      "ļ": 204,
      "Ľ": 205,
      "ľ": 206,
      "Ŀ": 207,
      "ŀ": 208,
      "Ł": 209,
      "ł": 210,
      "Ń": 211,
      "Ġt": 212,
      "Ġa": 213,
      "in": 214,
      "he": 215,
      "ĠĠ": 216,
      "re": 217,
      "on": 218,
      "er": 219,
      "Ġthe": 220,
      "at": 221,
      "Ġs": 222,
      "or": 223,
      "en": 224,
      "Ġw": 225,
      "it": 226,
      "Ġo": 227,
      "Ġc": 228,
      "es": 229,
      "is": 230,
      "an": 231,
      "al": 232,
      "Ġf": 233,
      "ing": 234,
      "ed": 235,
      "Ġb": 236,
      "nd": 237,
      "Ġp": 238,
      "ar": 239,
      "ou": 240,
      "Ġof": 241,
      "Ġin": 242,
      "Ġm": 243,
      "Ġto": 244,
      "ion": 245,
      "Ġand": 246,
      "ic": 247,
      "Ġd": 248,
      "le": 249,
      "ĠĠĠĠ": 250,
      "as": 251,
      "\\\\": 252,
      "om": 253,
      "Ġh": 254,
      "Ġth": 255,
      "ent": 256,
      "il": 257,
      "\\\"": 258,
      "st": 259,
      "el": 260,
      "et": 261,
      "ro": 262,
      "ct": 263,
      "Ġre": 264,
      "Ġn": 265,
      "Ġl": 266,
      ".\\": 267,
      "Ġe": 268,
      "id": 269,
      "ĠT": 270,
      "ĠS": 271,
      "Ġg": 272,
      "ve": 273,
      "ut": 274,
      "ot": 275,
      "ĠI": 276,
      "am": 277,
      "ol": 278,
      "ig": 279,
      "im": 280,
      "ĠA": 281,
      "ĠC": 282,
      "Ġis": 283,
      "ur": 284,
      "ac": 285,
      "ation": 286,
      "ad": 287,
      "Ġfor": 288,
      "ly": 289,
      "Ġon": 290,
      "Ġbe": 291,
      "ow": 292,
      "us": 293,
      "ay": 294,
      "ver": 295,
      "Ġy": 296,
      "Ġthat": 297,
      "Ġst": 298,
      "ĠM": 299,
      "ce": 300,
      "ith": 301,
      "ir": 302,
      "ch": 303,
      "ul": 304,
      "se": 305,
      "Ġhe": 306,
      "Ġ(": 307,
      "ĠĠĠ": 308,
      "Ġwith": 309,
      "un": 310,
      "ĠP": 311,
      "ĠB": 312,
      "if": 313,
      "Ġit": 314,
      "ter": 315,
      "Ġas": 316,
      "Ġyou": 317,
      "'s": 318,
      "ag": 319,
      "em": 320,
      "od": 321,
      "ĠĠĠĠĠĠĠĠ": 322,
      "Ġan": 323,
      "Ġal": 324,
      "Ġwh": 325,
      "Ġcon": 326,
      "ab": 327,
      "Ġ1": 328,
      "ri": 329,
      "ĠH": 330,
      "ra": 331,
      "um": 332,
      "ers": 333,
      "ill": 334,
      "Ġ2": 335,
      "ĠD": 336,
      "Ġwe": 337,
      "Ġpro": 338,
      "ate": 339,
      "ĠW": 340,
      "qu": 341,
      "ĠF": 342,
      "ist": 343,
      "ĠR": 344,
      "pp": 345,
      "est": 346,
      "Ġ\\\\": 347,
      "th": 348,
      "ĠThe": 349,
      "her": 350,
      "and": 351,
      "ess": 352,
      "ht": 353,
      "Ġv": 354,
      "Ġ$": 355,
      "Ġat": 356,
      "res": 357,
      "Ġwas": 358,
      "Ġcom": 359,
      "Ġare": 360,
      "ke": 361,
      "ld": 362,
      "op": 363,
      "te": 364,
      "ĠL": 365,
      "ew": 366,
      "rom": 367,
      "ore": 368,
      "Ġde": 369,
      "Ġor": 370,
      "ity": 371,
      "Ġex": 372,
      "ĠN": 373,
      "os": 374,
      "oc": 375,
      "ĠE": 376,
      "ect": 377,
      "end": 378,
      "ĠG": 379,
      "Ġ\\\"": 380,
      "Ġr": 381,
      "Ġha": 382,
      "ort": 383,
      "ain": 384,
      "Ġby": 385,
      "nt": 386,
      "ment": 387,
      "iv": 388,
      "ant": 389,
      "art": 390,
      "Ġse": 391,
      "Ġsu": 392,
      "ies": 393,
      "ight": 394,
      ";\\": 395,
      "Ġfrom": 396,
      "ive": 397,
      "..": 398,
      "nT": 399,
      "Ġnot": 400,
      "Ġthis": 401,
      "Ġsh": 402,
      "pt": 403,
      "all": 404,
      "ust": 405,
      "our": 406,
      "00": 407,
      "red": 408,
      "ud": 409,
      "Ġch": 410,
      "Ġhave": 411,
      "}\\": 412,
      "ĠJ": 413,
      "ĠO": 414,
      "Ġu": 415,
      "ial": 416,
      "ard": 417,
      "Ġle": 418,
      "pe": 419,
      "ould": 420,
      "ure": 421,
      "ge": 422,
      "ine": 423,
      "Ġus": 424,
      "Ġ{": 425,
      "out": 426,
      "ction": 427,
      "ell": 428,
      "pl": 429,
      "per": 430,
      "rou": 431,
      "ack": 432,
      "xt": 433,
      "og": 434,
      "ĠĠĠĠĠĠĠ": 435,
      "ost": 436,
      "ear": 437,
      "ome": 438,
      "Ġ=": 439,
      "Ġcan": 440,
      "Ġab": 441,
      "ok": 442,
      "ass": 443,
      "ak": 444,
      "Ġwor": 445,
      "age": 446,
      "01": 447,
      "ast": 448,
      "ame": 449,
      "ath": 450,
      "ub": 451,
      "ff": 452,
      "Ġcl": 453,
      "ĠU": 454,
      "Ġj": 455,
      "ide": 456,
      "Ġall": 457,
      "Ġpl": 458,
      "ich": 459,
      "âĢ": 460,
      "iz": 461,
      "Ġk": 462,
      "ue": 463,
      "Ġwill": 464,
      "Ġhas": 465,
      "_{": 466,
      "Ġwhe": 467,
      "ans": 468,
      "ice": 469,
      "ind": 470,
      "ical": 471,
      "ated": 472,
      "ap": 473,
      "ber": 474,
      "ong": 475,
      "Ġhis": 476,
      "Ġtr": 477,
      "cl": 478,
      "Ġne": 479,
      "able": 480,
      "nThe": 481,
      "ult": 482,
      "ther": 483,
      "ip": 484,
      "Ġme": 485,
      "ite": 486,
      "Ġdo": 487,
      "ary": 488,
      "orm": 489,
      "Ġgo": 490,
      "Ġcomp": 491,
      "are": 492,
      "Ġbut": 493,
      "ions": 494,
      "Ġad": 495,
      "ĠIn": 496,
      "ous": 497,
      "cc": 498,
      "gh": 499,
      "Ġen": 500,
      "ia": 501,
      "ime": 502,
      "Ġun": 503,
      "Ġout": 504,
      "ace": 505,
      ")\\": 506,
      "ep": 507,
      "Ġim": 508,
      "one": 509,
      "Ġthey": 510,
      "ĠK": 511,
      "ie": 512,
      "nA": 513,
      "Ġres": 514,
      "Ġtheir": 515,
      "to": 516,
      "ook": 517,
      "'t": 518,
      "Ġyour": 519,
      "ign": 520,
      "av": 521,
      "act": 522,
      ">\\": 523,
      "ry": 524,
      ");\\": 525,
      "--": 526,
      "ations": 527,
      "Ġcont": 528,
      "ance": 529,
      "Ġup": 530,
      "Ġwhich": 531,
      "Ġone": 532,
      "//": 533,
      "ib": 534,
      "ĠSt": 535,
      "ĠTh": 536,
      "ase": 537,
      "**": 538,
      "ph": 539,
      "nI": 540,
      "Ġmore": 541,
      "text": 542,
      "ire": 543,
      "ake": 544,
      "Ġso": 545,
      "ally": 546,
      "int": 547,
      "Ġwho": 548,
      "ile": 549,
      "very": 550,
      "Ġ201": 551,
      "ence": 552,
      "con": 553,
      "port": 554,
      "du": 555,
      "so": 556,
      "Ġsa": 557,
      "Ġhad": 558,
      "ru": 559,
      "ord": 560,
      "ĠV": 561,
      "Ġher": 562,
      "Ġapp": 563,
      "ition": 564,
      "ach": 565,
      "Ġ&": 566,
      "{\\\\": 567,
      "ail": 568,
      "Ġman": 569,
      "ents": 570,
      "ens": 571,
      "Ġif": 572,
      "Ġar": 573,
      "Ġabout": 574,
      "Ġwere": 575,
      "ang": 576,
      "lic": 577,
      "Ġ<": 578,
      "ks": 579,
      "urn": 580,
      "Ġsp": 581,
      "form": 582,
      "Ġli": 583,
      "Ġper": 584,
      "Ġdis": 585,
      "Ġqu": 586,
      "ress": 587,
      "Ġ3": 588,
      "ll": 589,
      "Ġ'": 590,
      "ild": 591,
      "ount": 592,
      "math": 593,
      "ely": 594,
      "ose": 595,
      "Ġ\\": 596,
      "erv": 597,
      "Ġnew": 598,
      "eg": 599,
      "ĠCh": 600,
      "=\\\"": 601,
      "Ġev": 602,
      "ory": 603,
      "ĠY": 604,
      "Ġother": 605,
      "own": 606,
      ".\\\"": 607,
      "ree": 608,
      "vel": 609,
      "Ġpart": 610,
      "Ġbeen": 611,
      "ob": 612,
      ",\\": 613,
      "Ġour": 614,
      "ays": 615,
      "ound": 616,
      "Ġag": 617,
      "nS": 618,
      "ft": 619,
      "Ġoff": 620,
      "Ġmy": 621,
      "ere": 622,
      "ark": 623,
      "com": 624,
      "ors": 625,
      "Ġte": 626,
      "Ġalso": 627,
      "Ġyear": 628,
      "vers": 629,
      "Ġsc": 630,
      "Ġ$\\\\": 631,
      "reat": 632,
      "Ġ-": 633,
      "ĠĠĠĠĠĠĠĠĠĠĠ": 634,
      "Ġthere": 635,
      "ings": 636,
      "row": 637,
      "ĠâĢ": 638,
      "Ġits": 639,
      "ne": 640,
      "Ġtime": 641,
      "ov": 642,
      "Ġwould": 643,
      "ove": 644,
      "ĠIt": 645,
      "Ġover": 646,
      "Ġany": 647,
      "ian": 648,
      "Ġ19": 649,
      "old": 650,
      "Ġ*": 651,
      "mer": 652,
      "Ġthem": 653,
      "Ġwork": 654,
      "Ġkn": 655,
      "ish": 656,
      "Ġpe": 657,
      "ric": 658,
      "irst": 659,
      "oll": 660,
      "Ġ{\\": 661,
      "Ġwhen": 662,
      "nW": 663,
      "</": 664,
      "Ġsome": 665,
      "use": 666,
      "Ġshe": 667,
      "ject": 668,
      "Ġpre": 669,
      "Ġget": 670,
      "get": 671,
      "Ġthan": 672,
      "Ġro": 673,
      "wo": 674,
      "Ġinto": 675,
      "ring": 676,
      "nder": 677,
      "),": 678,
      "Ġlike": 679,
      "ces": 680,
      "ĠHe": 681,
      "ates": 682,
      "ink": 683,
      "Ġwhat": 684,
      "clud": 685,
      "Ġsaid": 686,
      "ade": 687,
      "Ġno": 688,
      "ef": 689,
      "rit": 690,
      "fter": 691,
      "hed": 692,
      "we": 693,
      "Ġ\"": 694,
      "\":": 695,
      "Ġ{\"": 696,
      "ck": 697,
      "\"}": 698,
      "ick": 699,
      "ps": 700,
      "li": 701,
      "elf": 702,
      "Ġrec": 703,
      "Ġdes": 704,
      "ma": 705,
      "ople": 706,
      "Ġacc": 707,
      "oy": 708,
      "ond": 709,
      "iff": 710,
      ").": 711,
      "iew": 712,
      "ref": 713,
      "ater": 714,
      "Ġcomm": 715,
      "sp": 716,
      "ual": 717,
      "ple": 718,
      "ng": 719,
      "ca": 720,
      "}\\\\": 721,
      "ert": 722,
      "tern": 723,
      "eth": 724,
      "ious": 725,
      "Ġfirst": 726,
      "Ġjust": 727,
      "Ġ4": 728,
      "ons": 729,
      "Ġ0": 730,
      "nC": 731,
      "ood": 732,
      "igh": 733,
      "ss": 734,
      "Ġfe": 735,
      "}$": 736,
      "ublic": 737,
      ",\\\"": 738,
      "Ġind": 739,
      "aw": 740,
      "ĠWe": 741,
      "rib": 742,
      "^{": 743,
      "Ġpeople": 744,
      "Ġbet": 745,
      "ool": 746,
      "ty": 747,
      "nB": 748,
      "Ġhow": 749,
      "pec": 750,
      "Ġonly": 751,
      "ata": 752,
      "iss": 753,
      "ock": 754,
      "Ġtwo": 755,
      "Ġbl": 756,
      "ram": 757,
      "pro": 758,
      "erm": 759,
      "Ġ5": 760,
      "Ġunder": 761,
      "ning": 762,
      "rough": 763,
      "Ġret": 764,
      "ational": 765,
      "nM": 766,
      "oint": 767,
      "ener": 768,
      "lect": 769,
      "ode": 770,
      "Ġclass": 771,
      "Ġam": 772,
      "ĠâĢĵ": 773,
      "cre": 774,
      "Ġcons": 775,
      "Ġsy": 776,
      "Ġfl": 777,
      "Ġexp": 778,
      "round": 779,
      "ities": 780,
      "ise": 781,
      "Ġneed": 782,
      "ont": 783,
      "les": 784,
      "ced": 785,
      "Ġhim": 786,
      "Ġass": 787,
      "ull": 788,
      "ics": 789,
      "ĠĠĠĠĠĠĠĠĠĠĠĠĠĠĠĠ": 790,
      ".\\\"\\": 791,
      "ĠThis": 792,
      "ex": 793,
      "ĠUn": 794,
      "ough": 795,
      "hat": 796,
      "Ġprov": 797,
      "Ġact": 798,
      "Ġem": 799,
      "ting": 800,
      "Ġmay": 801,
      "Ġback": 802,
      "nF": 803,
      "Ġadd": 804,
      "Ġset": 805,
      "Ġatt": 806,
      "ating": 807,
      "Ġmost": 808,
      "Ġco": 809,
      "Ġcould": 810,
      "Ġknow": 811,
      "Ġdiff": 812,
      "ident": 813,
      "Ġwhere": 814,
      "Ġthrough": 815,
      "oth": 816,
      "02": 817,
      "Ġob": 818,
      "nP": 819,
      "Ġinclud": 820,
      "Ġinv": 821,
      "ption": 822,
      "ific": 823,
      "hen": 824,
      "Ġthese": 825,
      "olog": 826,
      "ug": 827,
      "ork": 828,
      "Ġreg": 829,
      "Ġdef": 830,
      "wn": 831,
      "cess": 832,
      "ta": 833,
      "Ġafter": 834,
      "ular": 835,
      "nH": 836,
      "Ġthen": 837,
      "stem": 838,
      "ient": 839,
      "Ġstud": 840,
      ":\\": 841,
      "als": 842,
      "Ġrel": 843,
      "Ġsee": 844,
      "ec": 845,
      "Ġpos": 846,
      "ĠĠĠĠĠ": 847,
      "ward": 848,
      "(\\\\": 849,
      "ility": 850,
      "ments": 851,
      "ange": 852,
      "ys": 853,
      "Ġlook": 854,
      "Ġsupp": 855,
      "Ġph": 856,
      "ict": 857,
      "Ġfin": 858,
      "ĠCom": 859,
      "ased": 860,
      "Ġsub": 861,
      "iel": 862,
      "Ġsuch": 863,
      "Ġpr": 864,
      "Ġbu": 865,
      "Ġrem": 866,
      "ied": 867,
      "Ġwell": 868,
      "cause": 869,
      "ative": 870,
      "Ġmod": 871,
      "Ġevery": 872,
      "Ġ[": 873,
      "Ġyears": 874,
      "ful": 875,
      "}}": 876,
      "ife": 877,
      "ily": 878,
      "up": 879,
      "Ġmake": 880,
      "Ġ}\\": 881,
      "ible": 882,
      "ures": 883,
      "ĠAr": 884,
      "riv": 885,
      "ts": 886,
      "Ġdid": 887,
      "ren": 888,
      "Ġprodu": 889,
      "egin": 890,
      "Ġint": 891,
      "io": 892,
      "uch": 893,
      "arch": 894,
      "ract": 895,
      "ix": 896,
      "Ġcol": 897,
      "_{\\\\": 898,
      "ution": 899,
      "ize": 900,
      "?\\": 901,
      "Ġval": 902,
      "Ġac": 903,
      "ower": 904,
      "Ġsm": 905,
      "Ġwant": 906,
      "imes": 907,
      "Ġpol": 908,
      "und": 909,
      "Ġnow": 910,
      "Ġ200": 911,
      "day": 912,
      "Ġhel": 913,
      "ited": 914,
      "uring": 915,
      "Ġserv": 916,
      "cal": 917,
      "begin": 918,
      "Ġent": 919,
      "....": 920,
      "sh": 921,
      "St": 922,
      "nD": 923,
      "Ġpres": 924,
      "Ġend": 925,
      "fore": 926,
      "ev": 927,
      "equ": 928,
      "Ġuse": 929,
      "ollow": 930,
      "line": 931,
      "its": 932,
      "ax": 933,
      "Ġmany": 934,
      "Ġ6": 935,
      "any": 936,
      "Ġway": 937,
      "Ġeven": 938,
      "ĠNew": 939,
      "Ġtrans": 940,
      "ues": 941,
      "pr": 942,
      "Ġshould": 943,
      "Ġ_": 944,
      "aking": 945,
      "ble": 946,
      "Ġvery": 947,
      "ield": 948,
      "anc": 949,
      "Ġfun": 950,
      "ices": 951,
      "air": 952,
      "Ġtra": 953,
      "Ġright": 954,
      "ĠPro": 955,
      "Ġplay": 956,
      "hes": 957,
      "Ġeff": 958,
      "ement": 959,
      "Ġreturn": 960,
      "Ġshow": 961,
      "other": 962,
      "Ġagain": 963,
      "Ġinst": 964,
      ")$": 965,
      "Ġinter": 966,
      "Ġke": 967,
      "ype": 968,
      "itt": 969,
      "mathb": 970,
      "fr": 971,
      "erson": 972,
      "Ġbecause": 973,
      "Ġgr": 974,
      "The": 975,
      "velop": 976,
      "ash": 977,
      "Ġdiffere": 978,
      "Ġcall": 979,
      "ivers": 980,
      "Ġlong": 981,
      "right": 982,
      "Ġnum": 983,
      "nO": 984,
      "()": 985,
      "Ġexper": 986,
      "ĠAnd": 987,
      "ience": 988,
      "ner": 989,
      "nIn": 990,
      "put": 991,
      "Ġresp": 992,
      "Ġsur": 993,
      "ween": 994,
      "...": 995,
      "19": 996,
      "Ġrequ": 997,
      "the": 998,
      "oun": 999,
      "Ġdec": 1000,
      "gan": 1001,
      "ince": 1002,
      "Ġpublic": 1003,
      "----": 1004,
      "iness": 1005,
      "Ġhelp": 1006,
      "Ġ+": 1007,
      "ĠSe": 1008,
      "Ġform": 1009,
      "Ġown": 1010,
      "Ġdown": 1011,
      "atch": 1012,
      "Ġloc": 1013,
      "Ġspec": 1014,
      "ank": 1015,
      "Ġstart": 1016,
      "Ġsim": 1017,
      "Ġgood": 1018,
      "chool": 1019,
      "ins": 1020,
      "read": 1021,
      "uth": 1022,
      "Ġbeing": 1023,
      "Ġdet": 1024,
      "Ġfollow": 1025,
      "enc": 1026,
      "led": 1027,
      "Ġmade": 1028,
      "arg": 1029,
      "abel": 1030,
      "nL": 1031,
      "pos": 1032,
      "Ġbetween": 1033,
      "irect": 1034,
      "tt": 1035,
      "Ġcur": 1036,
      "nR": 1037,
      "Ġ7": 1038,
      "Ġ10": 1039,
      "land": 1040,
      "Ġvar": 1041,
      "Ġhigh": 1042,
      "amp": 1043,
      "Ġmuch": 1044,
      "Ġgu": 1045,
      "Ġsystem": 1046,
      "nN": 1047,
      "sc": 1048,
      "par": 1049,
      "alth": 1050,
      "Ġbefore": 1051,
      "ave": 1052,
      "\\\">": 1053,
      "Ġthink": 1054,
      "ern": 1055,
      "ather": 1056,
      "formation": 1057,
      "Ġcar": 1058,
      "Ġthose": 1059,
      "Ġmin": 1060,
      "Ġworld": 1061,
      "rest": 1062,
      "Ġbel": 1063,
      "ĠYou": 1064,
      "Ġmon": 1065,
      "Ġused": 1066,
      "over": 1067,
      "ĠAl": 1068,
      "ĠDe": 1069,
      "Ġdon": 1070,
      "Ġext": 1071,
      "Ġcor": 1072,
      "'re": 1073,
      ".\"}": 1074,
      "ason": 1075,
      "Ġgreat": 1076,
      "meric": 1077,
      "ives": 1078,
      "10": 1079,
      "Ġcount": 1080,
      "der": 1081,
      "Ġresult": 1082,
      "man": 1083,
      "uc": 1084,
      "ists": 1085,
      "ined": 1086,
      "ines": 1087,
      "Ġdoes": 1088,
      "Ġeach": 1089,
      "==": 1090,
      "ten": 1091,
      "ĠAn": 1092,
      "ton": 1093,
      "Ġref": 1094,
      "Ġ8": 1095,
      "ĠFor": 1096,
      "ism": 1097,
      "Ġart": 1098,
      "alk": 1099,
      "Ġinte": 1100,
      "âĢĶ": 1101,
      "way": 1102,
      "Ġgener": 1103,
      "ets": 1104,
      "Ġmed": 1105,
      "Ġmem": 1106,
      "Ġfam": 1107,
      "ox": 1108,
      "roup": 1109,
      "uss": 1110,
      "Ġpoint": 1111,
      "usiness": 1112,
      "of": 1113,
      "Ġread": 1114,
      "ouse": 1115,
      "Ġop": 1116,
      "Ġhand": 1117,
      "Ġfind": 1118,
      "app": 1119,
      "Ġhere": 1120,
      "ek": 1121,
      "Ġ.": 1122,
      "fig": 1123,
      "Ġ|": 1124,
      "oh": 1125,
      "cent": 1126,
      "ĠĠĠĠĠĠĠĠĠĠĠĠĠĠĠ": 1127,
      "ER": 1128,
      "cond": 1129,
      "201": 1130,
      "ĠSh": 1131,
      "arm": 1132,
      "ctions": 1133,
      "Ġdata": 1134,
      "Ġdist": 1135,
      "ness": 1136,
      "raph": 1137,
      "ages": 1138,
      "ven": 1139,
      "let": 1140,
      "Ġlead": 1141,
      "Ġed": 1142,
      "self": 1143,
      "Ġsom": 1144,
      "****": 1145,
      "ized": 1146,
      "\\\"\\": 1147,
      "Ġdevelop": 1148,
      "ah": 1149,
      "ale": 1150,
      "rent": 1151,
      "Ġstr": 1152,
      "Ġear": 1153,
      "ĠBut": 1154,
      "Ġsame": 1155,
      "ght": 1156,
      "ruct": 1157,
      "Ġtake": 1158,
      "nce": 1159,
      "Ġdisc": 1160,
      "}{": 1161,
      "Ġcre": 1162,
      "Ġconst": 1163,
      "Ġsign": 1164,
      "eq": 1165,
      "Ġwhile": 1166,
      "nE": 1167,
      "Ġel": 1168,
      "oci": 1169,
      "Ġlast": 1170,
      "Ġ9": 1171,
      "hip": 1172,
      "vent": 1173,
      "gram": 1174,
      "nTh": 1175,
      "Ġ202": 1176,
      "Ġdifferent": 1177,
      "ered": 1178,
      "ever": 1179,
      "Ġser": 1180,
      "ator": 1181,
      "Ġra": 1182,
      "In": 1183,
      "000": 1184,
      "ually": 1185,
      "Ġboth": 1186,
      "Ġca": 1187,
      "ature": 1188,
      "chn": 1189,
      "rm": 1190,
      ",\\\\": 1191,
      "Ġgl": 1192,
      "ĠAmeric": 1193,
      "err": 1194,
      "ters": 1195,
      "eng": 1196,
      "ead": 1197,
      "ames": 1198,
      "ute": 1199,
      "Ġfound": 1200,
      "Ġ//": 1201,
      "Ġday": 1202,
      "oad": 1203,
      "ĠAs": 1204,
      "Ġ/": 1205,
      "ically": 1206,
      "ots": 1207,
      "ality": 1208,
      "ars": 1209,
      "Ġche": 1210,
      "tr": 1211,
      "Ġvis": 1212,
      "Ġsupport": 1213,
      "ĠIf": 1214,
      "els": 1215,
      "Ġperson": 1216,
      "Ġchild": 1217,
      "ĠTr": 1218,
      "ross": 1219,
      "ier": 1220,
      "Ġav": 1221,
      "ody": 1222,
      "!\\": 1223,
      "gy": 1224,
      "view": 1225,
      "ology": 1226,
      "ĠShe": 1227,
      "Ġ:": 1228,
      "Ġcour": 1229,
      "Ġstill": 1230,
      "Ġsl": 1231,
      "frac": 1232,
      "Ġlife": 1233,
      "Ġthree": 1234,
      "Ġaround": 1235,
      "ared": 1236,
      "akes": 1237,
      "://": 1238,
      "Ġcommun": 1239,
      "au": 1240,
      "ĠCl": 1241,
      "Ġfil": 1242,
      "Ġappro": 1243,
      "Ġbest": 1244,
      "ĠAd": 1245,
      "ann": 1246,
      "ection": 1247,
      "Ġstat": 1248,
      "cept": 1249,
      "Ã©": 1250,
      "az": 1251,
      "Ġfact": 1252,
      "ired": 1253,
      "Ġbr": 1254,
      "Ġpar": 1255,
      "iversity": 1256,
      "cite": 1257,
      "ource": 1258,
      "Ġmark": 1259,
      "ray": 1260,
      "ww": 1261,
      "ider": 1262,
      "label": 1263,
      "come": 1264,
      "Ġname": 1265,
      "ants": 1266,
      "Ġsay": 1267,
      "Ġinformation": 1268,
      "ote": 1269,
      "ĠQ": 1270,
      "ital": 1271,
      "Ġgoing": 1272,
      "Ġcent": 1273,
      "Ġchar": 1274,
      "mathcal": 1275,
      "Ġsol": 1276,
      "Ġrep": 1277,
      "Ġprocess": 1278,
      ".,": 1279,
      "Ġimport": 1280,
      "ural": 1281,
      "Ġpartic": 1282,
      "Ġnumber": 1283,
      "ms": 1284,
      "here": 1285,
      "Ġequ": 1286,
      "ral": 1287,
      "oid": 1288,
      "Ġbusiness": 1289,
      "ĠWh": 1290,
      "Ġi": 1291,
      "Ġcle": 1292,
      "Ġcontin": 1293,
      "Ġcase": 1294,
      "amb": 1295,
      "ĠSc": 1296,
      "ns": 1297,
      "ĠThey": 1298,
      "Ġ@": 1299,
      "ished": 1300,
      "Ġreport": 1301,
      "IN": 1302,
      "Ġduring": 1303,
      "ery": 1304,
      "12": 1305,
      "Ġ18": 1306,
      "ense": 1307,
      "Ġhome": 1308,
      "ret": 1309,
      "Ġcare": 1310,
      "Ġbook": 1311,
      "ision": 1312,
      "aj": 1313,
      "oot": 1314,
      "eb": 1315,
      "ĠInd": 1316,
      "mb": 1317,
      "part": 1318,
      "Ġinf": 1319,
      "'ve": 1320,
      "min": 1321,
      "less": 1322,
      "Ġest": 1323,
      "ON": 1324,
      "eta": 1325,
      "gg": 1326,
      "ected": 1327,
      "âĢĵ": 1328,
      "ethod": 1329,
      "ĠCon": 1330,
      "Ġins": 1331,
      "ying": 1332,
      "Ġstate": 1333,
      "Ġusing": 1334,
      "Ġreally": 1335,
      "'m": 1336,
      "Ġdesign": 1337,
      "Ġreal": 1338,
      "Ġ,": 1339,
      "Ġexpl": 1340,
      "->": 1341,
      "Ġpat": 1342,
      "inal": 1343,
      "ety": 1344,
      "Ġfunction": 1345,
      "nG": 1346,
      "bers": 1347,
      "ĠIs": 1348,
      "]\\": 1349,
      "bs": 1350,
      "Ġdel": 1351,
      "Ġ12": 1352,
      "ved": 1353,
      "ization": 1354,
      "Ġrun": 1355,
      "Ġconf": 1356,
      "}(": 1357,
      "Ġprovid": 1358,
      "set": 1359,
      "},": 1360,
      "Ġopen": 1361,
      "})": 1362,
      "Ġplace": 1363,
      "orn": 1364,
      "ional": 1365,
      "Ġeffect": 1366,
      "ĠZ": 1367,
      "ought": 1368,
      "Ġexam": 1369,
      "ases": 1370,
      "arn": 1371,
      "Ġposs": 1372,
      "yp": 1373,
      "ĠEx": 1374,
      "iven": 1375,
      "Ġsmall": 1376,
      "ering": 1377,
      "Ġpass": 1378,
      "val": 1379,
      "ittle": 1380,
      "Ġlist": 1381,
      "Ġwrit": 1382,
      "Ġoper": 1383,
      "Ġcr": 1384,
      "\\\",": 1385,
      "ving": 1386,
      "Ġsecond": 1387,
      "riend": 1388,
      "Ġmust": 1389,
      "ining": 1390,
      "ways": 1391,
      "illion": 1392,
      "Ġprogram": 1393,
      "tain": 1394,
      "ream": 1395,
      "ccess": 1396,
      "::": 1397,
      "Ġincre": 1398,
      "Ġhead": 1399,
      "Ġtoo": 1400,
      "Ġpost": 1401,
      "ĠBe": 1402,
      "Ġsince": 1403,
      "ially": 1404,
      "Ġteam": 1405,
      "Ġhapp": 1406,
      "Ġtest": 1407,
      "Ġlet": 1408,
      "Ġschool": 1409,
      "Ġmat": 1410,
      "Ġmain": 1411,
      "Ġrest": 1412,
      "Ġsk": 1413,
      "Ġwom": 1414,
      "ration": 1415,
      "Ġincluding": 1416,
      "Ġpur": 1417,
      "\\\\\\": 1418,
      "Ġadv": 1419,
      "(\\\"": 1420,
      "ump": 1421,
      "Ġinterest": 1422,
      "Ġdirect": 1423,
      ").\\": 1424,
      "be": 1425,
      "}^": 1426,
      "vern": 1427,
      "Ġperform": 1428,
      "Ġlaw": 1429,
      "ron": 1430,
      "Ġbuild": 1431,
      "Ġtop": 1432,
      "11": 1433,
      "yn": 1434,
      "Ġagainst": 1435,
      "left": 1436,
      "rol": 1437,
      "ĠBl": 1438,
      "ves": 1439,
      "Ġbo": 1440,
      "Ġfew": 1441,
      "equation": 1442,
      "ĠPh": 1443,
      "ĠFr": 1444,
      "Ġiss": 1445,
      "Ġfr": 1446,
      "ething": 1447,
      "Ġstand": 1448,
      "Ġprof": 1449,
      "ane": 1450,
      "Ġmus": 1451,
      "ency": 1452,
      "by": 1453,
      "ik": 1454,
      "Ġla": 1455,
      "que": 1456,
      "Ġ}": 1457,
      "Ġnext": 1458,
      "ertain": 1459,
      "ĠâĢĶ": 1460,
      "Ġtechn": 1461,
      "Ġele": 1462,
      "mathbf": 1463,
      "Ġallow": 1464,
      "Ġturn": 1465,
      "thing": 1466,
      "ified": 1467,
      "att": 1468,
      "...\\": 1469,
      "ES": 1470,
      "~\\\\": 1471,
      "ploy": 1472,
      "Ġ</": 1473,
      "Ġbre": 1474,
      "ele": 1475,
      "Ġproject": 1476,
      "Ġself": 1477,
      "ĠHow": 1478,
      "til": 1479,
      "Ġgovern": 1480,
      "Ġanother": 1481,
      "me": 1482,
      "uthor": 1483,
      "Ġmonth": 1484,
      "nJ": 1485,
      "Ġdi": 1486,
      "50": 1487,
      "ission": 1488,
      "Ġwithout": 1489,
      "Ġvalue": 1490,
      "ĠSp": 1491,
      "ĠComm": 1492,
      "med": 1493,
      "Ġmov": 1494,
      "iving": 1495,
      "itions": 1496,
      "for": 1497,
      "ĠPl": 1498,
      "Ġcome": 1499,
      "stand": 1500,
      "ĠCol": 1501,
      "ior": 1502,
      "ger": 1503,
      "$,": 1504,
      "Ġnever": 1505,
      "AT": 1506,
      "();\\": 1507,
      "Ġorgan": 1508,
      "ember": 1509,
      "Ġterm": 1510,
      "Ġinvest": 1511,
      "ately": 1512,
      "ĠUS": 1513,
      "Ġleg": 1514,
      "ocial": 1515,
      "Ġimp": 1516,
      "AR": 1517,
      "ised": 1518,
      "ling": 1519,
      "rist": 1520,
      "uro": 1521,
      "Ġopp": 1522,
      "nThis": 1523,
      "Ġproduct": 1524,
      "Ġtri": 1525,
      "Ġgrow": 1526,
      "Ġpower": 1527,
      "eter": 1528,
      "Ġhist": 1529,
      "ability": 1530,
      "ĠUniversity": 1531,
      "mber": 1532,
      "Ġproble": 1533,
      "Ġhealth": 1534,
      "ds": 1535,
      "ĠX": 1536,
      "Ġrece": 1537,
      "'ll": 1538,
      "Ġsomething": 1539,
      "Ġquest": 1540,
      "Ġrese": 1541,
      "cur": 1542,
      "Ġold": 1543,
      "Ġfamily": 1544,
      "ĠMar": 1545,
      "Ġdem": 1546,
      "Ġthings": 1547,
      "irc": 1548,
      "Ġgot": 1549,
      "Ġcurrent": 1550,
      "arge": 1551,
      "ina": 1552,
      "Ġlittle": 1553,
      "ott": 1554,
      "}_": 1555,
      "nWe": 1556,
      "work": 1557,
      "Ġput": 1558,
      "Ġeas": 1559,
      "ee": 1560,
      "Ġask": 1561,
      "lease": 1562,
      "essage": 1563,
      "Ġnon": 1564,
      "Ġide": 1565,
      "ĠRes": 1566,
      "ively": 1567,
      "Ġfeel": 1568,
      "Ġspe": 1569,
      "outh": 1570,
      "ole": 1571,
      "Ġorder": 1572,
      "ustom": 1573,
      "arent": 1574,
      "Ġmight": 1575,
      "conom": 1576,
      "Ġbeh": 1577,
      "gr": 1578,
      "Ġalways": 1579,
      "Ġlevel": 1580,
      "Ġproper": 1581,
      "ĠThere": 1582,
      "Ġcompany": 1583,
      "',": 1584,
      "ĠAll": 1585,
      "ailable": 1586,
      "OR": 1587,
      "Ġbig": 1588,
      "Ġweek": 1589,
      "Ġline": 1590,
      "ument": 1591,
      "Ġhum": 1592,
      "Ġtype": 1593,
      "vious": 1594,
      "Ġpresent": 1595,
      "Ġ#": 1596,
      "orth": 1597,
      "Ex": 1598,
      "ains": 1599,
      "Ġann": 1600,
      "ĠRe": 1601,
      "ask": 1602,
      "Ġsit": 1603,
      "lex": 1604,
      "Ġsing": 1605,
      "Ġfour": 1606,
      "Ġ20": 1607,
      "ories": 1608,
      "ope": 1609,
      "pha": 1610,
      "Ġseem": 1611,
      "Ġgame": 1612,
      "htt": 1613,
      "br": 1614,
      "Ġbetter": 1615,
      "Ġmet": 1616,
      "atic": 1617,
      "Ġet": 1618,
      "ĠCent": 1619,
      "por": 1620,
      "ium": 1621,
      "Ġimportant": 1622,
      "Ġpop": 1623,
      "oss": 1624,
      "ley": 1625,
      "Ġfield": 1626,
      "Ġbro": 1627,
      "Ġgroup": 1628,
      "da": 1629,
      "Con": 1630,
      "Ġkeep": 1631,
      "Ġsays": 1632,
      "ĠSo": 1633,
      "ently": 1634,
      "son": 1635,
      "Ġwater": 1636,
      ")\\\\": 1637,
      "ries": 1638,
      "30": 1639,
      "Ġbelie": 1640,
      "Ġrecord": 1641,
      "ml": 1642,
      "Ġcond": 1643,
      "span": 1644,
      "ured": 1645,
      "Ġintern": 1646,
      "reen": 1647,
      "\\\">\\": 1648,
      "Ġdesc": 1649,
      "Ġhard": 1650,
      "ivid": 1651,
      "Ġfree": 1652,
      "/\\": 1653,
      "Ġview": 1654,
      "ential": 1655,
      "ived": 1656,
      "EN": 1657,
      "lish": 1658,
      "Ġlocal": 1659,
      "Ġleft": 1660,
      "Ġlot": 1661,
      "Ġwithin": 1662,
      "Ġplan": 1663,
      "Ġless": 1664,
      "ĠTo": 1665,
      "ention": 1666,
      "Ġfriend": 1667,
      "Ġgiven": 1668,
      "ination": 1669,
      "enn": 1670,
      "Ġcho": 1671,
      "inc": 1672,
      "Ġpay": 1673,
      "ĠOr": 1674,
      "ĠÂ": 1675,
      "uck": 1676,
      "co": 1677,
      "Ġlight": 1678,
      "AN": 1679,
      "une": 1680,
      "resent": 1681,
      "aim": 1682,
      "org": 1683,
      "Ġcap": 1684,
      "iron": 1685,
      "ients": 1686,
      "my": 1687,
      "Ġfull": 1688,
      "alpha": 1689,
      "uff": 1690,
      "ury": 1691,
      "20": 1692,
      "ats": 1693,
      "Ġmodel": 1694,
      "Ġprote": 1695,
      "ĠJoh": 1696,
      "acy": 1697,
      "Ġmanag": 1698,
      "pped": 1699,
      "dd": 1700,
      "Ġavailable": 1701,
      "icle": 1702,
      "ĠMay": 1703,
      "ript": 1704,
      "ĠOn": 1705,
      "ably": 1706,
      "Ġpriv": 1707,
      "Ġchang": 1708,
      "Ġdep": 1709,
      "mathbb": 1710,
      "Ġ11": 1711,
      "Ġfac": 1712,
      "div": 1713,
      "Ġmarket": 1714,
      "Ġuntil": 1715,
      "sy": 1716,
      "ush": 1717,
      "Ġaff": 1718,
      "nim": 1719,
      "not": 1720,
      "Ġfollowing": 1721,
      "ID": 1722,
      "ney": 1723,
      "ands": 1724,
      "Ġeng": 1725,
      "erence": 1726,
      "Ġmethod": 1727,
      "--------": 1728,
      "Ġ15": 1729,
      "ĠThat": 1730,
      "ait": 1731,
      "ĠEng": 1732,
      "Ġlove": 1733,
      "Ġpa": 1734,
      "........": 1735,
      "Ġthought": 1736,
      "Ġchange": 1737,
      "oney": 1738,
      "Ġ199": 1739,
      "ours": 1740,
      "('": 1741,
      "itive": 1742,
      "ĠLe": 1743,
      "Ġexperience": 1744,
      "ĠTe": 1745,
      "ising": 1746,
      "yle": 1747,
      "vert": 1748,
      "ĠĠĠĠĠĠĠĠĠĠĠĠĠĠĠĠĠĠĠ": 1749,
      "ST": 1750,
      "Ġaway": 1751,
      "ien": 1752,
      "sub": 1753,
      "ĠAmerican": 1754,
      "Ġchildren": 1755,
      "ware": 1756,
      "ception": 1757,
      "ift": 1758,
      "ĠNo": 1759,
      "Ġprom": 1760,
      "ards": 1761,
      "Ġopt": 1762,
      "Ġcountry": 1763,
      "raw": 1764,
      "ĠSy": 1765,
      "ateg": 1766,
      "ober": 1767,
      "Ġlarge": 1768,
      "Ġcost": 1769,
      "ulation": 1770,
      "itional": 1771,
      "oor": 1772,
      "Ġgovernment": 1773,
      "ird": 1774,
      "Ġnet": 1775,
      "Ġdays": 1776,
      "Ġservice": 1777,
      "ĠAt": 1778,
      "Ġsuccess": 1779,
      "Ġcalled": 1780,
      "ajor": 1781,
      "rict": 1782,
      "Ġoffic": 1783,
      "ortun": 1784,
      "Ġcharact": 1785,
      "Ġes": 1786,
      "lection": 1787,
      "Ġanal": 1788,
      "Ġpract": 1789,
      "$.": 1790,
      "utes": 1791,
      "Ġlim": 1792,
      "Ġx": 1793,
      "{\\": 1794,
      "$\\\\": 1795,
      "aster": 1796,
      "elta": 1797,
      "Pro": 1798,
      "AL": 1799,
      "'d": 1800,
      "nIt": 1801,
      "Ġgive": 1802,
      "Ġapplic": 1803,
      "ending": 1804,
      "Ġevent": 1805,
      "Ġmult": 1806,
      "18": 1807,
      "Ġconn": 1808,
      "Ġable": 1809,
      "icy": 1810,
      "ho": 1811,
      "Ġocc": 1812,
      "ording": 1813,
      "bl": 1814,
      "Ġwin": 1815,
      "eps": 1816,
      "15": 1817,
      "Ġmeet": 1818,
      "Ġtem": 1819,
      "Ġmean": 1820,
      "ister": 1821,
      "../": 1822,
      "side": 1823,
      "ended": 1824,
      "osed": 1825,
      "Ġdev": 1826,
      "ocus": 1827,
      "Ġbas": 1828,
      "Ġaccess": 1829,
      "Ġ16": 1830,
      "igma": 1831,
      "Ġdidn": 1832,
      "Ġalong": 1833,
      "Ġnear": 1834,
      "**\\": 1835,
      "Ġsure": 1836,
      "sum": 1837,
      "aut": 1838,
      "ances": 1839,
      "alf": 1840,
      "Ġmove": 1841,
      "Ġident": 1842,
      "16": 1843,
      "Ġmusic": 1844,
      "ĠMan": 1845,
      "idd": 1846,
      "Ġpast": 1847,
      "idth": 1848,
      "Ġtrue": 1849,
      "nimport": 1850,
      "gin": 1851,
      "uture": 1852,
      "Ġprovide": 1853,
      "ready": 1854,
      "Ġclear": 1855,
      "ĠJan": 1856,
      "Ġorig": 1857,
      "comm": 1858,
      "Ġbased": 1859,
      "Ġelect": 1860,
      "Ġmar": 1861,
      "Ġstory": 1862,
      "duct": 1863,
      "pi": 1864,
      "ene": 1865,
      "Ġworking": 1866,
      "uly": 1867,
      "Ġactiv": 1868,
      "Ġresearch": 1869,
      "Ġve": 1870,
      "Ġsocial": 1871,
      "aces": 1872,
      "Ġvari": 1873,
      "che": 1874,
      "ows": 1875,
      "col": 1876,
      "ĠCan": 1877,
      "back": 1878,
      "bar": 1879,
      "ĠWith": 1880,
      "osp": 1881,
      "Ġmaking": 1882,
      "Ġunderstand": 1883,
      "ambda": 1884,
      "nU": 1885,
      "ify": 1886,
      "Ġinc": 1887,
      "itor": 1888,
      "Ġstudents": 1889,
      "orld": 1890,
      "Ġcustom": 1891,
      "Ġmillion": 1892,
      "urther": 1893,
      "ged": 1894,
      "viron": 1895,
      "Ġtoget": 1896,
      "rop": 1897,
      "Ġtogether": 1898,
      "Ġelse": 1899,
      "Ġcommunity": 1900,
      "iver": 1901,
      "##": 1902,
      "this": 1903,
      "Ġkind": 1904,
      "add": 1905,
      "Ġacross": 1906,
      "ault": 1907,
      "roll": 1908,
      "You": 1909,
      "utions": 1910,
      "str": 1911,
      "rap": 1912,
      "ians": 1913,
      "RE": 1914,
      "ither": 1915,
      "Ġwhy": 1916,
      "aps": 1917,
      "ĠEuro": 1918,
      "ison": 1919,
      "Ġfar": 1920,
      "ey": 1921,
      "ĠCar": 1922,
      "name": 1923,
      "Ġmil": 1924,
      "Ġ30": 1925,
      "200": 1926,
      "Ġemploy": 1927,
      "rem": 1928,
      "Ġfore": 1929,
      "Ġz": 1930,
      "Ġfund": 1931,
      "Ġhold": 1932,
      "Ġwomen": 1933,
      "ĠUnited": 1934,
      "Ġcame": 1935,
      "Ġarea": 1936,
      "}_{": 1937,
      "Ġtell": 1938,
      "ĠMed": 1939,
      "Ġpossible": 1940,
      "Ġmen": 1941,
      "Ġpolit": 1942,
      "lished": 1943,
      "Ġaut": 1944,
      "veral": 1945,
      "imate": 1946,
      "ler": 1947,
      "ored": 1948,
      "Ġlik": 1949,
      "Ġtimes": 1950,
      "_\\\\": 1951,
      "af": 1952,
      "alse": 1953,
      "ĠChrist": 1954,
      "Ġsw": 1955,
      "Ġindust": 1956,
      "}^{": 1957,
      "Ġside": 1958,
      "Ġoften": 1959,
      "Ġphot": 1960,
      "Ġspecial": 1961,
      "new": 1962,
      "agn": 1963,
      "Ġjob": 1964,
      "ĠGr": 1965,
      "ails": 1966,
      "Ġfinal": 1967,
      "ĠĠĠĠĠĠĠĠĠ": 1968,
      "ĠYork": 1969,
      "ales": 1970,
      "ources": 1971,
      "Ġbecome": 1972,
      "Ġ2018": 1973,
      "Ġalready": 1974,
      "13": 1975,
      "Id": 1976,
      "Ġenough": 1977,
      "load": 1978,
      "ĠPr": 1979,
      "Ġeconom": 1980,
      "ĠFl": 1981,
      "Ġresults": 1982,
      "14": 1983,
      "AS": 1984,
      "ule": 1985,
      "face": 1986,
      "Ġshort": 1987,
      "amma": 1988,
      "Ġconsider": 1989,
      "Ġmeas": 1990,
      "Ġ17": 1991,
      "Ġparticular": 1992,
      "ched": 1993,
      "'\\": 1994,
      "ourn": 1995,
      "urs": 1996,
      "ĠWhen": 1997,
      "itle": 1998,
      "Ġleast": 1999,
      "fl": 2000,
      "ĠRep": 2001,
      "ilar": 2002,
      "Ġimpro": 2003,
      "aff": 2004,
      "Ġtoday": 2005,
      "Ġmom": 2006,
      "It": 2007,
      "Ġthing": 2008,
      "ffic": 2009,
      "Ġroom": 2010,
      "reg": 2011,
      "ai": 2012,
      "Ġexc": 2013,
      "Ġcourse": 2014,
      "Ġ14": 2015,
      "Ġyoung": 2016,
      "Ġpot": 2017,
      "Ġservices": 2018,
      "ext": 2019,
      "Ġmajor": 2020,
      "Th": 2021,
      "obal": 2022,
      "********": 2023,
      "Ġexample": 2024,
      "ĠCo": 2025,
      "mm": 2026,
      "var": 2027,
      "Ġener": 2028,
      "ued": 2029,
      "Ġlater": 2030,
      "Ġsum": 2031,
      "Ġdr": 2032,
      "Ġspace": 2033,
      "Ġtook": 2034,
      "Ġ--": 2035,
      "isk": 2036,
      "ĠAss": 2037,
      "Ġcertain": 2038,
      "Ġmembers": 2039,
      "Ġnight": 2040,
      "ĠBr": 2041,
      "ength": 2042,
      "Name": 2043,
      "ike": 2044,
      "mu": 2045,
      "onse": 2046,
      "Ġwr": 2047,
      "Type": 2048,
      "=\\\\": 2049,
      "ĠApp": 2050,
      "Ġ2019": 2051,
      "error": 2052,
      "ĠWhat": 2053,
      "ograph": 2054,
      "String": 2055,
      "Ġair": 2056,
      "aken": 2057,
      "Ġwar": 2058,
      "ony": 2059,
      "most": 2060,
      "wards": 2061,
      "ides": 2062,
      "Ġ*/\\": 2063,
      "idence": 2064,
      "Ġben": 2065,
      "Ġtalk": 2066,
      "Ġobject": 2067,
      "ividual": 2068,
      "Ġseveral": 2069,
      "IT": 2070,
      "Ġbody": 2071,
      "return": 2072,
      "iod": 2073,
      "Ġhouse": 2074,
      "Ġhaving": 2075,
      "nw": 2076,
      "Ġaccount": 2077,
      "Ġ13": 2078,
      "Ġknown": 2079,
      "Ġcreat": 2080,
      "Ġcontrol": 2081,
      "Ġconc": 2082,
      "Ġinit": 2083,
      "ression": 2084,
      "ser": 2085,
      "Ġvers": 2086,
      "Ġever": 2087,
      "Ġauthor": 2088,
      "17": 2089,
      "arget": 2090,
      "Ġfocus": 2091,
      "Ġhuman": 2092,
      "Ġcamp": 2093,
      "vironment": 2094,
      "Ġfeat": 2095,
      "aterial": 2096,
      "section": 2097,
      "Ġtrad": 2098,
      "ique": 2099,
      "Ġtold": 2100,
      "Ġredu": 2101,
      "ained": 2102,
      "Ġinvol": 2103,
      "play": 2104,
      "====": 2105,
      "na": 2106,
      "sw": 2107,
      "25": 2108,
      "Ġlow": 2109,
      "Ġmeans": 2110,
      "angu": 2111,
      "Ġdone": 2112,
      "serv": 2113,
      "pect": 2114,
      "rel": 2115,
      "rain": 2116,
      "ĠJohn": 2117,
      "ĠSte": 2118,
      "sel": 2119,
      "Ġdiscuss": 2120,
      "Ġey": 2121,
      "Ġkey": 2122,
      "ĠSu": 2123,
      "^{\\\\": 2124,
      "Ġstrong": 2125,
      "eral": 2126,
      "Ġprivate": 2127,
      "-\\\\": 2128,
      "Ġstruct": 2129,
      "Ġfuture": 2130,
      "uary": 2131,
      "Ġstudy": 2132,
      "Ġsaf": 2133,
      "LE": 2134,
      "Ġfood": 2135,
      "Ġrepresent": 2136,
      "Ġclaim": 2137,
      "Ġarg": 2138,
      "aring": 2139,
      "Ġhig": 2140,
      "Ġcity": 2141,
      "Ġthough": 2142,
      "Ġfre": 2143,
      "Ġeduc": 2144,
      "ĠGu": 2145,
      "Ġrele": 2146,
      "Ġinclude": 2147,
      "ival": 2148,
      "oard": 2149,
      "yl": 2150,
      "Ġearly": 2151,
      "ĠEurope": 2152,
      "Ġcal": 2153,
      "olution": 2154,
      "ĠPres": 2155,
      "Ġmind": 2156,
      "Ġsuper": 2157,
      "phi": 2158,
      "ume": 2159,
      "Ġhistory": 2160,
      "ones": 2161,
      "Ġothers": 2162,
      "Ġmoney": 2163,
      "head": 2164,
      "Ġtreat": 2165,
      "ples": 2166,
      "Ġlooking": 2167,
      "Ġvisit": 2168,
      "Ġstre": 2169,
      "Ġprob": 2170,
      "IC": 2171,
      "ids": 2172,
      "ĠPol": 2173,
      "ache": 2174,
      "Ġmot": 2175,
      "Ġprofess": 2176,
      "Ġproblem": 2177,
      "Val": 2178,
      "align": 2179,
      "Ġseason": 2180,
      "}.": 2181,
      "Ġonline": 2182,
      "go": 2183,
      "Ġindividual": 2184,
      "mod": 2185,
      "Ġabove": 2186,
      "Ġant": 2187,
      "irl": 2188,
      "ification": 2189,
      "ators": 2190,
      "ills": 2191,
      "ogn": 2192,
      "Ġdevelopment": 2193,
      "item": 2194,
      "alt": 2195,
      "Ġcomb": 2196,
      "ental": 2197,
      "Ġcreate": 2198,
      "stit": 2199,
      "ights": 2200,
      "Ġappear": 2201,
      "Ġreason": 2202,
      "Ġwent": 2203,
      "pping": 2204,
      "Ġ2017": 2205,
      "key": 2206,
      "Ġvol": 2207,
      "Ġenergy": 2208,
      "Ġlearn": 2209,
      "Com": 2210,
      "ideo": 2211,
      "Ġreview": 2212,
      "rew": 2213,
      "We": 2214,
      "big": 2215,
      "ĠNational": 2216,
      "Ġseen": 2217,
      "Ġwind": 2218,
      "ster": 2219,
      "ĠGe": 2220,
      "ams": 2221,
      "td": 2222,
      "Ġtyp": 2223,
      "cd": 2224,
      "Ġrequire": 2225,
      "Ġhappen": 2226,
      "Ġonce": 2227,
      "Ġcult": 2228,
      "ctor": 2229,
      "__": 2230,
      "Ġmakes": 2231,
      "ried": 2232,
      "ĠState": 2233,
      "Ġ2020": 2234,
      "time": 2235,
      "Ġpercent": 2236,
      "Ġtot": 2237,
      "Ġtre": 2238,
      "Ġsingle": 2239,
      "ĠMc": 2240,
      "nFor": 2241,
      "></": 2242,
      "hy": 2243,
      "de": 2244,
      "nK": 2245,
      "Ġdue": 2246,
      "ĠIntern": 2247,
      "IS": 2248,
      "Ġamong": 2249,
      "now": 2250,
      "Ġ2016": 2251,
      "Ġbit": 2252,
      "ĠEn": 2253,
      "Ġcou": 2254,
      "ĠMy": 2255,
      "ĠStates": 2256,
      "ches": 2257,
      "Ġpain": 2258,
      "Ġcrit": 2259,
      "Ġsat": 2260,
      "]{": 2261,
      "Ġlarg": 2262,
      "Ġrespect": 2263,
      "joy": 2264,
      "Ġenc": 2265,
      "Ġfive": 2266,
      "Ġcell": 2267,
      "Ġwhether": 2268,
      "rodu": 2269,
      "ĠOne": 2270,
      "ĠWorld": 2271,
      "Ġland": 2272,
      "html": 2273,
      "string": 2274,
      "illed": 2275,
      "Ġworks": 2276,
      "Ġcheck": 2277,
      "umb": 2278,
      "epend": 2279,
      "Ġdescrib": 2280,
      "nf": 2281,
      "lege": 2282,
      "ips": 2283,
      "><": 2284,
      "ibility": 2285,
      "))": 2286,
      "lambda": 2287,
      "uation": 2288,
      "Ġexist": 2289,
      "mp": 2290,
      "ball": 2291,
      "Ġrelations": 2292,
      "Ch": 2293,
      "ĠHowever": 2294,
      "Ġsound": 2295,
      "nIf": 2296,
      "nAs": 2297,
      "verage": 2298,
      "Ġhtt": 2299,
      "book": 2300,
      "ĠAb": 2301,
      "ĠThese": 2302,
      "Ġdoing": 2303,
      "www": 2304,
      "ung": 2305,
      "pm": 2306,
      "Ġfilm": 2307,
      "action": 2308,
      "Ar": 2309,
      "Ġopportun": 2310,
      "cont": 2311,
      "leg": 2312,
      "ĠMin": 2313,
      "opt": 2314,
      "Ġgeneral": 2315,
      "Ġ!": 2316,
      "Ġseries": 2317,
      "ners": 2318,
      "opy": 2319,
      "ĠCal": 2320,
      "abor": 2321,
      "ada": 2322,
      "Ġdeb": 2323,
      "class": 2324,
      "AC": 2325,
      "arrow": 2326,
      "ĠCont": 2327,
      "Ġcomplet": 2328,
      "oon": 2329,
      "Ġperiod": 2330,
      "40": 2331,
      "raft": 2332,
      "Ġpub": 2333,
      "Ġcharacter": 2334,
      "Ġ\\\\\\\\\\": 2335,
      "Ġmedia": 2336,
      "ends": 2337,
      "Ġdeterm": 2338,
      "Ġquestion": 2339,
      "Ġface": 2340,
      "plic": 2341,
      "Ġstarted": 2342,
      "Ġsignific": 2343,
      "iol": 2344,
      "ables": 2345,
      "Ġexpect": 2346,
      "Ġfurther": 2347,
      "ĠHar": 2348,
      "ilon": 2349,
      "Ġwebs": 2350,
      "ĠAug": 2351,
      "ruction": 2352,
      "ilities": 2353,
      "Ġjo": 2354,
      "ĠSchool": 2355,
      "Ġtw": 2356,
      "resp": 2357,
      "Ġ25": 2358,
      "ĠOct": 2359,
      "ĠAf": 2360,
      "Ġmaterial": 2361,
      "fer": 2362,
      "ĠApr": 2363,
      "List": 2364,
      "Ġport": 2365,
      "ari": 2366,
      "though": 2367,
      "Ġlive": 2368,
      "irt": 2369,
      "Ġdeal": 2370,
      "clus": 2371,
      "Ġ`": 2372,
      "ĠWill": 2373,
      "angle": 2374,
      "Ġbenef": 2375,
      "32": 2376,
      "ules": 2377,
      "}{\\\\": 2378,
      "Ġprevious": 2379,
      "ĠCity": 2380,
      "elt": 2381,
      "Ġaction": 2382,
      "cle": 2383,
      "used": 2384,
      "urch": 2385,
      "Ġ100": 2386,
      "Ġposition": 2387,
      "ĠCount": 2388,
      "ief": 2389,
      "ĠPar": 2390,
      "Ġdoesn": 2391,
      "Ġchall": 2392,
      "Ġ>": 2393,
      "Ġneeds": 2394,
      "Ġbegin": 2395,
      "Ġmor": 2396,
      "Ġsite": 2397,
      "Ġmass": 2398,
      "Ġyet": 2399,
      "ogle": 2400,
      "ests": 2401,
      "AP": 2402,
      "pre": 2403,
      "mit": 2404,
      "Ġdoc": 2405,
      "Ġrad": 2406,
      "atural": 2407,
      "Ġmonths": 2408,
      "ilde": 2409,
      "ĠAust": 2410,
      "ounc": 2411,
      "Ġpress": 2412,
      "istic": 2413,
      "ino": 2414,
      "ĠMarch": 2415,
      "ĠJanuary": 2416,
      "Ġhalf": 2417,
      "Res": 2418,
      "empt": 2419,
      "ocr": 2420,
      "asing": 2421,
      "Ġsong": 2422,
      "Ġwon": 2423,
      "anguage": 2424,
      "iter": 2425,
      "Ġbring": 2426,
      "nb": 2427,
      "Ġdri": 2428,
      "Ġbreak": 2429,
      "Ġactually": 2430,
      "ĠWar": 2431,
      "Ġnews": 2432,
      "Ġlo": 2433,
      "Ġpri": 2434,
      "ĠAg": 2435,
      "def": 2436,
      "Ġrange": 2437,
      "ĠEd": 2438,
      "Ġcomes": 2439,
      "ĠMr": 2440,
      "Ġcontent": 2441,
      "Ġ2015": 2442,
      "hers": 2443,
      "Ġsimilar": 2444,
      "22": 2445,
      "Ġcompet": 2446,
      "Ġvoid": 2447,
      "Ġfail": 2448,
      "Ġlog": 2449,
      "ĠDo": 2450,
      "Ġwalk": 2451,
      "Ġasked": 2452,
      "Ġcompan": 2453,
      "Ġcut": 2454,
      "Ġsugg": 2455,
      "param": 2456,
      "ysis": 2457,
      "ĠDep": 2458,
      "Ġsize": 2459,
      "itted": 2460,
      "Ġdou": 2461,
      "ĠMe": 2462,
      "date": 2463,
      "ED": 2464,
      "Ġassoci": 2465,
      "ilt": 2466,
      "ux": 2467,
      "Ġenjoy": 2468,
      "Ġpersonal": 2469,
      "Ġfav": 2470,
      "^{-": 2471,
      "Ġalmost": 2472,
      "lation": 2473,
      "nV": 2474,
      "sigma": 2475,
      "unch": 2476,
      "ops": 2477,
      "irm": 2478,
      "Ġtry": 2479,
      "ibr": 2480,
      "ĠBy": 2481,
      "Ġcommon": 2482,
      "Ġeither": 2483,
      "Ġrole": 2484,
      "ili": 2485,
      "Ġ{\\\\": 2486,
      "Ġtaken": 2487,
      "Ġaddress": 2488,
      "Ġwhole": 2489,
      "../../": 2490,
      "nthe": 2491,
      "ĠPresident": 2492,
      "Ġ198": 2493,
      "includ": 2494,
      "ancial": 2495,
      "pper": 2496,
      "ĠHis": 2497,
      "log": 2498,
      "cret": 2499,
      "Ġgetting": 2500,
      "lete": 2501,
      "Ġsent": 2502,
      "hing": 2503,
      "ĠPart": 2504,
      "Ġrespons": 2505,
      "lement": 2506,
      "ĠChe": 2507,
      "ror": 2508,
      "Ġnull": 2509,
      "OM": 2510,
      "Ġoffer": 2511,
      "ana": 2512,
      "Ġcomput": 2513,
      "ĠAct": 2514,
      "Ġparent": 2515,
      "Cl": 2516,
      "selves": 2517,
      "uild": 2518,
      "Ġabs": 2519,
      "ĠBrit": 2520,
      "atter": 2521,
      "minist": 2522,
      "Ġdom": 2523,
      "Ġquick": 2524,
      "Ġpoints": 2525,
      "Ġheart": 2526,
      "ny": 2527,
      "Ġbuilding": 2528,
      "Ġfall": 2529,
      "ĠJune": 2530,
      "ĠGod": 2531,
      "sec": 2532,
      "Ġindustry": 2533,
      "Ġphys": 2534,
      "fect": 2535,
      "ĠCor": 2536,
      "iction": 2537,
      "code": 2538,
      "anks": 2539,
      "ĠServ": 2540,
      "Ġdistrib": 2541,
      "https": 2542,
      "Ġtaking": 2543,
      "ĠComp": 2544,
      "hold": 2545,
      "Ġclose": 2546,
      "Ġsix": 2547,
      "ournal": 2548,
      "EC": 2549,
      "60": 2550,
      "Ġfalse": 2551,
      "ĠSouth": 2552,
      "Ġ2014": 2553,
      "Ġobtain": 2554,
      "augh": 2555,
      "ises": 2556,
      "Ġminutes": 2557,
      "Ġhom": 2558,
      "Ġsignificant": 2559,
      "Ġenvironment": 2560,
      "igure": 2561,
      "esc": 2562,
      "ription": 2563,
      "beta": 2564,
      "ĠSept": 2565,
      "Ġtext": 2566,
      "ĠNorth": 2567,
      "Ġpath": 2568,
      "ension": 2569,
      "aged": 2570,
      "cember": 2571,
      "Ġcontrib": 2572,
      "Ġfront": 2573,
      "Ġquality": 2574,
      "room": 2575,
      "Ġ==": 2576,
      "AM": 2577,
      "Ġtax": 2578,
      "ĠArt": 2579,
      "ĠRuss": 2580,
      "Ġshows": 2581,
      "Ġ(\\\\": 2582,
      "Ġdeath": 2583,
      "uf": 2584,
      "Ġ24": 2585,
      "Ġproducts": 2586,
      "ĠNot": 2587,
      "inary": 2588,
      "Ġhref": 2589,
      "Ġrate": 2590,
      "ĠJuly": 2591,
      "acks": 2592,
      "Ġhours": 2593,
      "ĠReg": 2594,
      "ĠDr": 2595,
      "Ġrequired": 2596,
      "Ġground": 2597,
      "leq": 2598,
      "su": 2599,
      "Ġterms": 2600,
      "mbol": 2601,
      "cer": 2602,
      "Ġamount": 2603,
      "ĠQu": 2604,
      "gress": 2605,
      "chie": 2606,
      "unction": 2607,
      "Ġperformance": 2608,
      "Ġwanted": 2609,
      "ĠApril": 2610,
      "Ġparam": 2611,
      "pecially": 2612,
      "rown": 2613,
      "Ġmoment": 2614,
      "ovember": 2615,
      "ĠEl": 2616,
      "ĠFeb": 2617,
      "Ġbar": 2618,
      "Ġanything": 2619,
      "ĠGo": 2620,
      "Ġbelow": 2621,
      "Ġbelieve": 2622,
      "Ġestab": 2623,
      "ological": 2624,
      "ude": 2625,
      "icult": 2626,
      "ĠCour": 2627,
      "urg": 2628,
      "nHe": 2629,
      "Ġ)": 2630,
      "year": 2631,
      "Ġshare": 2632,
      "Ġcoll": 2633,
      "Ġnational": 2634,
      "*}\\": 2635,
      "aced": 2636,
      "Ġrather": 2637,
      "Ġpage": 2638,
      "Ġnetwork": 2639,
      "Ġprotect": 2640,
      "earch": 2641,
      "Ġnecess": 2642,
      "$\\": 2643,
      "Ġgen": 2644,
      "ĠDis": 2645,
      "width": 2646,
      "Ġsoft": 2647,
      "tee": 2648,
      "+\\\\": 2649,
      "eed": 2650,
      "Ġens": 2651,
      "Ġeffort": 2652,
      "cy": 2653,
      "ports": 2654,
      "Ġpie": 2655,
      "la": 2656,
      "Ġissues": 2657,
      "Ġcompanies": 2658,
      "Ġtotal": 2659,
      "iple": 2660,
      "elling": 2661,
      "ET": 2662,
      "ape": 2663,
      "Ġill": 2664,
      "Ġwebsite": 2665,
      "type": 2666,
      "ĠNews": 2667,
      "Ġtarget": 2668,
      "curity": 2669,
      "lin": 2670,
      "ided": 2671,
      "ze": 2672,
      "fo": 2673,
      "Ġsubject": 2674,
      "ĠAfter": 2675,
      "era": 2676,
      "icro": 2677,
      "Ġhowever": 2678,
      "Ġidea": 2679,
      "ĠHouse": 2680,
      "ĠAugust": 2681,
      "bf": 2682,
      "nWhat": 2683,
      "^\\\\": 2684,
      "Ġage": 2685,
      "Ġblack": 2686,
      "ĠGl": 2687,
      "Ġ50": 2688,
      "ociety": 2689,
      "lected": 2690,
      "Ġimpact": 2691,
      "):": 2692,
      "ava": 2693,
      "Ġthird": 2694,
      "ĠBar": 2695,
      "aign": 2696,
      "Ġentire": 2697,
      "Ġbeaut": 2698,
      "Ġproperty": 2699,
      "Ġclos": 2700,
      "Ġhot": 2701,
      "ĠAm": 2702,
      "Ġaud": 2703,
      "Ġheld": 2704,
      "mathrm": 2705,
      "imal": 2706,
      "Tr": 2707,
      "ply": 2708,
      "ledge": 2709,
      "itch": 2710,
      "ij": 2711,
      "Ġeverything": 2712,
      "umn": 2713,
      "Ġeasy": 2714,
      "hib": 2715,
      "Ġpropos": 2716,
      "gl": 2717,
      "theta": 2718,
      "off": 2719,
      "Ġago": 2720,
      "Ġevents": 2721,
      "iting": 2722,
      "Ġaccording": 2723,
      "eal": 2724,
      "ouncil": 2725,
      "ĠDav": 2726,
      "ĠHer": 2727,
      "ham": 2728,
      "ades": 2729,
      "Ġvarious": 2730,
      "ĠAmerica": 2731,
      "mat": 2732,
      "Ġnorm": 2733,
      "Ġbehind": 2734,
      "aving": 2735,
      "Ġstring": 2736,
      "Ġvideo": 2737,
      "order": 2738,
      "times": 2739,
      "Ġwatch": 2740,
      "Ġpred": 2741,
      "Ġlikely": 2742,
      "Ġtable": 2743,
      "Ġrepl": 2744,
      "umber": 2745,
      "iday": 2746,
      "Ph": 2747,
      "Ġrisk": 2748,
      "Ġmiss": 2749,
      "Ġoriginal": 2750,
      "aul": 2751,
      "nBy": 2752,
      "ecut": 2753,
      "Ġcontact": 2754,
      "Ġtraining": 2755,
      "Ġshall": 2756,
      "Ġrecogn": 2757,
      "ĠMus": 2758,
      "ector": 2759,
      "Ġexpected": 2760,
      "ging": 2761,
      "HE": 2762,
      "ĠRev": 2763,
      "Ġmatter": 2764,
      "Ġred": 2765,
      "field": 2766,
      "Ġpaper": 2767,
      "Ġpolitical": 2768,
      ")}": 2769,
      "Ġsomeone": 2770,
      "Ġindic": 2771,
      "Ġdest": 2772,
      "Ġaddition": 2773,
      "medi": 2774,
      "Ġmember": 2775,
      "nHow": 2776,
      "ully": 2777,
      "Ġhost": 2778,
      "ett": 2779,
      "ĠGerm": 2780,
      "lu": 2781,
      "Ġannoun": 2782,
      "Ġwords": 2783,
      "Ġneeded": 2784,
      "Ġrelationship": 2785,
      "Ġstay": 2786,
      "Ġwhite": 2787,
      "ga": 2788,
      "ĠDecember": 2789,
      "Ġprovided": 2790,
      "omet": 2791,
      "ĠPer": 2792,
      "ĠSch": 2793,
      "Ġfeatures": 2794,
      "Ġtechnology": 2795,
      "Ġagre": 2796,
      "Ġ2013": 2797,
      "ondon": 2798,
      "ION": 2799,
      "Ġobserv": 2800,
      "Ġdefin": 2801,
      "itary": 2802,
      "ession": 2803,
      "aur": 2804,
      "tif": 2805,
      "Ġpolicy": 2806,
      "roups": 2807,
      "ager": 2808,
      "24": 2809,
      "wh": 2810,
      "Ġden": 2811,
      "ĠWest": 2812,
      "eqref": 2813,
      "ground": 2814,
      "ĠOctober": 2815,
      "Ġfile": 2816,
      "Ġcoming": 2817,
      "ires": 2818,
      "ties": 2819,
      "Ġparticip": 2820,
      "idge": 2821,
      "ites": 2822,
      "Ġsection": 2823,
      "////": 2824,
      "$-": 2825,
      "ender": 2826,
      "oved": 2827,
      "Ġintrodu": 2828,
      "Ġchanges": 2829,
      "maz": 2830,
      "ĠMark": 2831,
      "ĠNovember": 2832,
      "Ġapproach": 2833,
      "util": 2834,
      "test": 2835,
      "ĠSeptember": 2836,
      "Ġdifficult": 2837,
      "array": 2838,
      "()\\": 2839,
      "Ġaccept": 2840,
      "figure": 2841,
      "aining": 2842,
      "Ġnothing": 2843,
      "lim": 2844,
      "Ġid": 2845,
      "Ġstates": 2846,
      "apt": 2847,
      "Ġsystems": 2848,
      "ceed": 2849,
      "Ġfoot": 2850,
      "Ġachie": 2851,
      "ris": 2852,
      "Ġess": 2853,
      "Ġupon": 2854,
      "Ġhigher": 2855,
      "LL": 2856,
      "ĠStud": 2857,
      "OU": 2858,
      "ĠÃ": 2859,
      "23": 2860,
      "ĠSm": 2861,
      "ĠThen": 2862,
      "rug": 2863,
      "Ġformer": 2864,
      "Ġtrying": 2865,
      "came": 2866,
      "Ġsaw": 2867,
      "Ġinternational": 2868,
      "Ġpo": 2869,
      "Ġcontinue": 2870,
      "Ġ///": 2871,
      "ĠAfric": 2872,
      "Ġincrease": 2873,
      "Ġcirc": 2874,
      "astic": 2875,
      "ĠPe": 2876,
      "aging": 2877,
      "adem": 2878,
      "Ġhy": 2879,
      "Ġpack": 2880,
      "iet": 2881,
      "ivity": 2882,
      "99": 2883,
      "ington": 2884,
      "ensive": 2885,
      "OT": 2886,
      "Ġforward": 2887,
      "ama": 2888,
      "Ġadded": 2889,
      "iddle": 2890,
      "Ġep": 2891,
      "Ġdig": 2892,
      "Ġpotential": 2893,
      "Ġcases": 2894,
      "Ġbad": 2895,
      "fty": 2896,
      "bor": 2897,
      "uments": 2898,
      "Ġissue": 2899,
      "Value": 2900,
      "etic": 2901,
      "Ġlear": 2902,
      "Ġcannot": 2903,
      "Ġespecially": 2904,
      "Ġglobal": 2905,
      "Ġcred": 2906,
      "Ġdeg": 2907,
      "eneral": 2908,
      "rix": 2909,
      "Ġrecent": 2910,
      "rec": 2911,
      "Ġfire": 2912,
      "Ġwond": 2913,
      "ĠĠĠĠĠĠĠĠĠĠĠĠĠĠĠĠĠĠĠĠĠĠĠĠĠĠĠĠĠĠĠĠ": 2914,
      "roid": 2915,
      "Ġsense": 2916,
      "Ġsimple": 2917,
      "xi": 2918,
      "Ġquite": 2919,
      "Ġfriends": 2920,
      "oe": 2921,
      "Ġbecame": 2922,
      "Ġgames": 2923,
      "Ġconcern": 2924,
      "Ġsam": 2925,
      "Ġversion": 2926,
      "inter": 2927,
      "ĠIm": 2928,
      "?\\\"": 2929,
      "Ġlay": 2930,
      "Ġsource": 2931,
      "Ġ2012": 2932,
      "Ġitem": 2933,
      "bum": 2934,
      "ges": 2935,
      "ruary": 2936,
      "Ġbi": 2937,
      "mark": 2938,
      "Ġuser": 2939,
      "ament": 2940,
      "ĠTrump": 2941,
      "Ġimprove": 2942,
      "Ġtool": 2943,
      "Ġhon": 2944,
      "ille": 2945,
      "ING": 2946,
      "Ġcourt": 2947,
      "overed": 2948,
      "Ġ197": 2949,
      "ached": 2950,
      "umer": 2951,
      "cast": 2952,
      "fully": 2953,
      "atur": 2954,
      "Ġviol": 2955,
      "Ġtravel": 2956,
      "Ġbegan": 2957,
      "64": 2958,
      "based": 2959,
      "Ġbound": 2960,
      "urb": 2961,
      "atform": 2962,
      "Ġprim": 2963,
      "Ġareas": 2964,
      "oice": 2965,
      "Ġstaff": 2966,
      "Ġgirl": 2967,
      "Ġinsp": 2968,
      "treturn": 2969,
      "coming": 2970,
      "??": 2971,
      "iles": 2972,
      "ĠMon": 2973,
      "202": 2974,
      "Ġinvestig": 2975,
      "ening": 2976,
      "ĠCenter": 2977,
      "ĠMore": 2978,
      "iam": 2979,
      "Qu": 2980,
      "ald": 2981,
      "Ġoffice": 2982,
      "Ġrights": 2983,
      "}.\\": 2984,
      "nThere": 2985,
      "comp": 2986,
      "rho": 2987,
      "nAnd": 2988,
      "ĠJust": 2989,
      "bject": 2990,
      "Ġregard": 2991,
      "overn": 2992,
      "Ġperfect": 2993,
      "\\\\,": 2994,
      "amed": 2995,
      "Ġofficial": 2996,
      "orks": 2997,
      "oud": 2998,
      "aker": 2999,
      "Col": 3000,
      "To": 3001,
      "hern": 3002,
      "Ġfather": 3003,
      "reet": 3004,
      "ĠOur": 3005,
      "Ġsuggest": 3006,
      "Ġparty": 3007,
      "onent": 3008,
      "Ġcomplex": 3009,
      "Ġ2021": 3010,
      "http": 3011,
      "eters": 3012,
      "infty": 3013,
      "Exception": 3014,
      "atory": 3015,
      "plement": 3016,
      "Ġneg": 3017,
      "Ġfinancial": 3018,
      "Ġvalues": 3019,
      "ĠChar": 3020,
      "Ġdecision": 3021,
      "uge": 3022,
      "ship": 3023,
      "quad": 3024,
      "Ġliving": 3025,
      "Ġconditions": 3026,
      "Ġeducation": 3027,
      "Ġreceived": 3028,
      "File": 3029,
      "ĠCourt": 3030,
      "Ġpers": 3031,
      "see": 3032,
      "21": 3033,
      "ĠLaw": 3034,
      "oke": 3035,
      "35": 3036,
      "trans": 3037,
      "olar": 3038,
      "Ġcountries": 3039,
      "}(\\\\": 3040,
      "Ġnatural": 3041,
      "Ġimage": 3042,
      "Ġhimself": 3043,
      "nu": 3044,
      "airs": 3045,
      "Ġleaders": 3046,
      "Ġloss": 3047,
      "Ġcreated": 3048,
      "light": 3049,
      "Ġrequest": 3050,
      "Ġmanagement": 3051,
      "Ġoutside": 3052,
      "Ġitself": 3053,
      "Ġmother": 3054,
      "Ġprovides": 3055,
      "45": 3056,
      "mon": 3057,
      "ĠHealth": 3058,
      "\\\".": 3059,
      "uk": 3060,
      "Ġansw": 3061,
      "Ġcampaign": 3062,
      "Ġste": 3063,
      "anced": 3064,
      "sequ": 3065,
      "ĠCO": 3066,
      "Ġsecurity": 3067,
      "80": 3068,
      "imum": 3069,
      "Ġsett": 3070,
      "izing": 3071,
      "np": 3072,
      "wide": 3073,
      "Ġquestions": 3074,
      "Ġ%": 3075,
      "delta": 3076,
      "tau": 3077,
      "nc": 3078,
      "ocal": 3079,
      "rect": 3080,
      "Ġwait": 3081,
      "Ġsoon": 3082,
      "Ġ21": 3083,
      "Ġresponse": 3084,
      "Ġstyle": 3085,
      "27": 3086,
      "Ġdeep": 3087,
      "Ġspecific": 3088,
      "Ġpret": 3089,
      "Ġsens": 3090,
      "artment": 3091,
      "nov": 3092,
      "respond": 3093,
      "hood": 3094,
      "ĠPark": 3095,
      "ĠLondon": 3096,
      "nBut": 3097,
      "Ġhor": 3098,
      "?\\\"\\": 3099,
      "|\\\\": 3100,
      "no": 3101,
      "ixed": 3102,
      "Ġwriting": 3103,
      "Ġprice": 3104,
      "Ġgrad": 3105,
      "Ġstep": 3106,
      "bit": 3107,
      "ĠFin": 3108,
      "verse": 3109,
      "ĠUK": 3110,
      "cial": 3111,
      "Ġpick": 3112,
      "Ġcover": 3113,
      "Ġtakes": 3114,
      "oper": 3115,
      "Ġ=>": 3116,
      "iences": 3117,
      "nCh": 3118,
      "Ġcook": 3119,
      "Ġcomplete": 3120,
      "aves": 3121,
      "Ġtitle": 3122,
      "Cont": 3123,
      "Ġbase": 3124,
      "icles": 3125,
      "ags": 3126,
      "ĠDem": 3127,
      "Ġpict": 3128,
      "Ġproduction": 3129,
      "data": 3130,
      "));\\": 3131,
      "body": 3132,
      "ese": 3133,
      "Ġprobably": 3134,
      "Ġpopular": 3135,
      "Ġpatients": 3136,
      "ĠCounty": 3137,
      "Ġhit": 3138,
      "Ġroad": 3139,
      "Ġlate": 3140,
      "Ġsepar": 3141,
      "nSt": 3142,
      "Ġways": 3143,
      "epsilon": 3144,
      "Ġthemselves": 3145,
      "Ġprior": 3146,
      "ederal": 3147,
      "aint": 3148,
      "Data": 3149,
      "Ġsearch": 3150,
      "nWhen": 3151,
      "Ġknew": 3152,
      "Ġwoman": 3153,
      "ero": 3154,
      "Ġeveryone": 3155,
      "Ġimm": 3156,
      "Ġdate": 3157,
      "file": 3158,
      "ught": 3159,
      "ĠSer": 3160,
      "Ġarticle": 3161,
      "Ġshown": 3162,
      "ivil": 3163,
      "ĠAustral": 3164,
      "à¤": 3165,
      "mary": 3166,
      "Ġpresident": 3167,
      "dom": 3168,
      "ĠDes": 3169,
      "ication": 3170,
      "());\\": 3171,
      "Ġeyes": 3172,
      "OS": 3173,
      "idered": 3174,
      "ulations": 3175,
      "nAn": 3176,
      "Ġproblems": 3177,
      "ĠNet": 3178,
      "const": 3179,
      "Ġgroups": 3180,
      "ĠString": 3181,
      "Ġgrowth": 3182,
      "ague": 3183,
      "nOn": 3184,
      "uration": 3185,
      "II": 3186,
      "ĠKing": 3187,
      "Ġlat": 3188,
      "Ġcy": 3189,
      "aries": 3190,
      "fra": 3191,
      "Ġwritten": 3192,
      "Ġpan": 3193,
      "Ġreported": 3194,
      "ky": 3195,
      "US": 3196,
      "ĠSw": 3197,
      "Ġtrack": 3198,
      "aly": 3199,
      "Ġsimply": 3200,
      "Ġstop": 3201,
      "gamma": 3202,
      "ĠDon": 3203,
      "ĠFebruary": 3204,
      "iber": 3205,
      "Ġexact": 3206,
      "aching": 3207,
      "Ġaccom": 3208,
      "Ġ$(": 3209,
      "ĠBro": 3210,
      "$.\\": 3211,
      "Ġisn": 3212,
      "tp": 3213,
      "Ġord": 3214,
      "Ġengine": 3215,
      "ores": 3216,
      "ĠInternational": 3217,
      "ĠOf": 3218,
      "Ġlink": 3219,
      "Ġson": 3220,
      "Ġrev": 3221,
      "33": 3222,
      "Ġlooked": 3223,
      "Ġcommit": 3224,
      "Ġcontract": 3225,
      "asc": 3226,
      "ĠHigh": 3227,
      "nTo": 3228,
      "Ġturned": 3229,
      "tilde": 3230,
      "uel": 3231,
      "Ġtown": 3232,
      "avy": 3233,
      "wise": 3234,
      "Ġclean": 3235,
      "oph": 3236,
      "ĠPat": 3237,
      "Ġlearning": 3238,
      "Ġpurch": 3239,
      "Ġapplication": 3240,
      "Ġincluded": 3241,
      "Ġseems": 3242,
      "itter": 3243,
      "Ġpolice": 3244,
      "omen": 3245,
      "Ġhope": 3246,
      "ĠPal": 3247,
      "rows": 3248,
      "Sh": 3249,
      "Ġvia": 3250,
      "AD": 3251,
      "Ġworked": 3252,
      "Ġbuy": 3253,
      "Ġunique": 3254,
      "isf": 3255,
      "ford": 3256,
      "ĠMich": 3257,
      "attle": 3258,
      "Ġstatic": 3259,
      "Ġcross": 3260,
      "node": 3261,
      "Ġrecomm": 3262,
      "ĠCons": 3263,
      "Ġbehav": 3264,
      "eks": 3265,
      "hel": 3266,
      "ĠĠĠĠĠĠĠĠĠĠĠĠĠĠĠĠĠĠĠĠĠĠĠ": 3267,
      "Ġstandard": 3268,
      "nYou": 3269,
      "pose": 3270,
      "resh": 3271,
      "Ġanalysis": 3272,
      "................": 3273,
      "ĠOff": 3274,
      "lier": 3275,
      "Ġfelt": 3276,
      "ressed": 3277,
      "Ġconsidered": 3278,
      "Ġvot": 3279,
      "}$,": 3280,
      "partial": 3281,
      "Ġdam": 3282,
      "ences": 3283,
      "Ġ23": 3284,
      "Ġ2011": 3285,
      "uses": 3286,
      "Ġlonger": 3287,
      "ĠDirect": 3288,
      "Ġwasn": 3289,
      "Ġincludes": 3290,
      "cing": 3291,
      "Ġoptions": 3292,
      "Ġlower": 3293,
      "Ġcareer": 3294,
      "chi": 3295,
      "ĠRec": 3296,
      "28": 3297,
      "ĠSome": 3298,
      "oring": 3299,
      "\\\");\\": 3300,
      "Ġfit": 3301,
      "atives": 3302,
      "ellow": 3303,
      "ran": 3304,
      "Ġtou": 3305,
      "lying": 3306,
      "Ġpractice": 3307,
      "Ġlegal": 3308,
      "----------------": 3309,
      "like": 3310,
      "Ġsil": 3311,
      "apan": 3312,
      "chan": 3313,
      "Ġjud": 3314,
      "Ġregion": 3315,
      "sq": 3316,
      "alls": 3317,
      "Ġword": 3318,
      "ĠĠĠĠĠĠ": 3319,
      "raphics": 3320,
      "ements": 3321,
      "comes": 3322,
      "itation": 3323,
      "ees": 3324,
      "ĠFrom": 3325,
      "Ġprint": 3326,
      "orge": 3327,
      "ĠSystem": 3328,
      "iforn": 3329,
      "ufact": 3330,
      "Ġprep": 3331,
      "Ġver": 3332,
      "ĠVal": 3333,
      "Ġoffers": 3334,
      "Ġlives": 3335,
      "Ġattempt": 3336,
      "iful": 3337,
      "}[": 3338,
      "Ġprevent": 3339,
      "Ġfight": 3340,
      "Ġemer": 3341,
      "rael": 3342,
      "ega": 3343,
      "Ġled": 3344,
      "rought": 3345,
      "inks": 3346,
      "Ġ27": 3347,
      "Ġdecl": 3348,
      "ĠEnglish": 3349,
      ");": 3350,
      "Delta": 3351,
      "),\\": 3352,
      "Ġcand": 3353,
      "Ġ22": 3354,
      "ĠEm": 3355,
      "useum": 3356,
      "Ġsus": 3357,
      "Ġmax": 3358,
      "Ġleave": 3359,
      "Ġspect": 3360,
      "acc": 3361,
      "Ã¤": 3362,
      "ara": 3363,
      "100": 3364,
      "Ġ40": 3365,
      ")(": 3366,
      "iqu": 3367,
      "Ġinflu": 3368,
      "arter": 3369,
      "lem": 3370,
      "ĠNow": 3371,
      "ĠAng": 3372,
      "ĠDepartment": 3373,
      "Ġadminist": 3374,
      "Ġ2010": 3375,
      "Ġregular": 3376,
      "Ġassist": 3377,
      "unt": 3378,
      "Ġinside": 3379,
      "list": 3380,
      "ependent": 3381,
      "Ġconduct": 3382,
      "rench": 3383,
      "Ġbed": 3384,
      "ĠAcc": 3385,
      "Ġthroughout": 3386,
      "Ġopportunity": 3387,
      "Ġ...": 3388,
      "IG": 3389,
      "Ġtour": 3390,
      "Ġfavor": 3391,
      "agement": 3392,
      "Ġarch": 3393,
      "Ġknowledge": 3394,
      "Ġmap": 3395,
      "Ġlost": 3396,
      "vey": 3397,
      "Ġsn": 3398,
      "Ġrecently": 3399,
      "Ġadditional": 3400,
      "nAl": 3401,
      "ael": 3402,
      "Ġsold": 3403,
      "rt": 3404,
      "iation": 3405,
      "fort": 3406,
      "Ġcompl": 3407,
      "Ġusers": 3408,
      "Ġwhose": 3409,
      "Ġrelated": 3410,
      "Ġhands": 3411,
      "ened": 3412,
      "ares": 3413,
      "ounter": 3414,
      "):\\": 3415,
      "Ġcele": 3416,
      "Ġdark": 3417,
      "ĠChina": 3418,
      "rs": 3419,
      "Ġleading": 3420,
      "Ġinstead": 3421,
      "ifornia": 3422,
      "Par": 3423,
      "29": 3424,
      "ĠFirst": 3425,
      "Ġrunning": 3426,
      "Ġstri": 3427,
      "Ġimplement": 3428,
      "Ġrelease": 3429,
      "pite": 3430,
      "Ġmeasure": 3431,
      "Ġevidence": 3432,
      "isions": 3433,
      "Ġalbum": 3434,
      "];\\": 3435,
      "Ġsex": 3436,
      "Ġdocument": 3437,
      "Ġcode": 3438,
      "($": 3439,
      "ĠDay": 3440,
      "Ġgave": 3441,
      "ĠLa": 3442,
      "aches": 3443,
      "Ġinvolved": 3444,
      "Ġaverage": 3445,
      "ynam": 3446,
      "ĠAssoci": 3447,
      "irth": 3448,
      "))\\": 3449,
      "ĠIndia": 3450,
      "nes": 3451,
      "Ġdire": 3452,
      "where": 3453,
      "BC": 3454,
      "down": 3455,
      "Ġextra": 3456,
      "Ġcard": 3457,
      "Ġple": 3458,
      "ĠCouncil": 3459,
      "ĠAdd": 3460,
      "RO": 3461,
      "Ġdraw": 3462,
      "aily": 3463,
      "odes": 3464,
      "Ġinj": 3465,
      "Ġdiv": 3466,
      "Ġmodels": 3467,
      "Ġmatch": 3468,
      "Ġimmedi": 3469,
      "Ġinstall": 3470,
      "obile": 3471,
      "ĠSen": 3472,
      "Ġband": 3473,
      "Ġcause": 3474,
      "Ġ26": 3475,
      "Ġdetails": 3476,
      "uted": 3477,
      "Ġbooks": 3478,
      "Ġstudent": 3479,
      "oom": 3480,
      "script": 3481,
      "ĠBritish": 3482,
      "arc": 3483,
      "Ġtreatment": 3484,
      "sim": 3485,
      "Ġtemper": 3486,
      "Ġconnect": 3487,
      "Ġboard": 3488,
      "box": 3489,
      "nY": 3490,
      "Ġbox": 3491,
      "Message": 3492,
      "Ġround": 3493,
      "Ġstructure": 3494,
      "Ġbuilt": 3495,
      "ulated": 3496,
      "Set": 3497,
      "cm": 3498,
      "value": 3499,
      "Ġplatform": 3500,
      "apter": 3501,
      "Ġestim": 3502,
      "ida": 3503,
      "^*": 3504,
      "Ġcorrespond": 3505,
      "ĠYour": 3506,
      "ĠSim": 3507,
      "isc": 3508,
      "Ġerror": 3509,
      "wood": 3510,
      "pd": 3511,
      "Ġchalleng": 3512,
      "rad": 3513,
      "Ġcurrently": 3514,
      "Ġ28": 3515,
      "Ġworth": 3516,
      "Ġweeks": 3517,
      "Ġsche": 3518,
      "Ġcondition": 3519,
      "Ġ*\\": 3520,
      "anch": 3521,
      "Ġsolution": 3522,
      "26": 3523,
      "UR": 3524,
      "Ġvict": 3525,
      "ĠGroup": 3526,
      "anger": 3527,
      "IP": 3528,
      "Ġdise": 3529,
      "Ġmeeting": 3530,
      "bed": 3531,
      "ospital": 3532,
      "Ġmedical": 3533,
      "Ġstar": 3534,
      "Ġoil": 3535,
      "Ġlanguage": 3536,
      "Ġorg": 3537,
      "ocol": 3538,
      "oken": 3539,
      "iment": 3540,
      "Ġhistor": 3541,
      "ĠAc": 3542,
      "Ġeconomic": 3543,
      "ĠCollege": 3544,
      "Ġcolor": 3545,
      "ha": 3546,
      "Ġpretty": 3547,
      "word": 3548,
      "ENT": 3549,
      "Ġreve": 3550,
      "change": 3551,
      "Ġ!=": 3552,
      "oo": 3553,
      "using": 3554,
      "Ġblock": 3555,
      "Ġpublished": 3556,
      "OL": 3557,
      "Ġattack": 3558,
      "ĠGovern": 3559,
      "Ġbott": 3560,
      "75": 3561,
      "Ġsort": 3562,
      "Ġmach": 3563,
      "ĠLet": 3564,
      "Ġforce": 3565,
      "ĠRet": 3566,
      "aith": 3567,
      "}_{\\\\": 3568,
      "ĠTrans": 3569,
      "Ġwrite": 3570,
      "Ġnecessary": 3571,
      "orem": 3572,
      "ashington": 3573,
      "Ġanyone": 3574,
      "plit": 3575,
      "Ġflow": 3576,
      "().": 3577,
      "haps": 3578,
      "ica": 3579,
      "Ġbroad": 3580,
      "Ġcharg": 3581,
      "ĠCommun": 3582,
      "Ġpositive": 3583,
      "Ġcouple": 3584,
      "Ġcontext": 3585,
      "illing": 3586,
      "sm": 3587,
      "yond": 3588,
      "Ġsurpr": 3589,
      "ĠWhile": 3590,
      "39": 3591,
      "oes": 3592,
      "rite": 3593,
      "ĠTV": 3594,
      "Ġplayers": 3595,
      "Ġdetail": 3596,
      "Ġparents": 3597,
      "Ġeffects": 3598,
      "rote": 3599,
      "ĠHol": 3600,
      "mega": 3601,
      "Ġsle": 3602,
      "Ġang": 3603,
      "View": 3604,
      "unc": 3605,
      "Ġensure": 3606,
      "circ": 3607,
      "nces": 3608,
      "rc": 3609,
      "Ġplayed": 3610,
      "Ġnature": 3611,
      "Ġheard": 3612,
      "non": 3613,
      "weet": 3614,
      "erc": 3615,
      "36": 3616,
      "pri": 3617,
      "Ġmention": 3618,
      "31": 3619,
      "Ġassociated": 3620,
      "Ġfast": 3621,
      "istry": 3622,
      "Ġmessage": 3623,
      "Ġinterview": 3624,
      "Ġbank": 3625,
      "Ġhop": 3626,
      "lied": 3627,
      "Ġerr": 3628,
      "vis": 3629,
      "Ġdesigned": 3630,
      "ĠDavid": 3631,
      "gen": 3632,
      "ĠStreet": 3633,
      "Ġstru": 3634,
      "Ġcapt": 3635,
      "Ġcalc": 3636,
      "ĠIsrael": 3637,
      "size": 3638,
      "acing": 3639,
      "Ġdoor": 3640,
      "Ġattention": 3641,
      "34": 3642,
      "unk": 3643,
      "ĠJapan": 3644,
      "ming": 3645,
      "ĠSan": 3646,
      "Ġhear": 3647,
      "Ġhol": 3648,
      "Ġboy": 3649,
      "Ġconsist": 3650,
      "Ġcam": 3651,
      "ĠCalifornia": 3652,
      "****************": 3653,
      "Ġstage": 3654,
      "ĠEuropean": 3655,
      "CT": 3656,
      "ĠGet": 3657,
      "Ġactivities": 3658,
      "Ġdefined": 3659,
      "Ġmaintain": 3660,
      "ĠTra": 3661,
      "].": 3662,
      "rim": 3663,
      "EM": 3664,
      "eff": 3665,
      "Ġsuff": 3666,
      "EL": 3667,
      "Ġprofessional": 3668,
      "Ġserious": 3669,
      "Ġmodern": 3670,
      "Get": 3671,
      "asons": 3672,
      "Ġoutput": 3673,
      "state": 3674,
      "ibrary": 3675,
      "Ġâ": 3676,
      "ĠAir": 3677,
      "ĠBoard": 3678,
      "ĠRed": 3679,
      "Ġgas": 3680,
      "Er": 3681,
      "more": 3682,
      "oul": 3683,
      ".'": 3684,
      "OD": 3685,
      "band": 3686,
      "Ġmultiple": 3687,
      "Ġplaying": 3688,
      "Ġdead": 3689,
      "Ġgives": 3690,
      "Ġusually": 3691,
      "ĠBlack": 3692,
      "Ġstra": 3693,
      "duc": 3694,
      "ĠTw": 3695,
      "ĠIN": 3696,
      "position": 3697,
      "(\\": 3698,
      "Ġthreat": 3699,
      "Ġ**": 3700,
      "Ġder": 3701,
      "Ġblood": 3702,
      "inated": 3703,
      "Ġspeak": 3704,
      "Ġdriv": 3705,
      "Ġautom": 3706,
      "ĠBook": 3707,
      "Ġquickly": 3708,
      "Ġwrong": 3709,
      "Ġveh": 3710,
      "};\\": 3711,
      "Ġsatisf": 3712,
      "irit": 3713,
      "Ġcenter": 3714,
      "orage": 3715,
      "Ġplease": 3716,
      "Ġdrug": 3717,
      "Ġability": 3718,
      "urance": 3719,
      "ĠInc": 3720,
      "Ġpull": 3721,
      "Ġten": 3722,
      "eqn": 3723,
      "Ġreading": 3724,
      "Ġlevels": 3725,
      "ĠMod": 3726,
      "atus": 3727,
      "Ġdemon": 3728,
      "Ġreleased": 3729,
      "ĠHist": 3730,
      "source": 3731,
      "Ġcustomers": 3732,
      "raz": 3733,
      "lear": 3734,
      "ults": 3735,
      "\\\"><": 3736,
      "Ġstore": 3737,
      "Ġslow": 3738,
      "Ġassert": 3739,
      "ĠGeneral": 3740,
      "mission": 3741,
      "bold": 3742,
      "Ġtypes": 3743,
      "stitute": 3744,
      "Ġchoice": 3745,
      "ech": 3746,
      "\\\\\\\\\\": 3747,
      "enty": 3748,
      "Ġclient": 3749,
      "This": 3750,
      "xim": 3751,
      "Ġstreng": 3752,
      "arily": 3753,
      "Ġfrequ": 3754,
      "ĠCanada": 3755,
      "top": 3756,
      "Ġoption": 3757,
      "exp": 3758,
      "Ġge": 3759,
      "Ġlines": 3760,
      "}^{\\\\": 3761,
      "IM": 3762,
      "nown": 3763,
      "CC": 3764,
      "Ġ2022": 3765,
      "nand": 3766,
      "iring": 3767,
      "ĠMor": 3768,
      "just": 3769,
      "Ġdat": 3770,
      "Ġmethods": 3771,
      "Ġeffic": 3772,
      "Im": 3773,
      "Ġsaying": 3774,
      "Ġbrought": 3775,
      "Ġtrust": 3776,
      "space": 3777,
      "ĠResearch": 3778,
      "Ġmilitary": 3779,
      "90": 3780,
      "Object": 3781,
      "44": 3782,
      "Ġbasis": 3783,
      "Ġprojects": 3784,
      "Ġstudies": 3785,
      "Ġprinc": 3786,
      "Ġbrand": 3787,
      "cdot": 3788,
      "Ġmagn": 3789,
      "mar": 3790,
      "Ġbal": 3791,
      "bm": 3792,
      "Ġsequ": 3793,
      "70": 3794,
      "Ġsituation": 3795,
      "Ġlatest": 3796,
      "Ġinput": 3797,
      "Ġroll": 3798,
      "gor": 3799,
      "38": 3800,
      "Ġparts": 3801,
      "net": 3802,
      "Ġscient": 3803,
      "Ġinstit": 3804,
      "Ġcomment": 3805,
      "Ġlength": 3806,
      "Ġinteresting": 3807,
      "Ġinitial": 3808,
      "Key": 3809,
      "url": 3810,
      "oto": 3811,
      "Omega": 3812,
      "ography": 3813,
      "Ġoccur": 3814,
      "Ġmanufact": 3815,
      "Ġsem": 3816,
      "ĠInt": 3817,
      "AG": 3818,
      "._": 3819,
      "table": 3820,
      "ĠRepublic": 3821,
      "Ġnormal": 3822,
      "Ã¶": 3823,
      "Ġmis": 3824,
      "Ġdirectly": 3825,
      "Ġanaly": 3826,
      "ĠWashington": 3827,
      "Ġhttps": 3828,
      "Ġscreen": 3829,
      "55": 3830,
      "Ġtowards": 3831,
      "uate": 3832,
      "Ġreceive": 3833,
      "Ġdecided": 3834,
      "Ġeffective": 3835,
      "ĠNe": 3836,
      "Ġmorning": 3837,
      "Ġsurface": 3838,
      "message": 3839,
      "ĠEar": 3840,
      "Ġfollows": 3841,
      "ii": 3842,
      "!!": 3843,
      "Ġ&&": 3844,
      "omega": 3845,
      "estern": 3846,
      "Ġprograms": 3847,
      "Ġliter": 3848,
      "Ġtal": 3849,
      "Ġquant": 3850,
      "onents": 3851,
      "mercial": 3852,
      "Ġconstant": 3853,
      "Ġresources": 3854,
      "Ġbeautiful": 3855,
      "Ġball": 3856,
      "CH": 3857,
      "Ġavoid": 3858,
      "igned": 3859,
      "Ġcontinu": 3860,
      "Ġdeveloped": 3861,
      "vant": 3862,
      "Ġemail": 3863,
      "Ġfair": 3864,
      "Ġtele": 3865,
      "rief": 3866,
      "\\\",\\": 3867,
      "Ġimag": 3868,
      "Ġmid": 3869,
      "Ġwonder": 3870,
      "Ġfarm": 3871,
      "rick": 3872,
      "ĠInst": 3873,
      "ensity": 3874,
      "Ã¥": 3875,
      "osing": 3876,
      "ĠJames": 3877,
      "Ġmer": 3878,
      "}}\\\\": 3879,
      "Ġgoal": 3880,
      "Ġvalid": 3881,
      "ĠIndian": 3882,
      "Ġaw": 3883,
      "arr": 3884,
      "Ġfeature": 3885,
      "tab": 3886,
      "vest": 3887,
      "point": 3888,
      "Ġsales": 3889,
      "nSo": 3890,
      "nWh": 3891,
      "ĠUs": 3892,
      "Ġque": 3893,
      "Ġgoes": 3894,
      "zz": 3895,
      "Ġvoice": 3896,
      "tered": 3897,
      "Ġplans": 3898,
      "SS": 3899,
      "lay": 3900,
      "erve": 3901,
      "ĠHam": 3902,
      "nWith": 3903,
      "ĠDist": 3904,
      "Ġ29": 3905,
      "Ġweight": 3906,
      "omb": 3907,
      "Ġready": 3908,
      "37": 3909,
      "Ġneigh": 3910,
      "Ġkids": 3911,
      "gar": 3912,
      "ishing": 3913,
      "ander": 3914,
      "Ġlooks": 3915,
      "iers": 3916,
      "iding": 3917,
      "ĠDemocr": 3918,
      "Ġstories": 3919,
      "ĠFrench": 3920,
      "ĠPaul": 3921,
      "He": 3922,
      "mitted": 3923,
      "Ġremember": 3924,
      "Ġnote": 3925,
      "Ġmovie": 3926,
      "Ġsummer": 3927,
      "lor": 3928,
      "Ġpopulation": 3929,
      "Ġund": 3930,
      "enge": 3931,
      "ĠTechn": 3932,
      ",'": 3933,
      "Ġones": 3934,
      "Ġter": 3935,
      "Gamma": 3936,
      "rey": 3937,
      "Ġphone": 3938,
      "Ġacqu": 3939,
      "Ġpattern": 3940,
      "Ġsqu": 3941,
      "ND": 3942,
      "65": 3943,
      "As": 3944,
      "Ġsal": 3945,
      "Ġinstance": 3946,
      "urt": 3947,
      "Ġdifference": 3948,
      "user": 3949,
      "Ġexecut": 3950,
      "Ġspeed": 3951,
      "path": 3952,
      "Ġcapital": 3953,
      "ategory": 3954,
      "Ġblog": 3955,
      "Ġrespond": 3956,
      "Ġ2009": 3957,
      "Ġdistribution": 3958,
      "aughter": 3959,
      "[]": 3960,
      "ding": 3961,
      "Ġannounced": 3962,
      "Ġri": 3963,
      "ocation": 3964,
      "Ġsomet": 3965,
      "proof": 3966,
      "Ġdrive": 3967,
      "Ġmag": 3968,
      "Ġincreasing": 3969,
      "Ġconcept": 3970,
      "ĠHere": 3971,
      "Ġ2008": 3972,
      "Ġcat": 3973,
      "Ġlocation": 3974,
      "ils": 3975,
      "Ġallows": 3976,
      "Ġheat": 3977,
      "ĠEast": 3978,
      "nbsp": 3979,
      "bon": 3980,
      "ilies": 3981,
      "idents": 3982,
      "Ġdescribed": 3983,
      "Ġwrote": 3984,
      "istics": 3985,
      "ym": 3986,
      "ategy": 3987,
      "gest": 3988,
      "ĠWhite": 3989,
      "ously": 3990,
      "Ġaim": 3991,
      "Ġhttp": 3992,
      "Ġscience": 3993,
      "Mod": 3994,
      "Ġlimit": 3995,
      "ico": 3996,
      "ocks": 3997,
      "Ġarriv": 3998,
      "Ġdemand": 3999,
      "Ġwide": 4000,
      "Ġcollection": 4001,
      "Ġconvers": 4002,
      "bt": 4003,
      "Ġded": 4004,
      "Ġaward": 4005,
      "Ġtheory": 4006,
      "itiz": 4007,
      "Ġgold": 4008,
      "ĠOut": 4009,
      "Ġculture": 4010,
      "Un": 4011,
      "Ġbeyond": 4012,
      "Ġdepart": 4013,
      "Ġlimited": 4014,
      "Ġpric": 4015,
      "itect": 4016,
      "andom": 4017,
      "ĠEv": 4018,
      "48": 4019,
      "Ġanswer": 4020,
      "Ġmechan": 4021,
      "UT": 4022,
      "equest": 4023,
      "Ġphysical": 4024,
      "Test": 4025,
      "symbol": 4026,
      "For": 4027,
      "Ġchoose": 4028,
      "Ġcandid": 4029,
      "Ġelement": 4030,
      "Ġhappy": 4031,
      "SE": 4032,
      "do": 4033,
      "iant": 4034,
      "Ġideas": 4035,
      "ibly": 4036,
      "Ġ60": 4037,
      "Ġnumbers": 4038,
      "IL": 4039,
      "Ġdisplay": 4040,
      "Ġmeaning": 4041,
      "actions": 4042,
      "ĠThom": 4043,
      "Ġstatement": 4044,
      "Ġetc": 4045,
      "ius": 4046,
      "ĠAre": 4047,
      "ki": 4048,
      "Ġcool": 4049,
      "hest": 4050,
      "Ġgets": 4051,
      "po": 4052,
      "Ġcorrect": 4053,
      "['": 4054,
      "iled": 4055,
      "Ġcosts": 4056,
      "ancy": 4057,
      "ĠScience": 4058,
      "ĠTHE": 4059,
      "ĠOp": 4060,
      "requ": 4061,
      "ĠVol": 4062,
      "psi": 4063,
      "ĠPost": 4064,
      "ube": 4065,
      "Ġstarting": 4066,
      "Ġassum": 4067,
      "ĠCong": 4068,
      "Ġfeed": 4069,
      "}$.": 4070,
      "Ġsuccessful": 4071,
      "nShe": 4072,
      "Ġsun": 4073,
      "Ġcollect": 4074,
      "Ġencour": 4075,
      "map": 4076,
      "Ġhous": 4077,
      "Ġsurv": 4078,
      "Ġthinking": 4079,
      "vec": 4080,
      "Is": 4081,
      "Ġmoved": 4082,
      "Ġdevice": 4083,
      "mas": 4084,
      "rav": 4085,
      "aled": 4086,
      "Ġbillion": 4087,
      "Ġchance": 4088,
      "Ġlocated": 4089,
      "Ġdim": 4090,
      "Ġincreased": 4091,
      "lo": 4092,
      "Ġnovel": 4093,
      "Def": 4094,
      "ĠFound": 4095,
      "ned": 4096,
      "Ġdegree": 4097,
      "05": 4098,
      "ville": 4099,
      "ĠInter": 4100,
      "nab": 4101,
      "Ġweb": 4102,
      "Ġrock": 4103,
      "Ġwife": 4104,
      "Ġcompared": 4105,
      "Ġearlier": 4106,
      "========": 4107,
      "Ġdro": 4108,
      "Ġapply": 4109,
      "Ġfinally": 4110,
      "Ġyourself": 4111,
      "Ġfem": 4112,
      "ĠFace": 4113,
      "frak": 4114,
      "ken": 4115,
      "VID": 4116,
      "Ġstream": 4117,
      "Ġdouble": 4118,
      "vision": 4119,
      "Ġpartners": 4120,
      "Sc": 4121,
      "ĠDef": 4122,
      "Ġlic": 4123,
      "AB": 4124,
      "mathfrak": 4125,
      "emph": 4126,
      "undred": 4127,
      "Ġprec": 4128,
      "']": 4129,
      "ĠSund": 4130,
      "icon": 4131,
      "Ġallowed": 4132,
      "Ġpark": 4133,
      "Ġeasily": 4134,
      "Ġcopy": 4135,
      "uman": 4136,
      ".'\\": 4137,
      "Ġcompletely": 4138,
      "itude": 4139,
      "annel": 4140,
      "ĠAnt": 4141,
      "EO": 4142,
      "ĠJack": 4143,
      "Ġseek": 4144,
      "Ġgun": 4145,
      "nAt": 4146,
      "ado": 4147,
      "osition": 4148,
      "IR": 4149,
      "Ġqual": 4150,
      "izes": 4151,
      "Ġeval": 4152,
      "](": 4153,
      "ĠGreat": 4154,
      "Ġult": 4155,
      "Ġnation": 4156,
      "Ġprogress": 4157,
      "lock": 4158,
      "Class": 4159,
      "Ġbeginning": 4160,
      "ulate": 4161,
      "Ġparticularly": 4162,
      "style": 4163,
      "Ġtrade": 4164,
      "Ġmoving": 4165,
      "Ġexactly": 4166,
      "lam": 4167,
      "Ġgiving": 4168,
      "Ġthus": 4169,
      "Ġorganization": 4170,
      "Ġbud": 4171,
      "Int": 4172,
      "Node": 4173,
      "Ġsafety": 4174,
      "Ġdirector": 4175,
      "Ġconv": 4176,
      "geq": 4177,
      "Ġassess": 4178,
      "Ġdigital": 4179,
      "Ġvirt": 4180,
      "Ġdog": 4181,
      "stance": 4182,
      "ĠFriday": 4183,
      "Ġhighly": 4184,
      "Ġconsum": 4185,
      "ula": 4186,
      "Ġcentury": 4187,
      "gorith": 4188,
      "ĠDel": 4189,
      "Ġsoftware": 4190,
      "Ġgrand": 4191,
      "force": 4192,
      "ĠDan": 4193,
      "Ġsec": 4194,
      "ĠUp": 4195,
      "ĠRober": 4196,
      "Ġcomfort": 4197,
      "',\\": 4198,
      "ÃŃ": 4199,
      "urd": 4200,
      "Ġintegr": 4201,
      "Ind": 4202,
      "dis": 4203,
      "Ġnearly": 4204,
      "Ġcelebr": 4205,
      "rian": 4206,
      "Ġcredit": 4207,
      "Ġcontain": 4208,
      "ago": 4209,
      "Ġnames": 4210,
      "Ġteac": 4211,
      "encies": 4212,
      "Ġaltern": 4213,
      "board": 4214,
      "Ġlack": 4215,
      "perty": 4216,
      "Ġrefer": 4217,
      "itc": 4218,
      "Ã¡": 4219,
      "Ġhuge": 4220,
      "Ġsometimes": 4221,
      "ester": 4222,
      "Ġcarry": 4223,
      "index": 4224,
      "men": 4225,
      "``": 4226,
      "ĠMal": 4227,
      "Ġgrowing": 4228,
      "Ġmount": 4229,
      "Ġgreen": 4230,
      "rial": 4231,
      "Ġ/**\\": 4232,
      "iling": 4233,
      "ternal": 4234,
      "Ġstatus": 4235,
      "By": 4236,
      "Ġeight": 4237,
      "aste": 4238,
      "Ġremain": 4239,
      "49": 4240,
      "Ġprot": 4241,
      "boldsymbol": 4242,
      "ĠArch": 4243,
      "Ġrules": 4244,
      "Ġfollowed": 4245,
      "pace": 4246,
      "Ġthous": 4247,
      "aby": 4248,
      "rupt": 4249,
      "sych": 4250,
      "Ġcells": 4251,
      "ĠProf": 4252,
      "And": 4253,
      "Ġplant": 4254,
      "Ġimages": 4255,
      "Ġconfig": 4256,
      "nin": 4257,
      "Ġsen": 4258,
      "ĠPublic": 4259,
      "Ġreach": 4260,
      "Ġrates": 4261,
      "oman": 4262,
      "ĠGreen": 4263,
      "ĠClass": 4264,
      "Ġtried": 4265,
      "Ġpiece": 4266,
      "bre": 4267,
      "Ġconstruction": 4268,
      "Ġfirm": 4269,
      "print": 4270,
      "Ġspent": 4271,
      "Ġachieve": 4272,
      "Ġcomputer": 4273,
      "Ġreports": 4274,
      "Ġinform": 4275,
      "but": 4276,
      "Ġmyself": 4277,
      "eline": 4278,
      "Ġrace": 4279,
      "ston": 4280,
      "aper": 4281,
      "ĠProgram": 4282,
      "oms": 4283,
      "Serv": 4284,
      "Ġaware": 4285,
      "ĠEduc": 4286,
      "Ġhappened": 4287,
      "New": 4288,
      "Ġenter": 4289,
      "Ġchanged": 4290,
      "lick": 4291,
      "egraphics": 4292,
      "ros": 4293,
      "izations": 4294,
      "includegraphics": 4295,
      "iance": 4296,
      "Ġrat": 4297,
      "ĠBusiness": 4298,
      "Ġtherefore": 4299,
      "IV": 4300,
      "Ġbus": 4301,
      "Ġelements": 4302,
      "eria": 4303,
      "cale": 4304,
      "Ġrelig": 4305,
      "with": 4306,
      "link": 4307,
      "Ġschools": 4308,
      "Ġalone": 4309,
      "Ġ31": 4310,
      "vention": 4311,
      "Ġsell": 4312,
      "Ġfully": 4313,
      "ĠAP": 4314,
      "Ġsto": 4315,
      "ĠCompany": 4316,
      "Ġnamed": 4317,
      "ĠEngland": 4318,
      "Ġalthough": 4319,
      "Ġunderstanding": 4320,
      "Ġorigin": 4321,
      "Ġborn": 4322,
      "Ġlif": 4323,
      "Ġdisease": 4324,
      "Ġdemonstr": 4325,
      "ota": 4326,
      "aturday": 4327,
      "85": 4328,
      "ĠRich": 4329,
      "Ġactive": 4330,
      "ĠAnn": 4331,
      "Ġfamilies": 4332,
      "Ġproviding": 4333,
      "');\\": 4334,
      "Ġupd": 4335,
      "Ġpassed": 4336,
      "cape": 4337,
      "nwhere": 4338,
      "ĠPhil": 4339,
      "Ġclosed": 4340,
      "Ġsolutions": 4341,
      "ĠPre": 4342,
      "MS": 4343,
      "ĠĠĠĠĠĠĠĠĠĠĠĠĠ": 4344,
      "Ġsafe": 4345,
      "Ġplaces": 4346,
      "oday": 4347,
      "atively": 4348,
      "nOne": 4349,
      "ĠJournal": 4350,
      "oyal": 4351,
      "hand": 4352,
      "Ġcontinued": 4353,
      "ĠBre": 4354,
      "Ġtraditional": 4355,
      "pport": 4356,
      "ĠIS": 4357,
      "Ġskills": 4358,
      "eqnarray": 4359,
      "ustr": 4360,
      "ribute": 4361,
      "center": 4362,
      "ios": 4363,
      "})$": 4364,
      "Man": 4365,
      "Ġtask": 4366,
      "bo": 4367,
      "Ġplayer": 4368,
      "Ġfram": 4369,
      "works": 4370,
      "OP": 4371,
      "ĠII": 4372,
      "Ġtoward": 4373,
      "Ġappropri": 4374,
      "Ġdu": 4375,
      "ĠCommit": 4376,
      "Ġuses": 4377,
      "ĠGoogle": 4378,
      "Ġcouldn": 4379,
      "Ġactivity": 4380,
      "Ġdream": 4381,
      "ework": 4382,
      "Ġdirection": 4383,
      "Ġfresh": 4384,
      "ĠInstitute": 4385,
      "ĠPress": 4386,
      "Ġindex": 4387,
      "assert": 4388,
      "Ġvariety": 4389,
      "Ġaccur": 4390,
      "nAfter": 4391,
      "Error": 4392,
      "Ġemot": 4393,
      "house": 4394,
      "Ġwall": 4395,
      "Ġnumer": 4396,
      "Ġamaz": 4397,
      "ĠSam": 4398,
      "Ġload": 4399,
      "Ġcivil": 4400,
      "Ġdied": 4401,
      "ĠSec": 4402,
      "ean": 4403,
      "ĠGeorge": 4404,
      "Ġfat": 4405,
      "Ġstraight": 4406,
      "Ġbackground": 4407,
      "Ġwarm": 4408,
      "Ġmulti": 4409,
      "reme": 4410,
      "ĠSpec": 4411,
      "ĠService": 4412,
      "Ġpaid": 4413,
      "ĠHall": 4414,
      "Ġproperties": 4415,
      "pty": 4416,
      "itable": 4417,
      "ĠTex": 4418,
      "nn": 4419,
      "ĠAlex": 4420,
      "ĠOb": 4421,
      "Ġlargest": 4422,
      "Ġseemed": 4423,
      "Ġhar": 4424,
      "ĠOF": 4425,
      "Ġfeet": 4426,
      "ĠEven": 4427,
      "With": 4428,
      "subsection": 4429,
      "],": 4430,
      "ĠSub": 4431,
      "icip": 4432,
      "Ġinnov": 4433,
      "Ġproced": 4434,
      "Ġscale": 4435,
      "47": 4436,
      "inner": 4437,
      "OW": 4438,
      "berg": 4439,
      "Ġcharacters": 4440,
      "roy": 4441,
      "95": 4442,
      "Ġfear": 4443,
      "het": 4444,
      "ooth": 4445,
      "onday": 4446,
      "Ġwood": 4447,
      "Ġforeign": 4448,
      "Ġserved": 4449,
      "ords": 4450,
      "xy": 4451,
      "Ġsociety": 4452,
      "Ġpromot": 4453,
      "Ġdynam": 4454,
      "Ġeconomy": 4455,
      "ĠSunday": 4456,
      "Ġdownload": 4457,
      "Ġestablished": 4458,
      "Ġpresented": 4459,
      "ĠRead": 4460,
      "ipment": 4461,
      "Map": 4462,
      "Ġwel": 4463,
      "ĠRem": 4464,
      "Ġindependent": 4465,
      "Ġpredict": 4466,
      "acity": 4467,
      "term": 4468,
      "What": 4469,
      "ithub": 4470,
      "ĠWork": 4471,
      "Ġpurpose": 4472,
      "miss": 4473,
      "Ġlarger": 4474,
      "ĠIsland": 4475,
      "Ġtransfer": 4476,
      "ste": 4477,
      "Ġmiddle": 4478,
      "Ġgone": 4479,
      "inate": 4480,
      "Ġhundred": 4481,
      "Ġdepend": 4482,
      "Ġclub": 4483,
      "Ġclin": 4484,
      "Ġimmediately": 4485,
      "ĠAssociation": 4486,
      "js": 4487,
      "ĠSee": 4488,
      "No": 4489,
      "rang": 4490,
      "ĠSince": 4491,
      "Ġanim": 4492,
      "ĠKe": 4493,
      "efore": 4494,
      "edom": 4495,
      "igation": 4496,
      "Ġsetting": 4497,
      "^{(": 4498,
      "agon": 4499,
      "Ã¨": 4500,
      "ĠPort": 4501,
      "aran": 4502,
      "ĠFacebook": 4503,
      "Ġfloor": 4504,
      "Ġcritical": 4505,
      "Ġexhib": 4506,
      "ĠFlor": 4507,
      "Ġindividuals": 4508,
      "Or": 4509,
      "ĠReview": 4510,
      "place": 4511,
      "Ġproposed": 4512,
      "clusion": 4513,
      "Äģ": 4514,
      "icine": 4515,
      "Ġinvestment": 4516,
      "agram": 4517,
      "caption": 4518,
      "Ġtouch": 4519,
      "Ġ);\\": 4520,
      "Ġcommercial": 4521,
      "ĠConf": 4522,
      "Ġexcell": 4523,
      "ystem": 4524,
      "Ġtim": 4525,
      "46": 4526,
      "isation": 4527,
      "Ġshot": 4528,
      "Ġstrugg": 4529,
      "wid": 4530,
      "Ġsecret": 4531,
      "itz": 4532,
      "All": 4533,
      "ĠSing": 4534,
      "ĠOther": 4535,
      "ellig": 4536,
      "ĠMost": 4537,
      "ifying": 4538,
      "Ġexcept": 4539,
      "Ġexpand": 4540,
      "Ġprem": 4541,
      "Ġremains": 4542,
      "ancing": 4543,
      "etes": 4544,
      "Ġseven": 4545,
      "ĠYear": 4546,
      "ĠChurch": 4547,
      "Ġhour": 4548,
      "Ġfunctions": 4549,
      "semb": 4550,
      "arden": 4551,
      "ĠDec": 4552,
      "ĠWed": 4553,
      "Ġbirth": 4554,
      "porate": 4555,
      "sf": 4556,
      "iny": 4557,
      "Ġfigure": 4558,
      "ĠServices": 4559,
      "Ġil": 4560,
      "Ġsave": 4561,
      "$$\\": 4562,
      "ĠBen": 4563,
      "Ġefforts": 4564,
      "Ġ\\\\,": 4565,
      "cell": 4566,
      "amily": 4567,
      "06": 4568,
      "Ġfine": 4569,
      "ĠDevelop": 4570,
      "porary": 4571,
      "Ġstock": 4572,
      "itar": 4573,
      "Ġletter": 4574,
      "ĠEvery": 4575,
      "ĠGold": 4576,
      "ĠAustralia": 4577,
      "Ġmovement": 4578,
      "ena": 4579,
      "Ġcertainly": 4580,
      "ĠAfrica": 4581,
      "Ġbrother": 4582,
      "Equ": 4583,
      "eared": 4584,
      "Ġir": 4585,
      "aling": 4586,
      "vere": 4587,
      "Ġ2007": 4588,
      "ģĦ": 4589,
      "ĠST": 4590,
      "Ġstrateg": 4591,
      "eful": 4592,
      "Ġdefault": 4593,
      "Ġconnection": 4594,
      "Ġaspect": 4595,
      "Ġitems": 4596,
      ".~\\\\": 4597,
      "Ġproduced": 4598,
      "ĠMusic": 4599,
      "ride": 4600,
      "Ġemployees": 4601,
      "ĠList": 4602,
      "icks": 4603,
      "Not": 4604,
      "Ġcry": 4605,
      "ML": 4606,
      "SC": 4607,
      "Ġapproxim": 4608,
      "ounds": 4609,
      "ĠAngel": 4610,
      "ĠMart": 4611,
      "olic": 4612,
      "Context": 4613,
      "Ġcast": 4614,
      "Ġselect": 4615,
      "Ġmaterials": 4616,
      "Ġunit": 4617,
      "Ġvill": 4618,
      "ka": 4619,
      "Ġoperations": 4620,
      "Ġshared": 4621,
      "ructure": 4622,
      "Request": 4623,
      "Ġobtained": 4624,
      "Ġgreater": 4625,
      "github": 4626,
      "Ġapart": 4627,
      "Ġtransport": 4628,
      "ĠSuper": 4629,
      "Ġthrow": 4630,
      "ĠOffice": 4631,
      "Ġfeeling": 4632,
      "Ġtemperature": 4633,
      "Ã³": 4634,
      "iller": 4635,
      "Al": 4636,
      "ĠMichael": 4637,
      "Ġwindow": 4638,
      "Ġbenefits": 4639,
      "ĠCommission": 4640,
      "Ġprimary": 4641,
      "ĠSet": 4642,
      "ĠSaturday": 4643,
      "Ġdistance": 4644,
      "ixt": 4645,
      "Ġcru": 4646,
      "ĠCongress": 4647,
      "98": 4648,
      "Ġanti": 4649,
      "03": 4650,
      "Ġplanning": 4651,
      "Ġwants": 4652,
      "mmet": 4653,
      "Ġrecommend": 4654,
      "Ġlabel": 4655,
      "Ġfederal": 4656,
      "Ġwild": 4657,
      "Ġaffect": 4658,
      "Ġopin": 4659,
      "âĢ¢": 4660,
      "ĠGerman": 4661,
      "Ġapplications": 4662,
      "ĠÂ£": 4663,
      "rangle": 4664,
      "spect": 4665,
      "Time": 4666,
      "overy": 4667,
      "Ġpoor": 4668,
      "Ġbehavior": 4669,
      "ĠWind": 4670,
      "\\\\|": 4671,
      "}=": 4672,
      "pan": 4673,
      "Ġsust": 4674,
      "edia": 4675,
      "Ġcommunities": 4676,
      "well": 4677,
      "âģĦ": 4678,
      "ĠBank": 4679,
      "ĠGovernment": 4680,
      "Ġcentral": 4681,
      "olf": 4682,
      "Ġharm": 4683,
      "Ġrepe": 4684,
      "Ġoverall": 4685,
      "istan": 4686,
      "Ġobvious": 4687,
      "Ġproduce": 4688,
      "Ġtruth": 4689,
      "Add": 4690,
      "Le": 4691,
      "Ġinterested": 4692,
      "Ġcollabor": 4693,
      "Ġcharge": 4694,
      "Ġcreating": 4695,
      "ĠDirector": 4696,
      "nLet": 4697,
      "Ġign": 4698,
      "Ġhelped": 4699,
      "tpublic": 4700,
      "If": 4701,
      "Ġexpert": 4702,
      "itely": 4703,
      "known": 4704,
      "icated": 4705,
      "Ġserve": 4706,
      "Ġspirit": 4707,
      "ĠCommittee": 4708,
      "dots": 4709,
      "Ġestablish": 4710,
      "Ġsend": 4711,
      "Ġ($": 4712,
      "erved": 4713,
      "Ġedge": 4714,
      "ĠJew": 4715,
      "iate": 4716,
      ".)": 4717,
      "Ġpeace": 4718,
      "hens": 4719,
      "Ġtransform": 4720,
      "atever": 4721,
      "Ġworkers": 4722,
      "Ġkept": 4723,
      "Ġparameters": 4724,
      "ĠCentre": 4725,
      "fficient": 4726,
      "input": 4727,
      "Ġhair": 4728,
      "Ġactual": 4729,
      "lient": 4730,
      "estival": 4731,
      "67": 4732,
      "Ġmicro": 4733,
      "07": 4734,
      "sl": 4735,
      "rum": 4736,
      "Ġsleep": 4737,
      "Ġdaily": 4738,
      "Ġtools": 4739,
      "\\\".\\": 4740,
      "ĠBill": 4741,
      "nAll": 4742,
      "Ġcollege": 4743,
      "Array": 4744,
      "Ġtalking": 4745,
      "ĠBay": 4746,
      "0000": 4747,
      "2019": 4748,
      "Ġbasic": 4749,
      "anned": 4750,
      "ĠBel": 4751,
      "Ġslight": 4752,
      "osh": 4753,
      "08": 4754,
      "Ġcommand": 4755,
      "ĠPlay": 4756,
      ")=": 4757,
      "ĠMag": 4758,
      "ĠTexas": 4759,
      "Ġbecomes": 4760,
      "Ġ?": 4761,
      "Ġquarter": 4762,
      "void": 4763,
      "ya": 4764,
      "Ġexisting": 4765,
      "SP": 4766,
      "Ġchurch": 4767,
      "Ġfields": 4768,
      "Ġbill": 4769,
      "ĠMonday": 4770,
      "ĠGood": 4771,
      "rightarrow": 4772,
      "Ġreduce": 4773,
      "Ġstuff": 4774,
      "inct": 4775,
      "ronic": 4776,
      "Ġ2006": 4777,
      "Ġclimate": 4778,
      "ĠChristian": 4779,
      "Ġcompar": 4780,
      "Ġcatch": 4781,
      "Ġblue": 4782,
      "venue": 4783,
      "ĠHistory": 4784,
      "Ġgraph": 4785,
      "Ġpressure": 4786,
      "Ġpicture": 4787,
      "Ġextrem": 4788,
      "akers": 4789,
      "ĠEducation": 4790,
      "Ġdisapp": 4791,
      "Ġrequirements": 4792,
      "Ġhus": 4793,
      "Config": 4794,
      "(),": 4795,
      "Ġregist": 4796,
      "ashion": 4797,
      "Ġstrategy": 4798,
      "_.": 4799,
      "Ġpresence": 4800,
      "}}$": 4801,
      "Ġopportunities": 4802,
      "refore": 4803,
      "ĠMet": 4804,
      "inese": 4805,
      "ĠOver": 4806,
      "Ġdoll": 4807,
      "Ġskin": 4808,
      "Ġinternal": 4809,
      "ologies": 4810,
      "max": 4811,
      "Ġreflect": 4812,
      "sqrt": 4813,
      "Ġrob": 4814,
      "Ġwat": 4815,
      "Ġcold": 4816,
      "eat": 4817,
      "ĠBig": 4818,
      "ĠRob": 4819,
      "Ġsets": 4820,
      "ĠMac": 4821,
      "97": 4822,
      "Ġlov": 4823,
      "empl": 4824,
      "Ġrule": 4825,
      "Ġresponsible": 4826,
      "Ġcustomer": 4827,
      "create": 4828,
      "nm": 4829,
      "ications": 4830,
      "antic": 4831,
      "ĠFig": 4832,
      "erry": 4833,
      "Ġpet": 4834,
      "Ġmix": 4835,
      "ĠMil": 4836,
      "ildren": 4837,
      ";\\\\": 4838,
      "ĠSociety": 4839,
      "Ġrestaur": 4840,
      "Ġadvant": 4841,
      "ĠLeg": 4842,
      "Ġ:=": 4843,
      "Text": 4844,
      "Ġconsult": 4845,
      "Ġunf": 4846,
      "Ġglass": 4847,
      "''": 4848,
      "Event": 4849,
      "OC": 4850,
      "ĠWell": 4851,
      "group": 4852,
      "Ġgrant": 4853,
      "Ġsusp": 4854,
      "irus": 4855,
      "ruit": 4856,
      "mical": 4857,
      "\\\":": 4858,
      "Ġfavorite": 4859,
      "ĠFlorida": 4860,
      "abase": 4861,
      "edy": 4862,
      "Ġcontains": 4863,
      "ĠMat": 4864,
      "State": 4865,
      "Item": 4866,
      "ĠTom": 4867,
      "cap": 4868,
      "Ġclients": 4869,
      "ulture": 4870,
      "ĠRel": 4871,
      "Ġscen": 4872,
      "Ġahead": 4873,
      "Ġabsol": 4874,
      "Big": 4875,
      "Ġmess": 4876,
      "Ġreality": 4877,
      "Ġstrength": 4878,
      "ady": 4879,
      "Ġopened": 4880,
      "Ġoperation": 4881,
      "ae": 4882,
      "Ġbeg": 4883,
      "ursday": 4884,
      "Ġpair": 4885,
      "}}\\": 4886,
      "Ġbenefit": 4887,
      "Ġut": 4888,
      "Ġconstruct": 4889,
      "Ġspread": 4890,
      "Ġshowed": 4891,
      "Service": 4892,
      "AA": 4893,
      "Ġmaybe": 4894,
      "Ġoffered": 4895,
      "ĠMuseum": 4896,
      "\\\")\\": 4897,
      "varphi": 4898,
      "Ġnil": 4899,
      "Ġmachine": 4900,
      "apers": 4901,
      "Ġpow": 4902,
      "that": 4903,
      ")$,": 4904,
      "asion": 4905,
      "Stream": 4906,
      "Ġchallenge": 4907,
      "Ġclaims": 4908,
      "uty": 4909,
      "Ġmotion": 4910,
      "Ġsources": 4911,
      "Ġarm": 4912,
      "Ġperhaps": 4913,
      "Ġnice": 4914,
      "ĠSection": 4915,
      "za": 4916,
      "urity": 4917,
      "usion": 4918,
      "ipl": 4919,
      "ĠStr": 4920,
      "ĠFore": 4921,
      "ĠLife": 4922,
      "alled": 4923,
      "Ġbusinesses": 4924,
      "under": 4925,
      "NS": 4926,
      "Ġ/>\\": 4927,
      "ĠQue": 4928,
      "Param": 4929,
      "draw": 4930,
      "Ġcitiz": 4931,
      "Ġclick": 4932,
      "Ġreasons": 4933,
      "Ġeye": 4934,
      "rive": 4935,
      "Ġarray": 4936,
      "Ġentry": 4937,
      "Ġmaster": 4938,
      "Ġleader": 4939,
      "nOur": 4940,
      "ĠAtt": 4941,
      "ĠMary": 4942,
      "////////": 4943,
      "But": 4944,
      "Ġnotice": 4945,
      "Ġhighest": 4946,
      "Ġtrain": 4947,
      "68": 4948,
      "pack": 4949,
      "PS": 4950,
      "ĠSur": 4951,
      "Ġpush": 4952,
      "Ġrestrict": 4953,
      "Ġcas": 4954,
      "ĠHome": 4955,
      "Ġcounter": 4956,
      "Comp": 4957,
      "Ġwish": 4958,
      "Ġfactor": 4959,
      "Ġannual": 4960,
      "summary": 4961,
      "Ġsurround": 4962,
      "ĠSmith": 4963,
      "Ġamazing": 4964,
      "04": 4965,
      "\\\\[": 4966,
      "actory": 4967,
      "Ġpen": 4968,
      "block": 4969,
      "Ġjoin": 4970,
      "ulf": 4971,
      "Se": 4972,
      "Ġonto": 4973,
      "mail": 4974,
      "Ġcert": 4975,
      "App": 4976,
      "nPro": 4977,
      "Ġmemory": 4978,
      "ĠCOVID": 4979,
      "IF": 4980,
      "Ġclearly": 4981,
      "Ġhospital": 4982,
      "ĠMo": 4983,
      "\\\";\\": 4984,
      "Ġmobile": 4985,
      "Fr": 4986,
      "free": 4987,
      "stant": 4988,
      "Ġelectric": 4989,
      ")^": 4990,
      "raction": 4991,
      "Ġforces": 4992,
      "Ġreference": 4993,
      "Over": 4994,
      "Ġsteps": 4995,
      "Ġshoot": 4996,
      "Ġappoint": 4997,
      "Ġexpress": 4998,
      "ĠBest": 4999,
      "Ġfactors": 5000,
      "Ġmill": 5001,
      "ĠRussia": 5002,
      ".</": 5003,
      "rant": 5004,
      "Phi": 5005,
      "ĠTime": 5006,
      "Ġscene": 5007,
      "uesday": 5008,
      "ona": 5009,
      "Ġenh": 5010,
      "Ġbudget": 5011,
      "apache": 5012,
      "Ġparties": 5013,
      "Ġreturned": 5014,
      "Ġforms": 5015,
      "Ġotherwise": 5016,
      "Ġfans": 5017,
      "Ġproof": 5018,
      "Ġsites": 5019,
      "pret": 5020,
      "oat": 5021,
      "win": 5022,
      "Form": 5023,
      "Ġfig": 5024,
      "ĠRussian": 5025,
      "Ġnuc": 5026,
      "Ġteams": 5027,
      "ĠFrance": 5028,
      "Ġtrou": 5029,
      "gment": 5030,
      "oma": 5031,
      "Ġ35": 5032,
      "NA": 5033,
      "Ġalgorith": 5034,
      "Ġequipment": 5035,
      "Ġjournal": 5036,
      "ĠLou": 5037,
      "rivate": 5038,
      "Ġpatient": 5039,
      "gn": 5040,
      "lt": 5041,
      "level": 5042,
      "Ġadopt": 5043,
      "Ġopening": 5044,
      "42": 5045,
      "ette": 5046,
      "Ġeth": 5047,
      "Ġexerc": 5048,
      "ĠUSA": 5049,
      "Ġstation": 5050,
      "aven": 5051,
      "ample": 5052,
      "Ġpolic": 5053,
      "Ġpreviously": 5054,
      "Path": 5055,
      "Ġprop": 5056,
      "ĠMiss": 5057,
      "outhern": 5058,
      "ĠPlan": 5059,
      "sey": 5060,
      "Ġpowerful": 5061,
      "Ġagreement": 5062,
      "length": 5063,
      "},\\": 5064,
      "EE": 5065,
      "Ġappropriate": 5066,
      "TR": 5067,
      "tes": 5068,
      "ĠTur": 5069,
      "riage": 5070,
      "nThat": 5071,
      "Ġreached": 5072,
      "Ġrequires": 5073,
      "Ġraised": 5074,
      "Ġagree": 5075,
      "ĠMem": 5076,
      "Ġmeant": 5077,
      "function": 5078,
      "Ġimpos": 5079,
      "DA": 5080,
      "uster": 5081,
      "Ġuseful": 5082,
      "ĠThomas": 5083,
      "ĠData": 5084,
      "Ġfixed": 5085,
      "Ġdeliver": 5086,
      "Ġwid": 5087,
      "kin": 5088,
      "standing": 5089,
      "Ġsolid": 5090,
      "Info": 5091,
      "ĠParty": 5092,
      "Ġspecies": 5093,
      "ampions": 5094,
      "Ġmiles": 5095,
      "ded": 5096,
      "translation": 5097,
      "nCom": 5098,
      "ĠArmy": 5099,
      "ĠHill": 5100,
      "ĠEconom": 5101,
      "Ġemb": 5102,
      "Ġsav": 5103,
      "Ġdecre": 5104,
      "emic": 5105,
      "abilities": 5106,
      "Ġlearned": 5107,
      "69": 5108,
      "inger": 5109,
      "Ġconcent": 5110,
      "Ġrelevant": 5111,
      "Ġtick": 5112,
      "Ġdaughter": 5113,
      "2018": 5114,
      "Ġgeneration": 5115,
      "Ġbottom": 5116,
      "Ġhusband": 5117,
      "Ġmarketing": 5118,
      "Ġcris": 5119,
      "rics": 5120,
      "2020": 5121,
      "content": 5122,
      "Ġrap": 5123,
      "olean": 5124,
      "ĠFil": 5125,
      "Ġphase": 5126,
      "Ġepis": 5127,
      "Ġlegis": 5128,
      "ini": 5129,
      "ĠAlso": 5130,
      "Ġarchitect": 5131,
      "ĠUnder": 5132,
      "Ġunc": 5133,
      "dim": 5134,
      "Ġsmaller": 5135,
      "ĠFoundation": 5136,
      "09": 5137,
      "ĠReport": 5138,
      "nesday": 5139,
      "Ġtree": 5140,
      "Ġselection": 5141,
      "Ġ${\\\\": 5142,
      "CE": 5143,
      "ourney": 5144,
      "Ġthank": 5145,
      "MA": 5146,
      "ĠRoad": 5147,
      "Ġattract": 5148,
      "client": 5149,
      "Ġcontr": 5150,
      "asure": 5151,
      "DE": 5152,
      "Ġartist": 5153,
      "ĠSl": 5154,
      "Ġgenerally": 5155,
      "orrow": 5156,
      "ĠTimes": 5157,
      "Ġplus": 5158,
      "\\\")": 5159,
      "ĠCap": 5160,
      "Ġshape": 5161,
      "\\\\%": 5162,
      "Ġequival": 5163,
      "color": 5164,
      "ias": 5165,
      "Ġdanger": 5166,
      "Code": 5167,
      "Ġcore": 5168,
      "Ġprices": 5169,
      "Ġelection": 5170,
      "ipe": 5171,
      "nEx": 5172,
      "cel": 5173,
      "ĠDet": 5174,
      "Ġacadem": 5175,
      "Ġcomments": 5176,
      "ĠSal": 5177,
      "Ġprepared": 5178,
      "---": 5179,
      "Ġmission": 5180,
      "idden": 5181,
      "entially": 5182,
      "iques": 5183,
      "TS": 5184,
      "PR": 5185,
      "\\\"></": 5186,
      "gu": 5187,
      "ervation": 5188,
      "textbf": 5189,
      "88": 5190,
      "Ġjobs": 5191,
      "itchen": 5192,
      "!--": 5193,
      "CL": 5194,
      "Ġstress": 5195,
      "care": 5196,
      "Ġflu": 5197,
      "Ġinsurance": 5198,
      "Ġrank": 5199,
      "ĠCur": 5200,
      "Ġapplied": 5201,
      "Ġrespectively": 5202,
      "Ġsector": 5203,
      "otimes": 5204,
      "Re": 5205,
      "Ġkilled": 5206,
      "ĠCr": 5207,
      "othing": 5208,
      "ĠMer": 5209,
      "fit": 5210,
      "ĠPeople": 5211,
      "orph": 5212,
      "%\\": 5213,
      "66": 5214,
      "ĠUnion": 5215,
      "Ġsongs": 5216,
      ".[": 5217,
      "Ġexcellent": 5218,
      "ria": 5219,
      "Ġowners": 5220,
      "ĠRobert": 5221,
      "ensions": 5222,
      "Ġspot": 5223,
      "DF": 5224,
      "Ġsupply": 5225,
      "Ġearth": 5226,
      "Ġcompleted": 5227,
      "Ġsch": 5228,
      "izer": 5229,
      "Ġheavy": 5230,
      "Ġexpression": 5231,
      "Ġviews": 5232,
      "ĠMinister": 5233,
      "oin": 5234,
      "ĠThursday": 5235,
      "reate": 5236,
      "eds": 5237,
      "ĠWhy": 5238,
      "Ġdespite": 5239,
      "Ġconstit": 5240,
      "stitution": 5241,
      "!\\\"": 5242,
      "Ġdram": 5243,
      "iler": 5244,
      "Ġhyp": 5245,
      "Ġcalls": 5246,
      "lict": 5247,
      "Ġequal": 5248,
      "YP": 5249,
      "Ġrandom": 5250,
      "Ġrare": 5251,
      "conn": 5252,
      "500": 5253,
      "icit": 5254,
      "dro": 5255,
      "Ġloved": 5256,
      "Ġgoals": 5257,
      "active": 5258,
      "udd": 5259,
      "Ġsale": 5260,
      "icago": 5261,
      "ĠTest": 5262,
      "Ġpaint": 5263,
      "Ġ195": 5264,
      "Ġpurchase": 5265,
      "Ġbrief": 5266,
      "Ġupdate": 5267,
      "Ð¾": 5268,
      "inn": 5269,
      "Ġdetermine": 5270,
      "ups": 5271,
      "Ġpartner": 5272,
      "azine": 5273,
      "Ġice": 5274,
      "Out": 5275,
      "Ġlock": 5276,
      "Ġaudience": 5277,
      "43": 5278,
      "Ġreb": 5279,
      "ĠChristmas": 5280,
      "osen": 5281,
      "Ġincome": 5282,
      "ĠMad": 5283,
      "ĠChinese": 5284,
      "rapy": 5285,
      "ĠSum": 5286,
      "2016": 5287,
      "Ġ});\\": 5288,
      "Ġdrink": 5289,
      "Ġtend": 5290,
      "Ġsupported": 5291,
      "Ġegg": 5292,
      "Ġtrend": 5293,
      "Ġbiggest": 5294,
      "Ġoccup": 5295,
      "ĠCarol": 5296,
      "mes": 5297,
      "Ġcrow": 5298,
      "ĠSun": 5299,
      "Ġinstr": 5300,
      "write": 5301,
      "ario": 5302,
      "ĠVir": 5303,
      "Ġspend": 5304,
      "page": 5305,
      "api": 5306,
      "ĠDevelopment": 5307,
      "Ġresist": 5308,
      "ĠWeek": 5309,
      "ĠProject": 5310,
      "Ġcontroll": 5311,
      "Ġdetermined": 5312,
      "Ġwhom": 5313,
      "Ġsea": 5314,
      "Ġparameter": 5315,
      "cons": 5316,
      "config": 5317,
      "doc": 5318,
      "Ġbrain": 5319,
      "Ġwouldn": 5320,
      "Ġfaith": 5321,
      "Ġcoord": 5322,
      "Ġproceed": 5323,
      "Ġpoll": 5324,
      "Ġobserved": 5325,
      "ĠTwitter": 5326,
      "ĠWilliam": 5327,
      "ivery": 5328,
      "lang": 5329,
      "Of": 5330,
      "Ġiniti": 5331,
      "erg": 5332,
      "Ġchallenges": 5333,
      "Element": 5334,
      "eration": 5335,
      "Ġappears": 5336,
      "orial": 5337,
      "Ġfiles": 5338,
      "ienced": 5339,
      "rig": 5340,
      "Ġdevices": 5341,
      "Ġexists": 5342,
      "Ġmajority": 5343,
      "Ġactions": 5344,
      "rier": 5345,
      "nNew": 5346,
      "41": 5347,
      "Ġexperim": 5348,
      "cos": 5349,
      "ano": 5350,
      "ĠRock": 5351,
      "uffer": 5352,
      "host": 5353,
      "erences": 5354,
      "Ġknows": 5355,
      "ĠAfrican": 5356,
      "BA": 5357,
      "ĠSocial": 5358,
      "ĠTop": 5359,
      "bert": 5360,
      "nSh": 5361,
      "writ": 5362,
      "eless": 5363,
      "Ġrise": 5364,
      "ĠPM": 5365,
      "Ġoptim": 5366,
      "Ġattend": 5367,
      "ĠFranc": 5368,
      "Ġbur": 5369,
      "'.": 5370,
      "nWhile": 5371,
      "ĠMex": 5372,
      "Ġvote": 5373,
      "Ġtrip": 5374,
      "Ġregarding": 5375,
      "itness": 5376,
      "Ġdrop": 5377,
      "otes": 5378,
      "Ġcancer": 5379,
      "Ġadministration": 5380,
      "ĠRef": 5381,
      "oted": 5382,
      "ĠCamp": 5383,
      "Ġ\\\\\\\\": 5384,
      "Ġmeasures": 5385,
      "nMy": 5386,
      "Exp": 5387,
      "ĠMany": 5388,
      "ĠWeb": 5389,
      "Ġnut": 5390,
      "Ġselected": 5391,
      "unte": 5392,
      "Ġexception": 5393,
      "Ġadvert": 5394,
      "Ġinfluence": 5395,
      "nh": 5396,
      "true": 5397,
      "ĠAcadem": 5398,
      "77": 5399,
      "Ġtruly": 5400,
      "anging": 5401,
      "anta": 5402,
      "count": 5403,
      "run": 5404,
      "Ġprefer": 5405,
      "grad": 5406,
      "look": 5407,
      "lies": 5408,
      "cor": 5409,
      "appa": 5410,
      "Ġperformed": 5411,
      "Ġ||": 5412,
      "Ġvs": 5413,
      "Ġpages": 5414,
      "{-": 5415,
      "start": 5416,
      "&\\\\": 5417,
      "Ġimpl": 5418,
      "uled": 5419,
      "ĠJul": 5420,
      "uated": 5421,
      "otic": 5422,
      "ipp": 5423,
      "Ġrecords": 5424,
      "Ġjava": 5425,
      "Ġleaving": 5426,
      "ĠStar": 5427,
      "Ġclasses": 5428,
      "burg": 5429,
      "ĠTuesday": 5430,
      "Ġcomponents": 5431,
      "ĠÂ»": 5432,
      "ĠProfess": 5433,
      "Ġcapacity": 5434,
      "asy": 5435,
      "mathsf": 5436,
      "')": 5437,
      "Ġ;": 5438,
      "Ġles": 5439,
      "orthern": 5440,
      "Ġshift": 5441,
      "Ġapprec": 5442,
      "Ġguid": 5443,
      "Ġphoto": 5444,
      "Ġoffering": 5445,
      "Ġcontinues": 5446,
      "rees": 5447,
      "ĠDiv": 5448,
      "Ġlaunch": 5449,
      "Field": 5450,
      "oute": 5451,
      "Ġvan": 5452,
      "overline": 5453,
      "osis": 5454,
      "bour": 5455,
      "iced": 5456,
      "igration": 5457,
      "phone": 5458,
      "Ġhelps": 5459,
      "Ġsomew": 5460,
      "inding": 5461,
      "ĠClub": 5462,
      "van": 5463,
      "Ġintroduced": 5464,
      "enses": 5465,
      "ĠDou": 5466,
      "ĠJud": 5467,
      "ections": 5468,
      "Ġguide": 5469,
      "/*": 5470,
      "Ġfunding": 5471,
      "Ġessential": 5472,
      "rd": 5473,
      "Ġanc": 5474,
      "Ġfamous": 5475,
      "eting": 5476,
      "Ġgar": 5477,
      "Ġphil": 5478,
      "Ġvehicle": 5479,
      "Ġnorth": 5480,
      "Ġing": 5481,
      "ĠRiver": 5482,
      "Ġadjust": 5483,
      "Ps": 5484,
      "post": 5485,
      "Ġdensity": 5486,
      "Ġadvice": 5487,
      "Ġvictim": 5488,
      "Ġtro": 5489,
      "DR": 5490,
      "ĠBi": 5491,
      "Ġconsequ": 5492,
      "ifically": 5493,
      "Ġmist": 5494,
      "Ġherself": 5495,
      "ĠCare": 5496,
      "reek": 5497,
      "ĠWednesday": 5498,
      "foot": 5499,
      "uce": 5500,
      "Ġ.\\": 5501,
      "Ġconnected": 5502,
      "Be": 5503,
      "Ġstorage": 5504,
      "Ġsenior": 5505,
      "Ġwww": 5506,
      "azz": 5507,
      "abs": 5508,
      "Ġsym": 5509,
      "Ġmentioned": 5510,
      "Ġjoined": 5511,
      "Ġfailed": 5512,
      "ĠAM": 5513,
      "Ġsmart": 5514,
      "osure": 5515,
      "ĠManagement": 5516,
      "nof": 5517,
      "Ġlaws": 5518,
      "Ġdefinition": 5519,
      "asp": 5520,
      "ĠĠĠĠĠĠĠĠĠĠĠĠĠĠĠĠĠĠĠĠĠĠĠĠĠĠĠ": 5521,
      "ptions": 5522,
      "ĠAmericans": 5523,
      "Ġrich": 5524,
      "Ġseeing": 5525,
      "init": 5526,
      "ĠDistrict": 5527,
      "Ġsession": 5528,
      "ĠHel": 5529,
      "ĠFree": 5530,
      "going": 5531,
      "TH": 5532,
      "ĠSol": 5533,
      "ponse": 5534,
      "ĠNov": 5535,
      "[\\\\": 5536,
      "Ġ},\\": 5537,
      "Ġcultural": 5538,
      "langle": 5539,
      "Ġappeared": 5540,
      "ĠFrank": 5541,
      "orter": 5542,
      "Ġofficials": 5543,
      "Ġsouth": 5544,
      "ĠCentral": 5545,
      "pdf": 5546,
      "ushed": 5547,
      "onic": 5548,
      "Ġcaused": 5549,
      "Ġolder": 5550,
      "Ad": 5551,
      "That": 5552,
      "arp": 5553,
      "ĠMedia": 5554,
      "Ġast": 5555,
      "Ġphotos": 5556,
      "Ġleadership": 5557,
      "ĠTheir": 5558,
      "Ġdefine": 5559,
      "Ġtesting": 5560,
      "Ġnegative": 5561,
      "++": 5562,
      "Ġbattle": 5563,
      "Ġ2000": 5564,
      ")$.": 5565,
      "Ġentertain": 5566,
      "EST": 5567,
      "yer": 5568,
      "Ġstreet": 5569,
      "ĠHot": 5570,
      "Ġvacc": 5571,
      "Ġradio": 5572,
      "nel": 5573,
      "lections": 5574,
      "cles": 5575,
      "Ġzero": 5576,
      "fil": 5577,
      "Ġnoted": 5578,
      "Ġserver": 5579,
      "check": 5580,
      "ĠÃł": 5581,
      "igen": 5582,
      "Ġartists": 5583,
      "Ġcomponent": 5584,
      "Ġminor": 5585,
      "Ġsample": 5586,
      "Ġnode": 5587,
      "ĠLat": 5588,
      "An": 5589,
      "Ġorganizations": 5590,
      "Ġflat": 5591,
      "Ġ2005": 5592,
      "Ġprotection": 5593,
      "Ġholds": 5594,
      "Ġdiscussion": 5595,
      "='": 5596,
      "ĠLeague": 5597,
      "ĠPeter": 5598,
      "Ġprofession": 5599,
      "clusive": 5600,
      "Ġplaced": 5601,
      "Trans": 5602,
      "Ġargument": 5603,
      "ĠGrand": 5604,
      "ĠWil": 5605,
      "Ġinteg": 5606,
      "Ġeat": 5607,
      "lands": 5608,
      "ipped": 5609,
      "ala": 5610,
      "aming": 5611,
      "Ġlaun": 5612,
      "ĠBecause": 5613,
      "ifier": 5614,
      "ffee": 5615,
      "Ġpieces": 5616,
      "ĠWomen": 5617,
      "Ġextremely": 5618,
      "':": 5619,
      "Ġdamage": 5620,
      "FL": 5621,
      "},\\\\": 5622,
      "Ġprocesses": 5623,
      "met": 5624,
      "iform": 5625,
      "Ġtrial": 5626,
      "nby": 5627,
      "ĠÐ": 5628,
      "ĠUN": 5629,
      "sk": 5630,
      "acement": 5631,
      "stream": 5632,
      "Ġmatrix": 5633,
      "Ġpolicies": 5634,
      "thm": 5635,
      "Ġcup": 5636,
      "Ġrent": 5637,
      "illa": 5638,
      "nNow": 5639,
      "ishes": 5640,
      "ented": 5641,
      "Ġdeveloping": 5642,
      "Ġresource": 5643,
      "Ġcorresponding": 5644,
      "Ġ80": 5645,
      "ĠTwo": 5646,
      "ĠBur": 5647,
      "oses": 5648,
      "Ġdescription": 5649,
      "Ġfootball": 5650,
      "asks": 5651,
      "Ġexchange": 5652,
      "Ġcash": 5653,
      "poses": 5654,
      "78": 5655,
      "ĠAlthough": 5656,
      "Ġburn": 5657,
      "nFrom": 5658,
      "ĠGermany": 5659,
      "Ġcovered": 5660,
      "Ġsports": 5661,
      "Ġmental": 5662,
      "agged": 5663,
      "!\"}": 5664,
      "Ġexperienced": 5665,
      "Ġbul": 5666,
      "stances": 5667,
      "ĠKore": 5668,
      "ctors": 5669,
      "Ġincred": 5670,
      "aid": 5671,
      "Ġfan": 5672,
      "Ġobjects": 5673,
      "Ġresol": 5674,
      "soft": 5675,
      "Ġadapt": 5676,
      "Ġwhatever": 5677,
      "ribe": 5678,
      "Ġweak": 5679,
      "Ġauth": 5680,
      "Ġseparate": 5681,
      "ĠEnd": 5682,
      "ĠBob": 5683,
      "itors": 5684,
      "Ġdebt": 5685,
      "ĠIran": 5686,
      "Ġnotes": 5687,
      "ĠAut": 5688,
      "model": 5689,
      "Ġfinished": 5690,
      "abled": 5691,
      "Ġsymbol": 5692,
      "Att": 5693,
      "ĠOh": 5694,
      "Ġwaiting": 5695,
      "Ġ90": 5696,
      "ĠLand": 5697,
      "Ġshowing": 5698,
      "alle": 5699,
      "ync": 5700,
      "Ġpractices": 5701,
      "front": 5702,
      "ĠFund": 5703,
      "ldots": 5704,
      "ĠLord": 5705,
      "Ġemerg": 5706,
      "ĠSecret": 5707,
      "ĠGen": 5708,
      "while": 5709,
      "Ġconclud": 5710,
      "cher": 5711,
      "raint": 5712,
      "Ġaren": 5713,
      "Ġfinding": 5714,
      "ĠInternet": 5715,
      "Ġhyper": 5716,
      "owl": 5717,
      "Ġconference": 5718,
      "ĠPet": 5719,
      "rency": 5720,
      "Ġsmooth": 5721,
      "Ġship": 5722,
      "Ġprove": 5723,
      "RA": 5724,
      "Ġremove": 5725,
      "Ġneighbor": 5726,
      "Hand": 5727,
      "Ġjoint": 5728,
      "Ġ45": 5729,
      "Ġhelping": 5730,
      "Ser": 5731,
      "Ġstars": 5732,
      "ĠAward": 5733,
      "ĠChicago": 5734,
      "Ġflav": 5735,
      "Ġunits": 5736,
      "Ġsrc": 5737,
      "Ġjourney": 5738,
      "Ġsustain": 5739,
      "othes": 5740,
      "Ġposted": 5741,
      "Ġdefinitely": 5742,
      "esh": 5743,
      "struct": 5744,
      "Ġscore": 5745,
      "atically": 5746,
      "Ġandroid": 5747,
      "BS": 5748,
      "ĠAny": 5749,
      "/**\\": 5750,
      "ĠCD": 5751,
      "Sigma": 5752,
      "iency": 5753,
      "night": 5754,
      "ĠForm": 5755,
      "Ġpsych": 5756,
      "nergy": 5757,
      "ĠAtl": 5758,
      "isher": 5759,
      "Ġtransition": 5760,
      "63": 5761,
      "My": 5762,
      "ĠID": 5763,
      "Ġbeat": 5764,
      "Ġcommunication": 5765,
      "Size": 5766,
      "ĠChief": 5767,
      "Ġthanks": 5768,
      "ersion": 5769,
      "nMore": 5770,
      "nson": 5771,
      "En": 5772,
      "ao": 5773,
      "_\\": 5774,
      "title": 5775,
      "Ġmaximum": 5776,
      "norm": 5777,
      "road": 5778,
      "ingly": 5779,
      "2017": 5780,
      "Ġarrest": 5781,
      "Ġended": 5782,
      "ĠLos": 5783,
      "ĠHuman": 5784,
      "Ġviolence": 5785,
      "Ġadvantage": 5786,
      "Ġsigned": 5787,
      "Ġthousands": 5788,
      "Ġweap": 5789,
      "//\\": 5790,
      "Ġexperiences": 5791,
      "Ġstandards": 5792,
      "Ġcompetition": 5793,
      "ĠEach": 5794,
      "Ġnom": 5795,
      "dule": 5796,
      "UN": 5797,
      "ategories": 5798,
      "Ġbond": 5799,
      "Ġvision": 5800,
      "ĠDesign": 5801,
      "Ġeasier": 5802,
      "Ġfif": 5803,
      "Ġpassion": 5804,
      "ani": 5805,
      "ĠAv": 5806,
      "cknow": 5807,
      "osted": 5808,
      "ĠPlease": 5809,
      "ĠLike": 5810,
      "Ġdoctor": 5811,
      "orney": 5812,
      "Ġidentify": 5813,
      "estic": 5814,
      "Ġofficers": 5815,
      "Ġidentity": 5816,
      "ĠWood": 5817,
      "ĠScott": 5818,
      "Ġidentified": 5819,
      "aud": 5820,
      "otal": 5821,
      "Ġutil": 5822,
      "tex": 5823,
      "Ġleads": 5824,
      "ĠCommunity": 5825,
      "ĠTechnology": 5826,
      "Ġmanaged": 5827,
      "De": 5828,
      "case": 5829,
      "fs": 5830,
      "ĠJeff": 5831,
      "include": 5832,
      "Ġresearc": 5833,
      "Ġcircum": 5834,
      "Ġvisual": 5835,
      "ĠMicro": 5836,
      "Ġguess": 5837,
      "ĠAbout": 5838,
      "rid": 5839,
      "Ġcop": 5840,
      "Ġunivers": 5841,
      "Ref": 5842,
      "Ġslightly": 5843,
      "escription": 5844,
      "Ġprison": 5845,
      "Ġfemale": 5846,
      "Ġweather": 5847,
      "Ġmut": 5848,
      "Ġdie": 5849,
      "ĠRad": 5850,
      "roud": 5851,
      "hline": 5852,
      "uit": 5853,
      "Ġ(\\\"": 5854,
      "Ġhandle": 5855,
      "ĠEngine": 5856,
      "Ġbalance": 5857,
      "Ġcarried": 5858,
      "Ġincor": 5859,
      "ĠEarth": 5860,
      "och": 5861,
      "Ġfant": 5862,
      "ĠParis": 5863,
      "ĠSpecial": 5864,
      "Ġcamera": 5865,
      "osop": 5866,
      "ĠSk": 5867,
      "ialog": 5868,
      "Ġarrang": 5869,
      "inating": 5870,
      "ĠWestern": 5871,
      "Ġnor": 5872,
      "Ġlinear": 5873,
      "ĠTor": 5874,
      "There": 5875,
      "Ġbelong": 5876,
      ".)\\": 5877,
      "hi": 5878,
      "IA": 5879,
      "ses": 5880,
      "dden": 5881,
      "emporary": 5882,
      "Ġprotected": 5883,
      "Ġdiagn": 5884,
      "ĠAccording": 5885,
      "parent": 5886,
      "Ġwriter": 5887,
      "Manager": 5888,
      "Ġopinion": 5889,
      "ĠBer": 5890,
      "UL": 5891,
      "Ġruns": 5892,
      "~~": 5893,
      "????": 5894,
      "pat": 5895,
      "Ġreduced": 5896,
      "Ġevening": 5897,
      "Ġagreed": 5898,
      "Ġbath": 5899,
      "Token": 5900,
      "Ġformat": 5901,
      "cdots": 5902,
      "Ġdoubt": 5903,
      "Ġcitizens": 5904,
      "Ġfunds": 5905,
      "Ġcrim": 5906,
      "Ġafford": 5907,
      "ua": 5908,
      "Ġrot": 5909,
      "Ġexplained": 5910,
      "mult": 5911,
      "Log": 5912,
      "upp": 5913,
      "riev": 5914,
      "oles": 5915,
      "mazon": 5916,
      "ĠAngeles": 5917,
      "elligence": 5918,
      "Ġgirls": 5919,
      "Ġdistrict": 5920,
      "Ġwatching": 5921,
      "Ġcrisis": 5922,
      "liament": 5923,
      "Ġcreative": 5924,
      "oration": 5925,
      "ĠThus": 5926,
      "iliar": 5927,
      "odies": 5928,
      "nex": 5929,
      "Ġraise": 5930,
      "User": 5931,
      "Ġterror": 5932,
      "Ġ->": 5933,
      "####": 5934,
      "uries": 5935,
      "Ġfocused": 5936,
      "Ent": 5937,
      "ĠÎ": 5938,
      "psilon": 5939,
      "ĠApple": 5940,
      "Ġ``": 5941,
      "Ġhappens": 5942,
      "ĠEr": 5943,
      "Ġsequence": 5944,
      "OG": 5945,
      "py": 5946,
      "Ġthr": 5947,
      "ĠHen": 5948,
      "core": 5949,
      "Ġsweet": 5950,
      "Ġdecisions": 5951,
      "valid": 5952,
      "Ġmanager": 5953,
      "Ġbecoming": 5954,
      "Go": 5955,
      "Ġmedium": 5956,
      "ortunately": 5957,
      "TER": 5958,
      "ĠCam": 5959,
      "QU": 5960,
      "ansion": 5961,
      "igan": 5962,
      "Ġchair": 5963,
      "Ġhotel": 5964,
      "Ġresidents": 5965,
      "Ġunless": 5966,
      "ĠInformation": 5967,
      "ĠLong": 5968,
      "Ġfreedom": 5969,
      "ĠRichard": 5970,
      "bi": 5971,
      "Ġ70": 5972,
      "long": 5973,
      "icate": 5974,
      "nhttps": 5975,
      "Ġguy": 5976,
      "Ġfish": 5977,
      "Ġmarkets": 5978,
      "Ġhomes": 5979,
      "Ġenvironmental": 5980,
      "Ġsudden": 5981,
      "Ġmode": 5982,
      "Ġbaby": 5983,
      "Ġreli": 5984,
      "Ġstated": 5985,
      "Ġalternative": 5986,
      "life": 5987,
      "friend": 5988,
      "PC": 5989,
      "Ġwed": 5990,
      "Ġwave": 5991,
      "ĠDi": 5992,
      "nThey": 5993,
      "Ġowner": 5994,
      "Ġweekend": 5995,
      "Ġperspect": 5996,
      "Ġfix": 5997,
      "icious": 5998,
      "Ġrout": 5999,
      "Ġrow": 6000,
      "related": 6001,
      "ĠLead": 6002,
      "Ġnav": 6003,
      "sem": 6004,
      "Ġvolume": 6005,
      "Ġce": 6006,
      "ĠSpe": 6007,
      "widehat": 6008,
      "ĠWho": 6009,
      "Ġmonitor": 6010,
      "ĠObama": 6011,
      "Ġleaves": 6012,
      "Ġdecades": 6013,
      "Ġpurposes": 6014,
      "Pl": 6015,
      "Ġtraffic": 6016,
      "Index": 6017,
      "Ġadvance": 6018,
      "info": 6019,
      "atre": 6020,
      "ĠSand": 6021,
      "ĠPolicy": 6022,
      "Ġdriving": 6023,
      "Ġpanel": 6024,
      "nBe": 6025,
      "Ġgenerated": 6026,
      "apping": 6027,
      "ĠVirgin": 6028,
      "inder": 6029,
      "Ġwaste": 6030,
      "Ġjump": 6031,
      "Ġeventually": 6032,
      "62": 6033,
      "ĠPen": 6034,
      "Ġchief": 6035,
      "zeta": 6036,
      "Ġofficer": 6037,
      "Ġdry": 6038,
      "ĠDuring": 6039,
      "Ġhealthy": 6040,
      "Ġgra": 6041,
      "ĠGeorg": 6042,
      "Ġfell": 6043,
      "Ġq": 6044,
      "Ġpal": 6045,
      "adian": 6046,
      "((": 6047,
      "Ġlisten": 6048,
      "Ġta": 6049,
      "Ġcities": 6050,
      "Ġcategory": 6051,
      "ĠOffic": 6052,
      "Ġeditor": 6053,
      "Ġadding": 6054,
      "ĠConn": 6055,
      "Ġcars": 6056,
      "Ġefficient": 6057,
      "Ġforced": 6058,
      "Ġsurvey": 6059,
      "Ġgain": 6060,
      "61": 6061,
      "Ġappeal": 6062,
      "Ġspeech": 6063,
      "ĠTherefore": 6064,
      "Ġinterpret": 6065,
      "Ġtechnical": 6066,
      "ĠReturn": 6067,
      "imb": 6068,
      "ker": 6069,
      "2015": 6070,
      "ĠCharles": 6071,
      "from": 6072,
      "Ġfol": 6073,
      "Ġuns": 6074,
      "ESS": 6075,
      "nis": 6076,
      "itled": 6077,
      "PA": 6078,
      "ĠGlobal": 6079,
      "rip": 6080,
      "Ġoperating": 6081,
      "Ġempty": 6082,
      "ĠFrancis": 6083,
      "Ġhab": 6084,
      "Ġlived": 6085,
      "scale": 6086,
      "Ġcolumn": 6087,
      "Ġsugar": 6088,
      "version": 6089,
      "ĠLouis": 6090,
      "DS": 6091,
      "ĠBet": 6092,
      "kappa": 6093,
      "Ġconcerns": 6094,
      "widet": 6095,
      "ĠOpen": 6096,
      "emma": 6097,
      "Ġprepar": 6098,
      "ĠJes": 6099,
      "Ġcombination": 6100,
      "CS": 6101,
      "ĠMain": 6102,
      "ĠMass": 6103,
      "Ġtransl": 6104,
      "Ġretail": 6105,
      "Ġheight": 6106,
      "oding": 6107,
      "Ġrecorded": 6108,
      "anda": 6109,
      "Ġbatter": 6110,
      "Ġpm": 6111,
      "ĠCEO": 6112,
      "Ġfailure": 6113,
      "nonumber": 6114,
      "ĠWhe": 6115,
      "Ġvert": 6116,
      "Ġban": 6117,
      "Input": 6118,
      "kins": 6119,
      "ĠDown": 6120,
      "Ġkeeping": 6121,
      "Ġexplain": 6122,
      ".\\\\": 6123,
      "Ġapparent": 6124,
      "ĠOper": 6125,
      "Ġkitchen": 6126,
      "Ġdedicated": 6127,
      "89": 6128,
      "Ġsquare": 6129,
      "ais": 6130,
      "ĠIr": 6131,
      "Ġillustr": 6132,
      "uations": 6133,
      "Ġreturns": 6134,
      "ĠNS": 6135,
      "Ġguys": 6136,
      "Ġdelivery": 6137,
      "ĠMont": 6138,
      "Ġguaran": 6139,
      "Ðµ": 6140,
      "Ġlit": 6141,
      "ingu": 6142,
      "Ġmarried": 6143,
      "ĠJose": 6144,
      "Ġassume": 6145,
      "Ġmostly": 6146,
      "ĠMcC": 6147,
      "Ð°": 6148,
      "weight": 6149,
      "ĠMot": 6150,
      "Ġdescribe": 6151,
      "sembly": 6152,
      "frast": 6153,
      "Ġminimum": 6154,
      "ĠAND": 6155,
      "rate": 6156,
      "ĠOnce": 6157,
      "elled": 6158,
      "ĠPalest": 6159,
      "cious": 6160,
      "Ġfashion": 6161,
      "object": 6162,
      "ĠSecond": 6163,
      "build": 6164,
      "lig": 6165,
      "enth": 6166,
      "ubern": 6167,
      "Ġrapid": 6168,
      "ĠBu": 6169,
      "aren": 6170,
      "Ġremaining": 6171,
      "ita": 6172,
      "cean": 6173,
      "claim": 6174,
      "utely": 6175,
      "cho": 6176,
      "Ġsho": 6177,
      "Ġpositions": 6178,
      "Ġframe": 6179,
      "ras": 6180,
      "Ġyield": 6181,
      "Ġshut": 6182,
      "java": 6183,
      "FF": 6184,
      "Ġ500": 6185,
      "Ġimportance": 6186,
      "legal": 6187,
      "Ġliber": 6188,
      "asket": 6189,
      "cks": 6190,
      "dt": 6191,
      "inations": 6192,
      "irty": 6193,
      "Ġspring": 6194,
      "Ġemp": 6195,
      "Ġideal": 6196,
      "greg": 6197,
      "Build": 6198,
      "ipping": 6199,
      "Ġfilled": 6200,
      "Ġlands": 6201,
      "UM": 6202,
      "iden": 6203,
      "nAb": 6204,
      "ĠBo": 6205,
      "Ġstopped": 6206,
      "Ġhaven": 6207,
      "png": 6208,
      "ĠOR": 6209,
      "Ġagency": 6210,
      "alog": 6211,
      "Ġ(!": 6212,
      "ailed": 6213,
      "andemic": 6214,
      "nThese": 6215,
      "Ġequation": 6216,
      "Ġmechanism": 6217,
      "zen": 6218,
      "Ġteaching": 6219,
      "Ġmetal": 6220,
      "Ġsurg": 6221,
      "hab": 6222,
      "tw": 6223,
      "nAcc": 6224,
      "irmed": 6225,
      "rie": 6226,
      "rence": 6227,
      "nHere": 6228,
      "pol": 6229,
      "Ġshop": 6230,
      "Ġcalling": 6231,
      "Ġindu": 6232,
      "ĠJon": 6233,
      "ucky": 6234,
      "yles": 6235,
      "widetilde": 6236,
      "`\\": 6237,
      "Ġrac": 6238,
      "Ġclassic": 6239,
      "olec": 6240,
      "current": 6241,
      "ometry": 6242,
      "ATE": 6243,
      "CO": 6244,
      "Ġ2004": 6245,
      "Ġsched": 6246,
      "prime": 6247,
      "Ġfuel": 6248,
      "Ġlabor": 6249,
      "ampionship": 6250,
      "DP": 6251,
      "lines": 6252,
      "ashed": 6253,
      "Ġborder": 6254,
      "ĠNote": 6255,
      "bra": 6256,
      "erate": 6257,
      "Ġbra": 6258,
      "Ġcab": 6259,
      "crete": 6260,
      "ĠSecurity": 6261,
      "Ġthick": 6262,
      "ĠFamily": 6263,
      "Ġnumerous": 6264,
      "ocket": 6265,
      "ĠJer": 6266,
      "Ġbreath": 6267,
      "ilton": 6268,
      "Ġdocuments": 6269,
      "mosp": 6270,
      "ĠâĢ¢": 6271,
      "Base": 6272,
      "how": 6273,
      "ĠIts": 6274,
      "ĠPower": 6275,
      "allery": 6276,
      "mbox": 6277,
      "stein": 6278,
      "ĠTH": 6279,
      "Ġsexual": 6280,
      "Ġwonderful": 6281,
      "Ġholding": 6282,
      "Ġtrees": 6283,
      "ĠArts": 6284,
      "Inter": 6285,
      "Ġchanging": 6286,
      "ui": 6287,
      "ohn": 6288,
      "han": 6289,
      "Ġyouth": 6290,
      "nPh": 6291,
      "HT": 6292,
      "inton": 6293,
      "Ġmort": 6294,
      "nav": 6295,
      "ATION": 6296,
      "................................": 6297,
      "ola": 6298,
      "Color": 6299,
      "ĠRights": 6300,
      "ĠLear": 6301,
      "ĠSil": 6302,
      "Ġplays": 6303,
      "ypes": 6304,
      "Ġfacilities": 6305,
      "From": 6306,
      "ubernetes": 6307,
      "Ġmir": 6308,
      "ĠSar": 6309,
      "arks": 6310,
      "ĠLove": 6311,
      "Ġsounds": 6312,
      "star": 6313,
      "ĠFood": 6314,
      "Ġlob": 6315,
      "Ġsupposed": 6316,
      "nNo": 6317,
      "ĠBack": 6318,
      "Ġissued": 6319,
      "ĠMedical": 6320,
      "evice": 6321,
      "strong": 6322,
      "ĠShow": 6323,
      "ĠNor": 6324,
      "Ġ32": 6325,
      "Ġgift": 6326,
      "Ġfinish": 6327,
      "ĠMel": 6328,
      "=\\\"../../": 6329,
      "Ġexplore": 6330,
      "Ġcombined": 6331,
      "ĠAff": 6332,
      "Ġhistorical": 6333,
      "Ġcritic": 6334,
      "yan": 6335,
      "ĠTre": 6336,
      "Ġsymmet": 6337,
      "Ġoperator": 6338,
      "Ġinternet": 6339,
      "ĠBrown": 6340,
      "Ġdiscussed": 6341,
      "ĠIT": 6342,
      "Ġvel": 6343,
      "ideos": 6344,
      "ĠArab": 6345,
      "Up": 6346,
      "Ġsufficient": 6347,
      "Ġdefend": 6348,
      "ĠMartin": 6349,
      "ĠFe": 6350,
      "Ġinvestigation": 6351,
      "Ġmanufacture": 6352,
      "Ġinterests": 6353,
      "Ġsignificantly": 6354,
      "Lambda": 6355,
      "ĠWindows": 6356,
      "dl": 6357,
      "Ġtechniques": 6358,
      "Ġswe": 6359,
      "Ġpool": 6360,
      "iples": 6361,
      "Ġhearing": 6362,
      "ĠRoyal": 6363,
      "pling": 6364,
      "EW": 6365,
      "Ġspin": 6366,
      "Ġsympt": 6367,
      "Ġproud": 6368,
      "Ġalle": 6369,
      "Ġvirtual": 6370,
      "which": 6371,
      "Ġer": 6372,
      "Ġbright": 6373,
      "ĠCath": 6374,
      "Ġserving": 6375,
      "ato": 6376,
      "Ġdepartment": 6377,
      "57": 6378,
      "ĠLog": 6379,
      "Ġneut": 6380,
      "ĠVis": 6381,
      "Ġfle": 6382,
      "Ġmanage": 6383,
      "Ġuniversity": 6384,
      "Ġlaunched": 6385,
      "ĠTable": 6386,
      "ĠAuthor": 6387,
      "prop": 6388,
      "Ġexecutive": 6389,
      "frastructure": 6390,
      "Ġarmy": 6391,
      "alian": 6392,
      "icians": 6393,
      "Ġ-->\\": 6394,
      "pload": 6395,
      "ading": 6396,
      "RI": 6397,
      "Ġap": 6398,
      "ĠEU": 6399,
      "Ġris": 6400,
      "ĠMount": 6401,
      "ĠJoe": 6402,
      "Ġfourth": 6403,
      "Ġlose": 6404,
      "58": 6405,
      "acle": 6406,
      "terest": 6407,
      "EX": 6408,
      "ĠRo": 6409,
      "Ġpure": 6410,
      "stract": 6411,
      "Ġvector": 6412,
      "Ġarticles": 6413,
      "Ġsecure": 6414,
      "iner": 6415,
      "ĠIll": 6416,
      "ĠHy": 6417,
      "ĠAcademy": 6418,
      "aks": 6419,
      "aked": 6420,
      "Ġclinical": 6421,
      "Ġwidth": 6422,
      "ĠTim": 6423,
      "Ġstanding": 6424,
      "Ġapproximately": 6425,
      "Ġton": 6426,
      "Ġextended": 6427,
      "Ġtun": 6428,
      "result": 6429,
      "ĠJo": 6430,
      "2014": 6431,
      "Ġnetworks": 6432,
      "ECT": 6433,
      "';\\": 6434,
      "Ġmanner": 6435,
      "ifications": 6436,
      "Ġpictures": 6437,
      "Ġkid": 6438,
      "ĠCup": 6439,
      "Ġvolunte": 6440,
      "inet": 6441,
      "Ġwine": 6442,
      "nSe": 6443,
      "Ġrelative": 6444,
      "vare": 6445,
      "ĠĠĠĠĠĠĠĠĠĠ": 6446,
      "Ġwilling": 6447,
      "Ġrelationships": 6448,
      "Ġran": 6449,
      "Ġpray": 6450,
      "{{\\\\": 6451,
      "Ġnine": 6452,
      "ĠLake": 6453,
      "osite": 6454,
      "Ġring": 6455,
      "Ġthoughts": 6456,
      "Ġexcited": 6457,
      "rep": 6458,
      "Ġagent": 6459,
      "Ġwalking": 6460,
      "Ġsnow": 6461,
      "ĠNetwork": 6462,
      "tabular": 6463,
      "Ġcraft": 6464,
      "ĠWall": 6465,
      "Ġ)\\": 6466,
      "ĠBern": 6467,
      "alax": 6468,
      "Ġvac": 6469,
      "Ġanimals": 6470,
      "omy": 6471,
      "nSince": 6472,
      "Ġremov": 6473,
      "resents": 6474,
      "ĠSenate": 6475,
      "okes": 6476,
      "Util": 6477,
      "iverse": 6478,
      "Ġresponsibility": 6479,
      "gs": 6480,
      "Ġfilms": 6481,
      "ĠJohnson": 6482,
      "Ġ2003": 6483,
      "CD": 6484,
      "rical": 6485,
      "Ġur": 6486,
      "Ġtables": 6487,
      "Ġju": 6488,
      "Ġspending": 6489,
      "Ġcorner": 6490,
      "ĠScholar": 6491,
      "itage": 6492,
      "elines": 6493,
      "gener": 6494,
      "ĠPan": 6495,
      "Ġdiss": 6496,
      "ĠSup": 6497,
      "Ġresolution": 6498,
      "System": 6499,
      "dot": 6500,
      "Ġnuclear": 6501,
      "Ġcommitted": 6502,
      "Ġremoved": 6503,
      "Ġsitting": 6504,
      "Ġmissing": 6505,
      "mand": 6506,
      "eah": 6507,
      "ensional": 6508,
      "Ġcorporate": 6509,
      "amental": 6510,
      "96": 6511,
      "ĠPri": 6512,
      "Ġmarg": 6513,
      "Ġdress": 6514,
      "')\\": 6515,
      "On": 6516,
      "Ġthrows": 6517,
      "Ġnone": 6518,
      "ĠLee": 6519,
      "Ġment": 6520,
      "ĠEnergy": 6521,
      "Ġstarts": 6522,
      "Ġreligious": 6523,
      "2013": 6524,
      "AY": 6525,
      "Ġtight": 6526,
      "ĠVict": 6527,
      "nst": 6528,
      "pay": 6529,
      "php": 6530,
      "phas": 6531,
      "Ġlab": 6532,
      "Ġconcerned": 6533,
      "Ġupper": 6534,
      "iable": 6535,
      "Ġamb": 6536,
      "Ġarrived": 6537,
      "omorph": 6538,
      "ĠPub": 6539,
      "Ġestate": 6540,
      "Ġexamples": 6541,
      "Ġstood": 6542,
      "Ġhousing": 6543,
      "Ġdiscovered": 6544,
      "fin": 6545,
      "Ġinterface": 6546,
      "Ġwitness": 6547,
      "Ġ|\\": 6548,
      "Ġax": 6549,
      "ĠInvest": 6550,
      "CA": 6551,
      "ĠJones": 6552,
      "Ġmotor": 6553,
      "Ed": 6554,
      "Ġdestroy": 6555,
      "Ġacademic": 6556,
      "bb": 6557,
      "ĠWater": 6558,
      "ĠHead": 6559,
      "ulty": 6560,
      "Ġdivid": 6561,
      "ĠBas": 6562,
      "lication": 6563,
      "ĠDen": 6564,
      "ressive": 6565,
      "Ġsharing": 6566,
      "Ġlisted": 6567,
      "FT": 6568,
      "Ġprofile": 6569,
      "sible": 6570,
      "ĠIslam": 6571,
      "PL": 6572,
      "hent": 6573,
      "Ġwinter": 6574,
      "alysis": 6575,
      "Ġphen": 6576,
      "ears": 6577,
      "ĠAmazon": 6578,
      "Ġbrings": 6579,
      "ĠToday": 6580,
      "Ġdriver": 6581,
      "Ġdetailed": 6582,
      "Override": 6583,
      "anges": 6584,
      "Ġfamiliar": 6585,
      "Count": 6586,
      "Ġreject": 6587,
      "ĠBuild": 6588,
      "Ġinjury": 6589,
      "Ġauthority": 6590,
      "Ġ...\\": 6591,
      "nfor": 6592,
      "Table": 6593,
      "ntax": 6594,
      "ĠMur": 6595,
      "method": 6596,
      "GB": 6597,
      "Ġmarriage": 6598,
      "Ġsettings": 6599,
      "kubernetes": 6600,
      "Ġfill": 6601,
      "Ġcoach": 6602,
      "google": 6603,
      "Ġvent": 6604,
      "Ġallowing": 6605,
      "Ġlinks": 6606,
      "Ġpayment": 6607,
      "Var": 6608,
      "Ġdomain": 6609,
      "ĠUse": 6610,
      "Ġquiet": 6611,
      "flow": 6612,
      "Ġpartnership": 6613,
      "kay": 6614,
      "Ġacknow": 6615,
      "Ġmur": 6616,
      "Ġprocessing": 6617,
      "textwidth": 6618,
      "uls": 6619,
      "open": 6620,
      "ni": 6621,
      "Ġmouth": 6622,
      "Ġstick": 6623,
      "Ġchemical": 6624,
      "ĠElect": 6625,
      "Ġking": 6626,
      "Ġaccompl": 6627,
      "Ġsand": 6628,
      "ura": 6629,
      "Ġevolution": 6630,
      "Ġreviews": 6631,
      "fol": 6632,
      "Ġdecide": 6633,
      "Ġcoast": 6634,
      "Ġpolitics": 6635,
      "nHowever": 6636,
      "citep": 6637,
      "Ġrevealed": 6638,
      "mond": 6639,
      "ĠStat": 6640,
      "ĠIns": 6641,
      "ĠAsia": 6642,
      "Ġmassive": 6643,
      "VER": 6644,
      "ĠBoth": 6645,
      "ĠStep": 6646,
      "Ġdefense": 6647,
      "Ġconfidence": 6648,
      "gers": 6649,
      "Ġexercise": 6650,
      "ĠMexico": 6651,
      "87": 6652,
      "Ġkill": 6653,
      "Ġfellow": 6654,
      "Ġforget": 6655,
      "Ġsister": 6656,
      "ĠFederal": 6657,
      "ĠEp": 6658,
      "ĠMiddle": 6659,
      "Ġconven": 6660,
      "auge": 6661,
      "spec": 6662,
      "ĠFre": 6663,
      "ella": 6664,
      "Ġconversation": 6665,
      "inem": 6666,
      "ĠCy": 6667,
      "Ġannounce": 6668,
      "coh": 6669,
      "Factory": 6670,
      "Ġdra": 6671,
      "eller": 6672,
      "Ġtests": 6673,
      "Ġminute": 6674,
      "Ġhero": 6675,
      "nThen": 6676,
      "Ġauthors": 6677,
      "gt": 6678,
      "atures": 6679,
      "Ġplants": 6680,
      "ĠStand": 6681,
      "Ġearn": 6682,
      "ASS": 6683,
      "Ġcommission": 6684,
      "Ġfort": 6685,
      "Ġcoffee": 6686,
      "Ġcrime": 6687,
      "iams": 6688,
      "ĠJim": 6689,
      "Net": 6690,
      "Ġadvanced": 6691,
      "Ġfurn": 6692,
      "ĠRoll": 6693,
      "Ġlots": 6694,
      "Ġshares": 6695,
      "Ġdemocr": 6696,
      "Response": 6697,
      "outs": 6698,
      "Ġarms": 6699,
      "Ġnoise": 6700,
      "Ġbehavi": 6701,
      "ĠAud": 6702,
      "Ġdiscover": 6703,
      "Ġasking": 6704,
      "Ġtells": 6705,
      "Ġisol": 6706,
      "ĠLiber": 6707,
      "Ġcompre": 6708,
      "Ġdatas": 6709,
      "Ġliqu": 6710,
      "Ġjustice": 6711,
      "Ġrid": 6712,
      "Ġrelation": 6713,
      "urban": 6714,
      "oln": 6715,
      "Ġpref": 6716,
      "uke": 6717,
      "fast": 6718,
      "nam": 6719,
      "isters": 6720,
      "Ġcaught": 6721,
      "Ġteacher": 6722,
      "ĠLic": 6723,
      "Ġchosen": 6724,
      "ĠOrgan": 6725,
      "Ġcloud": 6726,
      "ĠExp": 6727,
      "water": 6728,
      "Ġnarr": 6729,
      "iration": 6730,
      "\\\\]\\": 6731,
      "ĠFigure": 6732,
      "ĠWal": 6733,
      "ĠJapanese": 6734,
      "--------------------------------": 6735,
      "ĠView": 6736,
      "base": 6737,
      "ultural": 6738,
      "ĠColor": 6739,
      "Ġcandidate": 6740,
      "Ġcoverage": 6741,
      "Ġbelieved": 6742,
      "Ġsubsequ": 6743,
      "ridge": 6744,
      "ĠRE": 6745,
      "produ": 6746,
      "Ġcloser": 6747,
      "Ġpandemic": 6748,
      "Ġtelevision": 6749,
      "/\\\\": 6750,
      "Image": 6751,
      "Ġepisode": 6752,
      "Ġchain": 6753,
      "ĠTown": 6754,
      "}}{": 6755,
      "ĠDig": 6756,
      "Ġinstitutions": 6757,
      "SA": 6758,
      "war": 6759,
      "Ġsides": 6760,
      "agger": 6761,
      "Ġflex": 6762,
      "idential": 6763,
      "iveness": 6764,
      "Ġbuildings": 6765,
      "ĠItaly": 6766,
      "Ġcream": 6767,
      "Ġenem": 6768,
      "pet": 6769,
      "Ġestimated": 6770,
      "etime": 6771,
      "Ġmere": 6772,
      "Ġcontrast": 6773,
      "ributes": 6774,
      "ixture": 6775,
      "Ġpun": 6776,
      "Ġrepresents": 6777,
      "Ġadvoc": 6778,
      "56": 6779,
      "ĠLi": 6780,
      "Ġ\\\"\\\"": 6781,
      "ĠSeries": 6782,
      "law": 6783,
      "Ġformed": 6784,
      "inition": 6785,
      "antly": 6786,
      "Ġexperts": 6787,
      "ĠAdminist": 6788,
      "Ġlayer": 6789,
      "andon": 6790,
      "ĠEq": 6791,
      "nIs": 6792,
      "Ġindeed": 6793,
      "nabla": 6794,
      "Ġalgorithm": 6795,
      "72": 6796,
      "iture": 6797,
      "Ġcreation": 6798,
      "pass": 6799,
      "Client": 6800,
      "ĠTeam": 6801,
      "ĠId": 6802,
      "Ġ2001": 6803,
      "Ġdistinct": 6804,
      "Ġscientific": 6805,
      "oston": 6806,
      "db": 6807,
      "Ġcarbon": 6808,
      "Ġatmosp": 6809,
      "Ġadvent": 6810,
      "Ġaccounts": 6811,
      "ause": 6812,
      "Ġwelcome": 6813,
      "imately": 6814,
      "Ġputting": 6815,
      "west": 6816,
      "Ġspecifically": 6817,
      "Rec": 6818,
      "Ġwinning": 6819,
      "Ġmotiv": 6820,
      "Ġintended": 6821,
      "varepsilon": 6822,
      "Ġswitch": 6823,
      "92": 6824,
      "umin": 6825,
      "orters": 6826,
      "Ġaffected": 6827,
      "Ġratio": 6828,
      "Don": 6829,
      "]$": 6830,
      "bur": 6831,
      "creen": 6832,
      "ĠMrs": 6833,
      "Ġspaces": 6834,
      "Ġresulting": 6835,
      "Conn": 6836,
      "Ġaspects": 6837,
      "eper": 6838,
      "main": 6839,
      "vider": 6840,
      "âĢ²": 6841,
      "ployment": 6842,
      "ĠHor": 6843,
      "Ġworse": 6844,
      "Ġrepresentation": 6845,
      "den": 6846,
      "Ġsupporting": 6847,
      "Ġtradition": 6848,
      "nfunc": 6849,
      "ja": 6850,
      "Ġcomplic": 6851,
      "She": 6852,
      "ĠEll": 6853,
      "Ġreaders": 6854,
      "Ġdifferences": 6855,
      "ĠFire": 6856,
      "Ġrelax": 6857,
      "Ġsport": 6858,
      "contain": 6859,
      "Ġcentre": 6860,
      "ecutive": 6861,
      "Ġbroken": 6862,
      "ĠEnter": 6863,
      "Ġindustrial": 6864,
      "Ġwalked": 6865,
      "Ġbag": 6866,
      "Ġmale": 6867,
      "Ġgarden": 6868,
      "Ġrain": 6869,
      "At": 6870,
      "Ġelim": 6871,
      "ĠAustralian": 6872,
      "TM": 6873,
      "Ġcards": 6874,
      "Ass": 6875,
      "Ġaccident": 6876,
      "Ġdesire": 6877,
      "Ġchannel": 6878,
      "Ġtreated": 6879,
      "Ġresearchers": 6880,
      "det": 6881,
      "sing": 6882,
      "Ġemphas": 6883,
      "Ġorders": 6884,
      "Read": 6885,
      "Ġexternal": 6886,
      "Ġexistence": 6887,
      "Ġbringing": 6888,
      "ĠLast": 6889,
      "iated": 6890,
      "Ġcomfortable": 6891,
      "Ġmusical": 6892,
      "ĠEqu": 6893,
      "iano": 6894,
      "Ġregions": 6895,
      "Ġincreases": 6896,
      "Ġcommittee": 6897,
      "FA": 6898,
      "ĠIre": 6899,
      "Ġrelatively": 6900,
      "ilit": 6901,
      "ĠÃ©": 6902,
      "ĠOld": 6903,
      "Ġroot": 6904,
      "Ġcharges": 6905,
      "ĠNY": 6906,
      "Ġ2002": 6907,
      "Ġhonest": 6908,
      "Ġpossibly": 6909,
      "ocity": 6910,
      "arts": 6911,
      "Sub": 6912,
      "context": 6913,
      "ĠPolit": 6914,
      "cript": 6915,
      "ĠForce": 6916,
      "ĠSpring": 6917,
      "Ġgreatest": 6918,
      "Method": 6919,
      "incoln": 6920,
      "Ġauthorities": 6921,
      "fe": 6922,
      "ULL": 6923,
      "image": 6924,
      "Ġappearance": 6925,
      "ĠVirginia": 6926,
      "obe": 6927,
      "Ġinn": 6928,
      "opyright": 6929,
      "Ġfacility": 6930,
      "ĠRun": 6931,
      "nTr": 6932,
      "roller": 6933,
      "NN": 6934,
      "How": 6935,
      "ĠFestival": 6936,
      "Ġtypically": 6937,
      "acter": 6938,
      "Ġseconds": 6939,
      "Ġwa": 6940,
      "can": 6941,
      "Ġprobability": 6942,
      "Ġsight": 6943,
      "Ġsoul": 6944,
      "ĠDemocratic": 6945,
      "Ġequivalent": 6946,
      "rog": 6947,
      "low": 6948,
      "Ġdecor": 6949,
      "Ġgrew": 6950,
      "Ġrestaurant": 6951,
      "essions": 6952,
      "Ġusual": 6953,
      "uality": 6954,
      "ĠCard": 6955,
      "Ġexec": 6956,
      "ĠValley": 6957,
      "Ġfavour": 6958,
      "ĠCarolina": 6959,
      "Ġuncertain": 6960,
      "nAccording": 6961,
      "Ġconflict": 6962,
      "Ġrenew": 6963,
      "irds": 6964,
      ">(": 6965,
      "Ġtwenty": 6966,
      "Ġconducted": 6967,
      "ĠIP": 6968,
      "Ġagents": 6969,
      "Ġextends": 6970,
      "she": 6971,
      "Ġupdated": 6972,
      "osophy": 6973,
      "ogen": 6974,
      "Ġtelling": 6975,
      "Ġphotograph": 6976,
      "Ġreform": 6977,
      "ĠIndust": 6978,
      "59": 6979,
      "Ġcos": 6980,
      "igr": 6981,
      "razil": 6982,
      "Ġliterature": 6983,
      "person": 6984,
      "Ġwealth": 6985,
      "Ġfighting": 6986,
      "Ġspoke": 6987,
      "ĠMax": 6988,
      "ĠGame": 6989,
      "Ġalt": 6990,
      "Ġforth": 6991,
      "nto": 6992,
      "54": 6993,
      "Ġdust": 6994,
      "Ġforg": 6995,
      "Ġconsumer": 6996,
      "Ġwear": 6997,
      "Ġcrew": 6998,
      "Ġ37": 6999,
      "Ġrecip": 7000,
      "Ġdebate": 7001,
      "Ġ2023": 7002,
      "ih": 7003,
      "ye": 7004,
      "iser": 7005,
      "Ġsevere": 7006,
      "Ġconsidering": 7007,
      "nSome": 7008,
      "ĠBlue": 7009,
      "Ġdetect": 7010,
      "esterday": 7011,
      "anged": 7012,
      "ifies": 7013,
      "ĠLibrary": 7014,
      "Ġadults": 7015,
      "Ġassets": 7016,
      "prene": 7017,
      "edge": 7018,
      "Ġgather": 7019,
      "Ġlocations": 7020,
      "Ġmovies": 7021,
      "Ġimplementation": 7022,
      "Length": 7023,
      "Ġtow": 7024,
      "quare": 7025,
      "ĠTheorem": 7026,
      "nUn": 7027,
      "Ġconver": 7028,
      "ĠFurther": 7029,
      "ograp": 7030,
      "Ġsymptoms": 7031,
      "Ġfeels": 7032,
      ")^{": 7033,
      "Ġperspective": 7034,
      "Ġcriminal": 7035,
      "ĠFile": 7036,
      "Ġhighlight": 7037,
      "amin": 7038,
      "aret": 7039,
      "prise": 7040,
      "poration": 7041,
      "orders": 7042,
      "owed": 7043,
      "Ġsamples": 7044,
      "reprene": 7045,
      "}}(": 7046,
      "Ġtaught": 7047,
      "Ġinner": 7048,
      "ĠAli": 7049,
      "ounded": 7050,
      "merican": 7051,
      "Ġapproved": 7052,
      "ĠMedicine": 7053,
      "Ġingred": 7054,
      "ĠJesus": 7055,
      "Ġ__": 7056,
      "Ġabsor": 7057,
      "CR": 7058,
      "tic": 7059,
      "real": 7060,
      "Ġseat": 7061,
      "Ġnegot": 7062,
      "ĠCall": 7063,
      "lywood": 7064,
      "Ġpackage": 7065,
      "!\\\"\\": 7066,
      "Ġvillage": 7067,
      "ĠĠĠĠĠĠĠĠĠĠĠĠĠĠ": 7068,
      "Ġplot": 7069,
      "mic": 7070,
      "QL": 7071,
      "Ġturns": 7072,
      "ĠPo": 7073,
      "ĠCast": 7074,
      "oughly": 7075,
      "Ġemergency": 7076,
      "uing": 7077,
      "Ġfab": 7078,
      "plete": 7079,
      "********************************": 7080,
      "Ġmuseum": 7081,
      "Ġbutter": 7082,
      "Ġconsistent": 7083,
      "Ġsignal": 7084,
      "Ġends": 7085,
      "}),": 7086,
      "Ġrooms": 7087,
      "ĠWay": 7088,
      "Ġplenty": 7089,
      "define": 7090,
      "Ġentirely": 7091,
      "Query": 7092,
      "athan": 7093,
      "Ġforest": 7094,
      "inally": 7095,
      "omic": 7096,
      "Ġvehicles": 7097,
      "illy": 7098,
      "ifts": 7099,
      "Ġstructures": 7100,
      "Ġscheme": 7101,
      "hop": 7102,
      "ivered": 7103,
      "inds": 7104,
      "Ġsubsc": 7105,
      "lib": 7106,
      "isted": 7107,
      "ĠLight": 7108,
      "Ġroute": 7109,
      "ello": 7110,
      "ĠThanks": 7111,
      "nDe": 7112,
      "Â°": 7113,
      "Ġsplit": 7114,
      "Ġunderst": 7115,
      "ĠOnly": 7116,
      "Ġdepth": 7117,
      "dr": 7118,
      "iger": 7119,
      "ignment": 7120,
      "ĠProfessor": 7121,
      "52": 7122,
      "Ġemployee": 7123,
      "ĠCheck": 7124,
      "king": 7125,
      "orry": 7126,
      "Ġkick": 7127,
      "ocolate": 7128,
      "Ġabsolutely": 7129,
      "Ġdrugs": 7130,
      "Frame": 7131,
      "Ġchapter": 7132,
      "Ġattacks": 7133,
      "ancer": 7134,
      "abeth": 7135,
      "ĠYoung": 7136,
      "Ġerrors": 7137,
      "Default": 7138,
      "Task": 7139,
      "rome": 7140,
      "equiv": 7141,
      "Ġsimpl": 7142,
      "Ġsuggested": 7143,
      "86": 7144,
      "Ġcorrel": 7145,
      "Ġsubstant": 7146,
      "ĠCanadian": 7147,
      "Ġsalt": 7148,
      "}$.\\": 7149,
      "Ġanimal": 7150,
      "Ġexpressed": 7151,
      "cup": 7152,
      "Ġbegins": 7153,
      "ether": 7154,
      "ĠTO": 7155,
      "acific": 7156,
      "ĠVer": 7157,
      "Ġmatters": 7158,
      "ĠSupreme": 7159,
      "Ġpod": 7160,
      "ĠÂ·": 7161,
      "][": 7162,
      "ician": 7163,
      "ĠMen": 7164,
      "ĠPalestin": 7165,
      "Ġfont": 7166,
      "centering": 7167,
      "Bl": 7168,
      "Ġstable": 7169,
      "Ġextract": 7170,
      "ĠScot": 7171,
      "Ġbanks": 7172,
      "teen": 7173,
      "Ġbutton": 7174,
      "mid": 7175,
      "aph": 7176,
      "Ġpil": 7177,
      "Ġlibrary": 7178,
      "Ġexpensive": 7179,
      "Ġbeauty": 7180,
      "raq": 7181,
      "Ġstatements": 7182,
      "riz": 7183,
      "afe": 7184,
      "ĠCat": 7185,
      "Ġregul": 7186,
      "Ġaccommod": 7187,
      "Ġcircumstances": 7188,
      "Ġcauses": 7189,
      "acking": 7190,
      "Ġprotein": 7191,
      "Ġflight": 7192,
      "Ġterrit": 7193,
      "51": 7194,
      "zy": 7195,
      "ora": 7196,
      "Ġinfrastructure": 7197,
      "ls": 7198,
      "Ġplane": 7199,
      "Ġpp": 7200,
      "Ġauto": 7201,
      "Ġprocedure": 7202,
      "ĠSecretary": 7203,
      "Ġstd": 7204,
      "quar": 7205,
      "ĠJac": 7206,
      "Ġaccepted": 7207,
      "uable": 7208,
      "thlet": 7209,
      "93": 7210,
      "2012": 7211,
      "Ġteachers": 7212,
      "Ġcandidates": 7213,
      "Ġinspired": 7214,
      "73": 7215,
      "anche": 7216,
      "Ġsigns": 7217,
      "nCon": 7218,
      "Ġconfirmed": 7219,
      "Ġparticipants": 7220,
      "ensure": 7221,
      "101": 7222,
      "unting": 7223,
      "Dis": 7224,
      "noon": 7225,
      "ĠExper": 7226,
      "ĠJustice": 7227,
      ";</": 7228,
      "thon": 7229,
      "Ġvisitors": 7230,
      "}).": 7231,
      "heck": 7232,
      "ĠMake": 7233,
      "Ġteach": 7234,
      "Ġacid": 7235,
      "Ġcycle": 7236,
      "Ġadministr": 7237,
      "Ġfigures": 7238,
      "Ġdance": 7239,
      "ĠCH": 7240,
      "Ġordered": 7241,
      "Ġholiday": 7242,
      "Ġinstitution": 7243,
      "Ġshock": 7244,
      "Ġwheel": 7245,
      "Ġspecified": 7246,
      "pers": 7247,
      "Ġdraft": 7248,
      "ĠField": 7249,
      "ugin": 7250,
      "irms": 7251,
      "textit": 7252,
      "ĠReal": 7253,
      "ĠWhere": 7254,
      "oster": 7255,
      "MC": 7256,
      "ãģ": 7257,
      "icial": 7258,
      "Status": 7259,
      "Ġvideos": 7260,
      "Ġplanned": 7261,
      "Ġsky": 7262,
      "Ġpromote": 7263,
      "Ġremark": 7264,
      "Ġcere": 7265,
      "product": 7266,
      "Ġrecognized": 7267,
      "Ġrom": 7268,
      "Ġicon": 7269,
      "Ġvary": 7270,
      "Ġschedule": 7271,
      "ĠStudies": 7272,
      "AV": 7273,
      "Ġcharged": 7274,
      "Ġworry": 7275,
      "ĠChair": 7276,
      "Ġcoun": 7277,
      "Ġscript": 7278,
      "Ġstudio": 7279,
      "Ġtopic": 7280,
      "Ġmo": 7281,
      "Ġcomparison": 7282,
      "Ġ&\\": 7283,
      "}_\\\\": 7284,
      "Ġseeking": 7285,
      "Ġstret": 7286,
      "ĠBoy": 7287,
      "Ġbool": 7288,
      "Ġlatter": 7289,
      "small": 7290,
      "ĠSC": 7291,
      "ĠMa": 7292,
      "Ġconvert": 7293,
      "ĠAdv": 7294,
      "Ġdelay": 7295,
      ";&": 7296,
      "Ġregistered": 7297,
      "osc": 7298,
      "Ġoccasion": 7299,
      "Ġtwice": 7300,
      "ĠMuslim": 7301,
      "kl": 7302,
      "px": 7303,
      "Ġtaste": 7304,
      "ĠColl": 7305,
      "Ġmel": 7306,
      "ĠTour": 7307,
      "ĠItalian": 7308,
      "Ġexperiment": 7309,
      "Result": 7310,
      "Ġsuggests": 7311,
      "Ġtrig": 7312,
      "Ġinvolve": 7313,
      "ĠAD": 7314,
      "nInd": 7315,
      "94": 7316,
      "SI": 7317,
      "then": 7318,
      "Ġbon": 7319,
      "etary": 7320,
      "Ġdegrees": 7321,
      "ĠIreland": 7322,
      "Ġthread": 7323,
      "Ġfee": 7324,
      "Ġremained": 7325,
      "ĠBritain": 7326,
      "Ġdollars": 7327,
      "ĠFort": 7328,
      "Ġfiled": 7329,
      "subset": 7330,
      "Ġstudied": 7331,
      "ĠPolice": 7332,
      "Ġcontribution": 7333,
      "Ġsac": 7334,
      "Ġshel": 7335,
      "Ġfundamental": 7336,
      "erman": 7337,
      "LC": 7338,
      "Ġpulled": 7339,
      "Ġnod": 7340,
      "Ġstrict": 7341,
      "hered": 7342,
      "oria": 7343,
      "Ġbrow": 7344,
      "ĠLim": 7345,
      "height": 7346,
      "icken": 7347,
      "Ġentered": 7348,
      "84": 7349,
      "Ġfinite": 7350,
      "Ġexpansion": 7351,
      "ructions": 7352,
      "Ġestimate": 7353,
      "Model": 7354,
      "Ġnewsp": 7355,
      "astern": 7356,
      "Ġcomprehens": 7357,
      "Ġinteraction": 7358,
      "Ġimagine": 7359,
      "Ġfold": 7360,
      "ĠGar": 7361,
      "Ġspeaking": 7362,
      "lemma": 7363,
      "ĠDivision": 7364,
      "call": 7365,
      "Ġisland": 7366,
      "cat": 7367,
      "ĠExt": 7368,
      "ĠConference": 7369,
      "aylor": 7370,
      "ĠHaw": 7371,
      "{(": 7372,
      "ĠMike": 7373,
      "Ġgenerate": 7374,
      "tenance": 7375,
      "Ġimproved": 7376,
      "Ġhundreds": 7377,
      "PD": 7378,
      "Ġformal": 7379,
      "Ġbodies": 7380,
      "ĠNone": 7381,
      "EG": 7382,
      "Ġ&=": 7383,
      "Ġtechnologies": 7384,
      "Ġcro": 7385,
      "Ġnob": 7386,
      "ĠĠĠĠĠĠĠĠĠĠĠĠ": 7387,
      "ĠDevers": 7388,
      "ĠMaster": 7389,
      "Ġincident": 7390,
      "ba": 7391,
      "53": 7392,
      "TO": 7393,
      "len": 7394,
      "Ġmoments": 7395,
      "emplate": 7396,
      "ĠLincoln": 7397,
      "Ġdangerous": 7398,
      "BI": 7399,
      "Ġframework": 7400,
      "\\\\[\\": 7401,
      "Ġwedding": 7402,
      "ĠJewish": 7403,
      "clear": 7404,
      "Ġinvestors": 7405,
      "ipal": 7406,
      "Ġclaimed": 7407,
      "omin": 7408,
      "Ġcommitment": 7409,
      "Ġgoods": 7410,
      "ĠPhys": 7411,
      "forcement": 7412,
      "iral": 7413,
      "prod": 7414,
      "ĠRepublican": 7415,
      "Cur": 7416,
      "Ġcart": 7417,
      "apes": 7418,
      "Ġbought": 7419,
      "Ġmine": 7420,
      "ems": 7421,
      "ghan": 7422,
      "char": 7423,
      "Ġtheme": 7424,
      "Ġfrequency": 7425,
      "Ġsan": 7426,
      "ials": 7427,
      "ĠWilliams": 7428,
      "ĠHenry": 7429,
      "Ġenjoyed": 7430,
      "ansas": 7431,
      "Eng": 7432,
      "Ret": 7433,
      "Rep": 7434,
      "ĠWrit": 7435,
      "sole": 7436,
      "Ġobser": 7437,
      "Ġride": 7438,
      "Ġflag": 7439,
      "hire": 7440,
      "ĠCharl": 7441,
      "Ġtherapy": 7442,
      "lets": 7443,
      "aser": 7444,
      "uts": 7445,
      "arian": 7446,
      "nWhy": 7447,
      "amespace": 7448,
      "Ġreceiving": 7449,
      "ĠCL": 7450,
      "enced": 7451,
      "Ġpossibility": 7452,
      "Ġnative": 7453,
      "Ġdepending": 7454,
      "Ð¸": 7455,
      "elly": 7456,
      "emp": 7457,
      "ĠExecutive": 7458,
      "HS": 7459,
      "uous": 7460,
      "ensor": 7461,
      "ĠChris": 7462,
      "Ġletters": 7463,
      "nwith": 7464,
      "ĠCustom": 7465,
      "Ġvariables": 7466,
      "Reg": 7467,
      "Equals": 7468,
      "TC": 7469,
      "erves": 7470,
      "event": 7471,
      "nfrom": 7472,
      "Ġconsumers": 7473,
      "Ġinstrument": 7474,
      "door": 7475,
      "lik": 7476,
      "Ġrecovery": 7477,
      "Ġprofessionals": 7478,
      "RC": 7479,
      "ĠRoman": 7480,
      "Ġdecade": 7481,
      "Ġsolar": 7482,
      "Ġancient": 7483,
      "ads": 7484,
      "They": 7485,
      "ĠColumb": 7486,
      "}+": 7487,
      "ĠQueen": 7488,
      "Call": 7489,
      "ĠNOT": 7490,
      "Ġcontributions": 7491,
      "Ġreferred": 7492,
      "Ġneighborhood": 7493,
      ":\\\"": 7494,
      "Ġposts": 7495,
      "]\\\\": 7496,
      "css": 7497,
      "ĠClinton": 7498,
      "request": 7499,
      "Ġveter": 7500,
      "ibilities": 7501,
      "Ġstone": 7502,
      "Ġplastic": 7503,
      "Ġassistance": 7504,
      "Ġsad": 7505,
      "Ġmixed": 7506,
      "uting": 7507,
      "ĠCA": 7508,
      "agraph": 7509,
      "appro": 7510,
      "display": 7511,
      "TP": 7512,
      "Pr": 7513,
      "TD": 7514,
      "Ġpractical": 7515,
      "nAd": 7516,
      "Ġven": 7517,
      "ellect": 7518,
      "Ġ~": 7519,
      "Ġhall": 7520,
      "Ġkm": 7521,
      "Ġpregn": 7522,
      "Ġsubs": 7523,
      "lean": 7524,
      "sters": 7525,
      "izabeth": 7526,
      "ighter": 7527,
      "Ġfaster": 7528,
      "md": 7529,
      "teger": 7530,
      "}^\\\\": 7531,
      "Ġengineering": 7532,
      "ĠProte": 7533,
      "ospit": 7534,
      "ĠAwards": 7535,
      "Ġlift": 7536,
      "Ġuniform": 7537,
      "Ġsurgery": 7538,
      "Ġstores": 7539,
      "ĠOnline": 7540,
      "Home": 7541,
      "Ġhell": 7542,
      "Ġrevenue": 7543,
      "ĠCase": 7544,
      "Ġguests": 7545,
      "ensed": 7546,
      "EP": 7547,
      "Ġscholar": 7548,
      "oir": 7549,
      "ONT": 7550,
      "Ġexciting": 7551,
      "Ġourselves": 7552,
      "Ġstands": 7553,
      "Ġimpossible": 7554,
      "Ġimplic": 7555,
      "Ġinfo": 7556,
      "Ġsurprise": 7557,
      "82": 7558,
      "Â®": 7559,
      "ols": 7560,
      "ĠBoston": 7561,
      "Ġrail": 7562,
      "ollowing": 7563,
      "ĠAndrew": 7564,
      "ĠLook": 7565,
      "FI": 7566,
      "asters": 7567,
      "Ġteen": 7568,
      "nNot": 7569,
      "Ġdelivered": 7570,
      "una": 7571,
      "Ġ33": 7572,
      "Ġfees": 7573,
      "ircraft": 7574,
      "car": 7575,
      "Ġenhance": 7576,
      "anish": 7577,
      "ĠMap": 7578,
      "Ġguitar": 7579,
      "Ġ]": 7580,
      "merce": 7581,
      "Ġacts": 7582,
      "Ġeducational": 7583,
      "ĠMichigan": 7584,
      "aration": 7585,
      "ĠMov": 7586,
      "ĠAgain": 7587,
      "RS": 7588,
      "Ġsuit": 7589,
      "Ġfriendly": 7590,
      "append": 7591,
      "Ġ(-": 7592,
      "ĠIraq": 7593,
      "Ġfrag": 7594,
      "ione": 7595,
      "ĠNight": 7596,
      "Ġperman": 7597,
      "76": 7598,
      "va": 7599,
      "Ġselling": 7600,
      "AND": 7601,
      "ĠEnvironment": 7602,
      "Ġyes": 7603,
      "select": 7604,
      "Ġhappening": 7605,
      "Ġextent": 7606,
      "grade": 7607,
      "Ã±": 7608,
      "ĠCivil": 7609,
      "ĠPC": 7610,
      "Ġreader": 7611,
      "Ġvictory": 7612,
      "Ġslowly": 7613,
      "args": 7614,
      "ename": 7615,
      "Ġcooper": 7616,
      "Ġdatabase": 7617,
      "false": 7618,
      "ĪĴ": 7619,
      "Ġheav": 7620,
      "ĠMarket": 7621,
      "Ġpour": 7622,
      "ĠFed": 7623,
      "nNext": 7624,
      "ulner": 7625,
      "iana": 7626,
      "Ġboat": 7627,
      "acts": 7628,
      "Ġ300": 7629,
      "____": 7630,
      "Ġalleged": 7631,
      "ĠIss": 7632,
      "ĠLy": 7633,
      "ĠCode": 7634,
      "ĠSciences": 7635,
      "ĠFilm": 7636,
      "Ġrepresented": 7637,
      "ĠOly": 7638,
      "apped": 7639,
      "Ġguard": 7640,
      "bul": 7641,
      "ĠCross": 7642,
      "Ġrub": 7643,
      "oking": 7644,
      "ocument": 7645,
      "Ġconfirm": 7646,
      "Ġpatterns": 7647,
      "faces": 7648,
      "ĠIl": 7649,
      "Ġadm": 7650,
      "Ġcoal": 7651,
      "Ġoriginally": 7652,
      "enny": 7653,
      "Ġstrategies": 7654,
      "never": 7655,
      "Ġtrained": 7656,
      "Box": 7657,
      "Ġdirected": 7658,
      "Ġmilk": 7659,
      "True": 7660,
      "Ġfeedback": 7661,
      "So": 7662,
      "Ġscientists": 7663,
      "options": 7664,
      "Ġemotional": 7665,
      "Ġsick": 7666,
      "Ġgrav": 7667,
      "Ġ};\\": 7668,
      "Ġcrowd": 7669,
      "local": 7670,
      "Ġwire": 7671,
      "ĠJoseph": 7672,
      "Ġenable": 7673,
      "option": 7674,
      "Ġmagnetic": 7675,
      "ĠInstead": 7676,
      "rible": 7677,
      "encing": 7678,
      "Sp": 7679,
      "Ġdinner": 7680,
      "Ġadult": 7681,
      "ĠChildren": 7682,
      ")}\\\\": 7683,
      "Ġturning": 7684,
      "Date": 7685,
      "Ġlie": 7686,
      "Ġcolors": 7687,
      "holders": 7688,
      "à¥": 7689,
      "inch": 7690,
      "Ġphenomen": 7691,
      "rich": 7692,
      "zer": 7693,
      "ĠMS": 7694,
      "query": 7695,
      "Ġfruit": 7696,
      "Ġrein": 7697,
      "Ġhoriz": 7698,
      "Ġtrouble": 7699,
      "Ġfacing": 7700,
      "Ġdomestic": 7701,
      "ĠDisney": 7702,
      "ĠSom": 7703,
      "ĠHospital": 7704,
      "Ġrisks": 7705,
      "ĠĠĠĠĠĠĠĠĠĠĠĠĠĠĠĠĠĠĠĠĠĠĠĠĠĠĠĠĠĠĠ": 7706,
      "ĠProv": 7707,
      "Ġclosely": 7708,
      "Ġstorm": 7709,
      "ĠDev": 7710,
      "LS": 7711,
      "stra": 7712,
      "ĠBeach": 7713,
      "}=\\\\": 7714,
      "nwh": 7715,
      "scr": 7716,
      "ĠBrazil": 7717,
      ")=\\\\": 7718,
      "Ext": 7719,
      "Ġgod": 7720,
      "())": 7721,
      "ĠRest": 7722,
      "Ġfilter": 7723,
      "Ġfra": 7724,
      "Ġbes": 7725,
      "Ġmolec": 7726,
      "ql": 7727,
      "hem": 7728,
      "ĠBefore": 7729,
      "ells": 7730,
      "Ġworst": 7731,
      "Ġwest": 7732,
      "estion": 7733,
      "nQ": 7734,
      "Ġsuc": 7735,
      "ĠJun": 7736,
      "Ġmeat": 7737,
      "nPosted": 7738,
      "When": 7739,
      "Ġchoices": 7740,
      "Ġreasonable": 7741,
      "Ġreplace": 7742,
      "ĠUk": 7743,
      "Ġknowing": 7744,
      "ĠJackson": 7745,
      "bal": 7746,
      "iary": 7747,
      "Ġvast": 7748,
      "Ġproperly": 7749,
      "Ġfly": 7750,
      "ĠSign": 7751,
      "Ġabuse": 7752,
      "ffect": 7753,
      "ĠThrough": 7754,
      ")-": 7755,
      "Ġfasc": 7756,
      "Ġbuff": 7757,
      "Ġexplan": 7758,
      "Ġboys": 7759,
      ">&": 7760,
      "ĠLemma": 7761,
      "Ġ1990": 7762,
      "utch": 7763,
      "ERS": 7764,
      "Ġrecording": 7765,
      "Ġrealized": 7766,
      "###": 7767,
      "Ġgrown": 7768,
      "nclass": 7769,
      "Ġ{};\\": 7770,
      "ĠDonald": 7771,
      "Ġriver": 7772,
      "79": 7773,
      "onna": 7774,
      "Ġeffectively": 7775,
      "hus": 7776,
      "ĠPoint": 7777,
      "ensuremath": 7778,
      "Ġcontemporary": 7779,
      "Ġexplicit": 7780,
      "Ġregional": 7781,
      "ĠSpace": 7782,
      "nic": 7783,
      "Ġmand": 7784,
      "olt": 7785,
      "Ġdesk": 7786,
      "ĠWild": 7787,
      "Ġfacts": 7788,
      "ĠPay": 7789,
      "Ġspons": 7790,
      "Ġindepend": 7791,
      "Ġvariable": 7792,
      "Google": 7793,
      "range": 7794,
      "}|": 7795,
      "ãĥ": 7796,
      "null": 7797,
      "ĠAN": 7798,
      "Ġhousehold": 7799,
      "ĠĠĠĠĠĠĠĠĠĠĠĠĠĠĠĠĠ": 7800,
      "annels": 7801,
      "tical": 7802,
      "Ġdiverse": 7803,
      "Ġjudge": 7804,
      "Ġafternoon": 7805,
      "Ġexcess": 7806,
      "lishing": 7807,
      "Ġdepends": 7808,
      "Ġsoldiers": 7809,
      "IST": 7810,
      "Ġiron": 7811,
      "ĠTrust": 7812,
      "Ĥ¬": 7813,
      "Ġconfiguration": 7814,
      "rb": 7815,
      "Ġmeasured": 7816,
      "etch": 7817,
      "Ġpicked": 7818,
      "Ġstreets": 7819,
      "ĠAnother": 7820,
      "uzz": 7821,
      "Ġreput": 7822,
      "Ġprospect": 7823,
      "ographic": 7824,
      "Ġassessment": 7825,
      "ĠLittle": 7826,
      "ĠEX": 7827,
      "ĠKingdom": 7828,
      "Ġproved": 7829,
      "Ġacting": 7830,
      "unning": 7831,
      "nPre": 7832,
      "Ġ,\\": 7833,
      "Ġedition": 7834,
      "rot": 7835,
      "Ġsuccessfully": 7836,
      "rl": 7837,
      "ĠKen": 7838,
      "Ġefficiency": 7839,
      "Ġbusy": 7840,
      "Public": 7841,
      "Ġpointed": 7842,
      "Ġreplaced": 7843,
      "amm": 7844,
      "Ġhouses": 7845,
      "83": 7846,
      "ĠSports": 7847,
      "last": 7848,
      "Ġdiscl": 7849,
      "even": 7850,
      "2021": 7851,
      "Ġnarrow": 7852,
      "Ġspectrum": 7853,
      "has": 7854,
      "oral": 7855,
      "Ġwidely": 7856,
      ".}\\": 7857,
      "nal": 7858,
      "udes": 7859,
      ".;": 7860,
      "Ġachieved": 7861,
      "=\\\"../../../../": 7862,
      "}-": 7863,
      "arl": 7864,
      "Ġ36": 7865,
      "ĠJr": 7866,
      "Ġrepeated": 7867,
      "abb": 7868,
      "Ġunderstood": 7869,
      "Ġboost": 7870,
      "Ġevol": 7871,
      "Ġliquid": 7872,
      "adata": 7873,
      "Ġau": 7874,
      "ĠPR": 7875,
      "2011": 7876,
      "Hel": 7877,
      "mem": 7878,
      "ĠHon": 7879,
      "ĠNon": 7880,
      "nDo": 7881,
      "ALL": 7882,
      "asketball": 7883,
      "Ġsucceed": 7884,
      "tra": 7885,
      "ums": 7886,
      "Ġintelligence": 7887,
      "elle": 7888,
      "ĠVan": 7889,
      "uis": 7890,
      "umes": 7891,
      "FC": 7892,
      "Ġaid": 7893,
      "Ġstir": 7894,
      "akistan": 7895,
      "Ġagencies": 7896,
      "ĠGeorgia": 7897,
      "91": 7898,
      "nMr": 7899,
      "scope": 7900,
      "Builder": 7901,
      "eping": 7902,
      "Ġroles": 7903,
      "Ġworldwide": 7904,
      "Ġcourses": 7905,
      "Ġveget": 7906,
      "ometimes": 7907,
      "Handler": 7908,
      "ĠAccess": 7909,
      "ulating": 7910,
      "Ġmanif": 7911,
      "allel": 7912,
      "74": 7913,
      "Ġwalls": 7914,
      "Ġongoing": 7915,
      "Ġbeach": 7916,
      "Ġera": 7917,
      "ĠSouthern": 7918,
      "Ġcompens": 7919,
      "Ġemployment": 7920,
      "Ġtotally": 7921,
      "Ã¼": 7922,
      "endar": 7923,
      "Ġjoy": 7924,
      "Ġpoly": 7925,
      "ĠFour": 7926,
      "Ġaccel": 7927,
      "Act": 7928,
      "UB": 7929,
      "esome": 7930,
      "Ġunion": 7931,
      "kes": 7932,
      "ali": 7933,
      "process": 7934,
      "android": 7935,
      "Ġdepos": 7936,
      "anna": 7937,
      "ĠLab": 7938,
      "perties": 7939,
      "Ġrecommended": 7940,
      "Spec": 7941,
      "Ġpursu": 7942,
      "ez": 7943,
      "Ġlimits": 7944,
      "itan": 7945,
      "\\\\!": 7946,
      "Ġorient": 7947,
      "aws": 7948,
      "Ġ75": 7949,
      "Ġbigger": 7950,
      "Ġaccurate": 7951,
      "gate": 7952,
      "Ġarguments": 7953,
      "ĠDaniel": 7954,
      "hemat": 7955,
      "uling": 7956,
      "osa": 7957,
      "Ġreporting": 7958,
      "Ġlegislation": 7959,
      "nusing": 7960,
      "Ġconcert": 7961,
      "\\\"/": 7962,
      "ĠRight": 7963,
      "Ġextensive": 7964,
      "Ġlicense": 7965,
      "alo": 7966,
      "redit": 7967,
      "Ġowned": 7968,
      "Ġadvertising": 7969,
      "Ġshooting": 7970,
      "ĠCreat": 7971,
      "ĠAPI": 7972,
      "ĠPerson": 7973,
      "ĠLive": 7974,
      "Command": 7975,
      "Ġtypical": 7976,
      "arity": 7977,
      "find": 7978,
      "});\\": 7979,
      "Ġvo": 7980,
      "Fig": 7981,
      "ownt": 7982,
      "Ġmillions": 7983,
      "81": 7984,
      "oured": 7985,
      "ĠON": 7986,
      "ĠThose": 7987,
      "expected": 7988,
      "Page": 7989,
      "ĠHand": 7990,
      "you": 7991,
      "imer": 7992,
      "output": 7993,
      "Ġweapons": 7994,
      "Ġsin": 7995,
      "Ġapproaches": 7996,
      "Ġsurrounding": 7997,
      "TA": 7998,
      "Ġlaugh": 7999,
      "Ġadj": 8000,
      "ĠYes": 8001,
      "Ġwarn": 8002,
      "usal": 8003,
      "Ġrealize": 8004,
      "}^{(": 8005,
      "rieved": 8006,
      "yers": 8007,
      "Ġtasks": 8008,
      "Ġ()": 8009,
      "quir": 8010,
      "ĠEst": 8011,
      "ĠInit": 8012,
      "Ġregulations": 8013,
      "Ġsupports": 8014,
      "Ġscope": 8015,
      "Ġroof": 8016,
      "gypt": 8017,
      "ĠTy": 8018,
      "Wind": 8019,
      "inent": 8020,
      "ĠMatt": 8021,
      "Ġmanufacturing": 8022,
      "ĠCa": 8023,
      "})\\\\": 8024,
      "Ġcampus": 8025,
      "ĠSupp": 8026,
      "Ġ/*": 8027,
      "cohol": 8028,
      "nhttp": 8029,
      "ruption": 8030,
      "Ġpassing": 8031,
      "AME": 8032,
      "tvar": 8033,
      "ensus": 8034,
      "Ġevil": 8035,
      "Ġrecognition": 8036,
      "Ġprepare": 8037,
      "een": 8038,
      "Ġmail": 8039,
      "ador": 8040,
      "oked": 8041,
      "cit": 8042,
      "Ġtherm": 8043,
      "Ġhonor": 8044,
      "dir": 8045,
      "Ġ\\\\,\\\\": 8046,
      "ĠMicrosoft": 8047,
      "Ġunknown": 8048,
      "ĠIsraeli": 8049,
      "pg": 8050,
      "ĠPop": 8051,
      "ĠWatch": 8052,
      "Ġ1999": 8053,
      "Ġbread": 8054,
      "iders": 8055,
      "ĠLex": 8056,
      "Ġrose": 8057,
      "ĠKorea": 8058,
      "ĠAp": 8059,
      "ĠThank": 8060,
      "Wh": 8061,
      "acket": 8062,
      "Ġinsert": 8063,
      "ĠPhot": 8064,
      "Ġmeetings": 8065,
      "Ġtail": 8066,
      "Ġreaction": 8067,
      "=\\\"#": 8068,
      "Ġmodule": 8069,
      "ĠGuide": 8070,
      "300": 8071,
      "Ġinequ": 8072,
      "Ġscr": 8073,
      "ĠMic": 8074,
      "Ġincreasingly": 8075,
      "Ġtough": 8076,
      "Ġbrown": 8077,
      "ĠMarg": 8078,
      "ĠBiden": 8079,
      "Ġadvis": 8080,
      "ĠGuard": 8081,
      "Ġprocedures": 8082,
      "Ġvelocity": 8083,
      "ĠWalk": 8084,
      "istent": 8085,
      "Ġinvent": 8086,
      "nRe": 8087,
      "Ġ>>": 8088,
      "Ġhole": 8089,
      "ĠSupport": 8090,
      "ĠWin": 8091,
      "aped": 8092,
      "iously": 8093,
      "Ġhorse": 8094,
      "lights": 8095,
      "ĠModel": 8096,
      "Ġhidden": 8097,
      "Ġlies": 8098,
      "ĠAR": 8099,
      "Ġcontaining": 8100,
      "Ġflo": 8101,
      "Ġserves": 8102,
      "rance": 8103,
      "erent": 8104,
      "status": 8105,
      "ĠBit": 8106,
      "Ġ34": 8107,
      "sql": 8108,
      "Equal": 8109,
      "OK": 8110,
      "cs": 8111,
      "Ġfinds": 8112,
      "Em": 8113,
      "\\\\\\\\": 8114,
      "ĠRay": 8115,
      "author": 8116,
      "sin": 8117,
      "abil": 8118,
      "Ġagric": 8119,
      "ĠBru": 8120,
      "Ġregister": 8121,
      "matrix": 8122,
      "Ġprinciples": 8123,
      "Ġtor": 8124,
      "avirus": 8125,
      "Ġactor": 8126,
      "Ġextension": 8127,
      "Ġgender": 8128,
      "rooms": 8129,
      "Ġmixture": 8130,
      "Ġkinds": 8131,
      "Ġcapture": 8132,
      "Ġneither": 8133,
      "Ġtempl": 8134,
      "Ġhistoric": 8135,
      "Ġdispl": 8136,
      "Ġprotocol": 8137,
      "Ġbold": 8138,
      "ĠPract": 8139,
      "Ġanywhere": 8140,
      ")$.\\": 8141,
      "ĠSteve": 8142,
      "71": 8143,
      "Ġfeatured": 8144,
      "Ġneck": 8145,
      "plex": 8146,
      "ĠOlymp": 8147,
      "IO": 8148,
      "LA": 8149,
      "ĠMid": 8150,
      "project": 8151,
      "UE": 8152,
      "Ġped": 8153,
      "ĠTri": 8154,
      "Ġdropped": 8155,
      "PP": 8156,
      "ati": 8157,
      "search": 8158,
      "ĠFar": 8159,
      "Ġshad": 8160,
      "Ġboolean": 8161,
      "bound": 8162,
      "ĠCook": 8163,
      "ĠBul": 8164,
      "Ġ<<": 8165,
      "ĠKnow": 8166,
      "Ġunable": 8167,
      "intend": 8168,
      "issions": 8169,
      "Ġpaying": 8170,
      "ilipp": 8171,
      "Ġoccurred": 8172,
      "}$\\": 8173,
      "Su": 8174,
      "Ġpapers": 8175,
      "ĠNext": 8176,
      "aturally": 8177,
      "Ġbare": 8178,
      "Ġconscious": 8179,
      "Ġhelpful": 8180,
      "ERT": 8181,
      "uan": 8182,
      "Ġremote": 8183,
      "Ġsteel": 8184,
      "gent": 8185,
      "uer": 8186,
      "Ġfulf": 8187,
      "Ġmarked": 8188,
      "Ġillegal": 8189,
      "Ġdisappoint": 8190,
      "Ġwatched": 8191
    },
    "merges": [
      [
        "Ġ",
        "t"
      ],
      [
        "Ġ",
        "a"
      ],
      [
        "i",
        "n"
      ],
      [
        "h",
        "e"
      ],
      [
        "Ġ",
        "Ġ"
      ],
      [
        "r",
        "e"
      ],
      [
        "o",
        "n"
      ],
      [
        "e",
        "r"
      ],
      [
        "Ġt",
        "he"
      ],
      [
        "a",
        "t"
      ],
      [
        "Ġ",
        "s"
      ],
      [
        "o",
        "r"
      ],
      [
        "e",
        "n"
      ],
      [
        "Ġ",
        "w"
      ],
      [
        "i",
        "t"
      ],
      [
        "Ġ",
        "o"
      ],
      [
        "Ġ",
        "c"
      ],
      [
        "e",
        "s"
      ],
      [
        "i",
        "s"
      ],
      [
        "a",
        "n"
      ],
      [
        "a",
        "l"
      ],
      [
        "Ġ",
        "f"
      ],
      [
        "in",
        "g"
      ],
      [
        "e",
        "d"
      ],
      [
        "Ġ",
        "b"
      ],
      [
        "n",
        "d"
      ],
      [
        "Ġ",
        "p"
      ],
      [
        "a",
        "r"
      ],
      [
        "o",
        "u"
      ],
      [
        "Ġo",
        "f"
      ],
      [
        "Ġ",
        "in"
      ],
      [
        "Ġ",
        "m"
      ],
      [
        "Ġt",
        "o"
      ],
      [
        "i",
        "on"
      ],
      [
        "Ġa",
        "nd"
      ],
      [
        "i",
        "c"
      ],
      [
        "Ġ",
        "d"
      ],
      [
        "l",
        "e"
      ],
      [
        "ĠĠ",
        "ĠĠ"
      ],
      [
        "a",
        "s"
      ],
      [
        "\\",
        "\\"
      ],
      [
        "o",
        "m"
      ],
      [
        "Ġ",
        "h"
      ],
      [
        "Ġt",
        "h"
      ],
      [
        "en",
        "t"
      ],
      [
        "i",
        "l"
      ],
      [
        "\\",
        "\""
      ],
      [
        "s",
        "t"
      ],
      [
        "e",
        "l"
      ],
      [
        "e",
        "t"
      ],
      [
        "r",
        "o"
      ],
      [
        "c",
        "t"
      ],
      [
        "Ġ",
        "re"
      ],
      [
        "Ġ",
        "n"
      ],
      [
        "Ġ",
        "l"
      ],
      [
        ".",
        "\\"
      ],
      [
        "Ġ",
        "e"
      ],
      [
        "i",
        "d"
      ],
      [
        "Ġ",
        "T"
      ],
      [
        "Ġ",
        "S"
      ],
      [
        "Ġ",
        "g"
      ],
      [
        "v",
        "e"
      ],
      [
        "u",
        "t"
      ],
      [
        "o",
        "t"
      ],
      [
        "Ġ",
        "I"
      ],
      [
        "a",
        "m"
      ],
      [
        "o",
        "l"
      ],
      [
        "i",
        "g"
      ],
      [
        "i",
        "m"
      ],
      [
        "Ġ",
        "A"
      ],
      [
        "Ġ",
        "C"
      ],
      [
        "Ġ",
        "is"
      ],
      [
        "u",
        "r"
      ],
      [
        "a",
        "c"
      ],
      [
        "at",
        "ion"
      ],
      [
        "a",
        "d"
      ],
      [
        "Ġf",
        "or"
      ],
      [
        "l",
        "y"
      ],
      [
        "Ġ",
        "on"
      ],
      [
        "Ġb",
        "e"
      ],
      [
        "o",
        "w"
      ],
      [
        "u",
        "s"
      ],
      [
        "a",
        "y"
      ],
      [
        "v",
        "er"
      ],
      [
        "Ġ",
        "y"
      ],
      [
        "Ġth",
        "at"
      ],
      [
        "Ġs",
        "t"
      ],
      [
        "Ġ",
        "M"
      ],
      [
        "c",
        "e"
      ],
      [
        "it",
        "h"
      ],
      [
        "i",
        "r"
      ],
      [
        "c",
        "h"
      ],
      [
        "u",
        "l"
      ],
      [
        "s",
        "e"
      ],
      [
        "Ġ",
        "he"
      ],
      [
        "Ġ",
        "("
      ],
      [
        "ĠĠ",
        "Ġ"
      ],
      [
        "Ġw",
        "ith"
      ],
      [
        "u",
        "n"
      ],
      [
        "Ġ",
        "P"
      ],
      [
        "Ġ",
        "B"
      ],
      [
        "i",
        "f"
      ],
      [
        "Ġ",
        "it"
      ],
      [
        "t",
        "er"
      ],
      [
        "Ġa",
        "s"
      ],
      [
        "Ġy",
        "ou"
      ],
      [
        "'",
        "s"
      ],
      [
        "a",
        "g"
      ],
      [
        "e",
        "m"
      ],
      [
        "o",
        "d"
      ],
      [
        "ĠĠĠĠ",
        "ĠĠĠĠ"
      ],
      [
        "Ġa",
        "n"
      ],
      [
        "Ġa",
        "l"
      ],
      [
        "Ġw",
        "h"
      ],
      [
        "Ġc",
        "on"
      ],
      [
        "a",
        "b"
      ],
      [
        "Ġ",
        "1"
      ],
      [
        "r",
        "i"
      ],
      [
        "Ġ",
        "H"
      ],
      [
        "r",
        "a"
      ],
      [
        "u",
        "m"
      ],
      [
        "er",
        "s"
      ],
      [
        "il",
        "l"
      ],
      [
        "Ġ",
        "2"
      ],
      [
        "Ġ",
        "D"
      ],
      [
        "Ġw",
        "e"
      ],
      [
        "Ġp",
        "ro"
      ],
      [
        "at",
        "e"
      ],
      [
        "Ġ",
        "W"
      ],
      [
        "q",
        "u"
      ],
      [
        "Ġ",
        "F"
      ],
      [
        "is",
        "t"
      ],
      [
        "Ġ",
        "R"
      ],
      [
        "p",
        "p"
      ],
      [
        "es",
        "t"
      ],
      [
        "Ġ",
        "\\\\"
      ],
      [
        "t",
        "h"
      ],
      [
        "ĠT",
        "he"
      ],
      [
        "he",
        "r"
      ],
      [
        "an",
        "d"
      ],
      [
        "es",
        "s"
      ],
      [
        "h",
        "t"
      ],
      [
        "Ġ",
        "v"
      ],
      [
        "Ġ",
        "$"
      ],
      [
        "Ġa",
        "t"
      ],
      [
        "re",
        "s"
      ],
      [
        "Ġw",
        "as"
      ],
      [
        "Ġc",
        "om"
      ],
      [
        "Ġa",
        "re"
      ],
      [
        "k",
        "e"
      ],
      [
        "l",
        "d"
      ],
      [
        "o",
        "p"
      ],
      [
        "t",
        "e"
      ],
      [
        "Ġ",
        "L"
      ],
      [
        "e",
        "w"
      ],
      [
        "r",
        "om"
      ],
      [
        "o",
        "re"
      ],
      [
        "Ġd",
        "e"
      ],
      [
        "Ġ",
        "or"
      ],
      [
        "it",
        "y"
      ],
      [
        "Ġe",
        "x"
      ],
      [
        "Ġ",
        "N"
      ],
      [
        "o",
        "s"
      ],
      [
        "o",
        "c"
      ],
      [
        "Ġ",
        "E"
      ],
      [
        "e",
        "ct"
      ],
      [
        "en",
        "d"
      ],
      [
        "Ġ",
        "G"
      ],
      [
        "Ġ",
        "\\\""
      ],
      [
        "Ġ",
        "r"
      ],
      [
        "Ġh",
        "a"
      ],
      [
        "or",
        "t"
      ],
      [
        "a",
        "in"
      ],
      [
        "Ġb",
        "y"
      ],
      [
        "n",
        "t"
      ],
      [
        "m",
        "ent"
      ],
      [
        "i",
        "v"
      ],
      [
        "an",
        "t"
      ],
      [
        "ar",
        "t"
      ],
      [
        "Ġs",
        "e"
      ],
      [
        "Ġs",
        "u"
      ],
      [
        "i",
        "es"
      ],
      [
        "ig",
        "ht"
      ],
      [
        ";",
        "\\"
      ],
      [
        "Ġf",
        "rom"
      ],
      [
        "i",
        "ve"
      ],
      [
        ".",
        "."
      ],
      [
        "n",
        "T"
      ],
      [
        "Ġn",
        "ot"
      ],
      [
        "Ġth",
        "is"
      ],
      [
        "Ġs",
        "h"
      ],
      [
        "p",
        "t"
      ],
      [
        "al",
        "l"
      ],
      [
        "u",
        "st"
      ],
      [
        "ou",
        "r"
      ],
      [
        "0",
        "0"
      ],
      [
        "re",
        "d"
      ],
      [
        "u",
        "d"
      ],
      [
        "Ġc",
        "h"
      ],
      [
        "Ġha",
        "ve"
      ],
      [
        "}",
        "\\"
      ],
      [
        "Ġ",
        "J"
      ],
      [
        "Ġ",
        "O"
      ],
      [
        "Ġ",
        "u"
      ],
      [
        "i",
        "al"
      ],
      [
        "ar",
        "d"
      ],
      [
        "Ġ",
        "le"
      ],
      [
        "p",
        "e"
      ],
      [
        "ou",
        "ld"
      ],
      [
        "u",
        "re"
      ],
      [
        "g",
        "e"
      ],
      [
        "in",
        "e"
      ],
      [
        "Ġ",
        "us"
      ],
      [
        "Ġ",
        "{"
      ],
      [
        "ou",
        "t"
      ],
      [
        "ct",
        "ion"
      ],
      [
        "el",
        "l"
      ],
      [
        "p",
        "l"
      ],
      [
        "p",
        "er"
      ],
      [
        "r",
        "ou"
      ],
      [
        "ac",
        "k"
      ],
      [
        "x",
        "t"
      ],
      [
        "o",
        "g"
      ],
      [
        "ĠĠĠĠ",
        "ĠĠĠ"
      ],
      [
        "o",
        "st"
      ],
      [
        "e",
        "ar"
      ],
      [
        "om",
        "e"
      ],
      [
        "Ġ",
        "="
      ],
      [
        "Ġc",
        "an"
      ],
      [
        "Ġa",
        "b"
      ],
      [
        "o",
        "k"
      ],
      [
        "as",
        "s"
      ],
      [
        "a",
        "k"
      ],
      [
        "Ġw",
        "or"
      ],
      [
        "ag",
        "e"
      ],
      [
        "0",
        "1"
      ],
      [
        "as",
        "t"
      ],
      [
        "am",
        "e"
      ],
      [
        "at",
        "h"
      ],
      [
        "u",
        "b"
      ],
      [
        "f",
        "f"
      ],
      [
        "Ġc",
        "l"
      ],
      [
        "Ġ",
        "U"
      ],
      [
        "Ġ",
        "j"
      ],
      [
        "id",
        "e"
      ],
      [
        "Ġal",
        "l"
      ],
      [
        "Ġp",
        "l"
      ],
      [
        "ic",
        "h"
      ],
      [
        "â",
        "Ģ"
      ],
      [
        "i",
        "z"
      ],
      [
        "Ġ",
        "k"
      ],
      [
        "u",
        "e"
      ],
      [
        "Ġw",
        "ill"
      ],
      [
        "Ġh",
        "as"
      ],
      [
        "_",
        "{"
      ],
      [
        "Ġw",
        "he"
      ],
      [
        "an",
        "s"
      ],
      [
        "ic",
        "e"
      ],
      [
        "in",
        "d"
      ],
      [
        "ic",
        "al"
      ],
      [
        "at",
        "ed"
      ],
      [
        "a",
        "p"
      ],
      [
        "b",
        "er"
      ],
      [
        "on",
        "g"
      ],
      [
        "Ġh",
        "is"
      ],
      [
        "Ġt",
        "r"
      ],
      [
        "c",
        "l"
      ],
      [
        "Ġn",
        "e"
      ],
      [
        "ab",
        "le"
      ],
      [
        "nT",
        "he"
      ],
      [
        "ul",
        "t"
      ],
      [
        "t",
        "her"
      ],
      [
        "i",
        "p"
      ],
      [
        "Ġm",
        "e"
      ],
      [
        "it",
        "e"
      ],
      [
        "Ġd",
        "o"
      ],
      [
        "ar",
        "y"
      ],
      [
        "or",
        "m"
      ],
      [
        "Ġg",
        "o"
      ],
      [
        "Ġcom",
        "p"
      ],
      [
        "a",
        "re"
      ],
      [
        "Ġb",
        "ut"
      ],
      [
        "ion",
        "s"
      ],
      [
        "Ġa",
        "d"
      ],
      [
        "ĠI",
        "n"
      ],
      [
        "ou",
        "s"
      ],
      [
        "c",
        "c"
      ],
      [
        "g",
        "h"
      ],
      [
        "Ġ",
        "en"
      ],
      [
        "i",
        "a"
      ],
      [
        "im",
        "e"
      ],
      [
        "Ġ",
        "un"
      ],
      [
        "Ġo",
        "ut"
      ],
      [
        "ac",
        "e"
      ],
      [
        ")",
        "\\"
      ],
      [
        "e",
        "p"
      ],
      [
        "Ġ",
        "im"
      ],
      [
        "on",
        "e"
      ],
      [
        "Ġthe",
        "y"
      ],
      [
        "Ġ",
        "K"
      ],
      [
        "i",
        "e"
      ],
      [
        "n",
        "A"
      ],
      [
        "Ġre",
        "s"
      ],
      [
        "Ġthe",
        "ir"
      ],
      [
        "t",
        "o"
      ],
      [
        "o",
        "ok"
      ],
      [
        "'",
        "t"
      ],
      [
        "Ġyou",
        "r"
      ],
      [
        "ig",
        "n"
      ],
      [
        "a",
        "v"
      ],
      [
        "a",
        "ct"
      ],
      [
        ">",
        "\\"
      ],
      [
        "r",
        "y"
      ],
      [
        ")",
        ";\\"
      ],
      [
        "-",
        "-"
      ],
      [
        "ation",
        "s"
      ],
      [
        "Ġcon",
        "t"
      ],
      [
        "an",
        "ce"
      ],
      [
        "Ġu",
        "p"
      ],
      [
        "Ġwh",
        "ich"
      ],
      [
        "Ġon",
        "e"
      ],
      [
        "/",
        "/"
      ],
      [
        "i",
        "b"
      ],
      [
        "ĠS",
        "t"
      ],
      [
        "ĠT",
        "h"
      ],
      [
        "as",
        "e"
      ],
      [
        "*",
        "*"
      ],
      [
        "p",
        "h"
      ],
      [
        "n",
        "I"
      ],
      [
        "Ġm",
        "ore"
      ],
      [
        "te",
        "xt"
      ],
      [
        "i",
        "re"
      ],
      [
        "a",
        "ke"
      ],
      [
        "Ġs",
        "o"
      ],
      [
        "al",
        "ly"
      ],
      [
        "in",
        "t"
      ],
      [
        "Ġwh",
        "o"
      ],
      [
        "i",
        "le"
      ],
      [
        "ver",
        "y"
      ],
      [
        "Ġ2",
        "01"
      ],
      [
        "en",
        "ce"
      ],
      [
        "c",
        "on"
      ],
      [
        "p",
        "ort"
      ],
      [
        "d",
        "u"
      ],
      [
        "s",
        "o"
      ],
      [
        "Ġs",
        "a"
      ],
      [
        "Ġh",
        "ad"
      ],
      [
        "r",
        "u"
      ],
      [
        "or",
        "d"
      ],
      [
        "Ġ",
        "V"
      ],
      [
        "Ġhe",
        "r"
      ],
      [
        "Ġa",
        "pp"
      ],
      [
        "it",
        "ion"
      ],
      [
        "ac",
        "h"
      ],
      [
        "Ġ",
        "&"
      ],
      [
        "{",
        "\\\\"
      ],
      [
        "a",
        "il"
      ],
      [
        "Ġm",
        "an"
      ],
      [
        "ent",
        "s"
      ],
      [
        "en",
        "s"
      ],
      [
        "Ġ",
        "if"
      ],
      [
        "Ġa",
        "r"
      ],
      [
        "Ġab",
        "out"
      ],
      [
        "Ġwe",
        "re"
      ],
      [
        "an",
        "g"
      ],
      [
        "l",
        "ic"
      ],
      [
        "Ġ",
        "<"
      ],
      [
        "k",
        "s"
      ],
      [
        "ur",
        "n"
      ],
      [
        "Ġs",
        "p"
      ],
      [
        "f",
        "orm"
      ],
      [
        "Ġl",
        "i"
      ],
      [
        "Ġp",
        "er"
      ],
      [
        "Ġd",
        "is"
      ],
      [
        "Ġ",
        "qu"
      ],
      [
        "res",
        "s"
      ],
      [
        "Ġ",
        "3"
      ],
      [
        "l",
        "l"
      ],
      [
        "Ġ",
        "'"
      ],
      [
        "il",
        "d"
      ],
      [
        "ou",
        "nt"
      ],
      [
        "m",
        "ath"
      ],
      [
        "el",
        "y"
      ],
      [
        "o",
        "se"
      ],
      [
        "Ġ",
        "\\"
      ],
      [
        "er",
        "v"
      ],
      [
        "Ġn",
        "ew"
      ],
      [
        "e",
        "g"
      ],
      [
        "ĠC",
        "h"
      ],
      [
        "=",
        "\\\""
      ],
      [
        "Ġe",
        "v"
      ],
      [
        "or",
        "y"
      ],
      [
        "Ġ",
        "Y"
      ],
      [
        "Ġo",
        "ther"
      ],
      [
        "ow",
        "n"
      ],
      [
        ".",
        "\\\""
      ],
      [
        "re",
        "e"
      ],
      [
        "v",
        "el"
      ],
      [
        "Ġp",
        "art"
      ],
      [
        "Ġbe",
        "en"
      ],
      [
        "o",
        "b"
      ],
      [
        ",",
        "\\"
      ],
      [
        "Ġo",
        "ur"
      ],
      [
        "ay",
        "s"
      ],
      [
        "ou",
        "nd"
      ],
      [
        "Ġa",
        "g"
      ],
      [
        "n",
        "S"
      ],
      [
        "f",
        "t"
      ],
      [
        "Ġof",
        "f"
      ],
      [
        "Ġm",
        "y"
      ],
      [
        "e",
        "re"
      ],
      [
        "ar",
        "k"
      ],
      [
        "c",
        "om"
      ],
      [
        "or",
        "s"
      ],
      [
        "Ġt",
        "e"
      ],
      [
        "Ġal",
        "so"
      ],
      [
        "Ġy",
        "ear"
      ],
      [
        "ver",
        "s"
      ],
      [
        "Ġs",
        "c"
      ],
      [
        "Ġ$",
        "\\\\"
      ],
      [
        "re",
        "at"
      ],
      [
        "Ġ",
        "-"
      ],
      [
        "ĠĠĠĠĠĠĠĠ",
        "ĠĠĠ"
      ],
      [
        "Ġthe",
        "re"
      ],
      [
        "ing",
        "s"
      ],
      [
        "ro",
        "w"
      ],
      [
        "Ġ",
        "âĢ"
      ],
      [
        "Ġit",
        "s"
      ],
      [
        "n",
        "e"
      ],
      [
        "Ġt",
        "ime"
      ],
      [
        "o",
        "v"
      ],
      [
        "Ġw",
        "ould"
      ],
      [
        "o",
        "ve"
      ],
      [
        "ĠI",
        "t"
      ],
      [
        "Ġo",
        "ver"
      ],
      [
        "Ġan",
        "y"
      ],
      [
        "i",
        "an"
      ],
      [
        "Ġ1",
        "9"
      ],
      [
        "ol",
        "d"
      ],
      [
        "Ġ",
        "*"
      ],
      [
        "m",
        "er"
      ],
      [
        "Ġthe",
        "m"
      ],
      [
        "Ġwor",
        "k"
      ],
      [
        "Ġk",
        "n"
      ],
      [
        "is",
        "h"
      ],
      [
        "Ġp",
        "e"
      ],
      [
        "r",
        "ic"
      ],
      [
        "ir",
        "st"
      ],
      [
        "ol",
        "l"
      ],
      [
        "Ġ{",
        "\\"
      ],
      [
        "Ġwhe",
        "n"
      ],
      [
        "n",
        "W"
      ],
      [
        "<",
        "/"
      ],
      [
        "Ġs",
        "ome"
      ],
      [
        "us",
        "e"
      ],
      [
        "Ġs",
        "he"
      ],
      [
        "j",
        "ect"
      ],
      [
        "Ġp",
        "re"
      ],
      [
        "Ġg",
        "et"
      ],
      [
        "g",
        "et"
      ],
      [
        "Ġth",
        "an"
      ],
      [
        "Ġ",
        "ro"
      ],
      [
        "w",
        "o"
      ],
      [
        "Ġin",
        "to"
      ],
      [
        "r",
        "ing"
      ],
      [
        "nd",
        "er"
      ],
      [
        ")",
        ","
      ],
      [
        "Ġli",
        "ke"
      ],
      [
        "c",
        "es"
      ],
      [
        "ĠH",
        "e"
      ],
      [
        "at",
        "es"
      ],
      [
        "in",
        "k"
      ],
      [
        "Ġwh",
        "at"
      ],
      [
        "cl",
        "ud"
      ],
      [
        "Ġsa",
        "id"
      ],
      [
        "ad",
        "e"
      ],
      [
        "Ġn",
        "o"
      ],
      [
        "e",
        "f"
      ],
      [
        "r",
        "it"
      ],
      [
        "f",
        "ter"
      ],
      [
        "he",
        "d"
      ],
      [
        "w",
        "e"
      ],
      [
        "Ġ",
        "\""
      ],
      [
        "\"",
        ":"
      ],
      [
        "Ġ{",
        "\""
      ],
      [
        "c",
        "k"
      ],
      [
        "\"",
        "}"
      ],
      [
        "ic",
        "k"
      ],
      [
        "p",
        "s"
      ],
      [
        "l",
        "i"
      ],
      [
        "el",
        "f"
      ],
      [
        "Ġre",
        "c"
      ],
      [
        "Ġd",
        "es"
      ],
      [
        "m",
        "a"
      ],
      [
        "op",
        "le"
      ],
      [
        "Ġa",
        "cc"
      ],
      [
        "o",
        "y"
      ],
      [
        "on",
        "d"
      ],
      [
        "if",
        "f"
      ],
      [
        ")",
        "."
      ],
      [
        "i",
        "ew"
      ],
      [
        "re",
        "f"
      ],
      [
        "at",
        "er"
      ],
      [
        "Ġcom",
        "m"
      ],
      [
        "s",
        "p"
      ],
      [
        "u",
        "al"
      ],
      [
        "p",
        "le"
      ],
      [
        "n",
        "g"
      ],
      [
        "c",
        "a"
      ],
      [
        "}",
        "\\\\"
      ],
      [
        "er",
        "t"
      ],
      [
        "ter",
        "n"
      ],
      [
        "et",
        "h"
      ],
      [
        "i",
        "ous"
      ],
      [
        "Ġf",
        "irst"
      ],
      [
        "Ġj",
        "ust"
      ],
      [
        "Ġ",
        "4"
      ],
      [
        "on",
        "s"
      ],
      [
        "Ġ",
        "0"
      ],
      [
        "n",
        "C"
      ],
      [
        "o",
        "od"
      ],
      [
        "ig",
        "h"
      ],
      [
        "s",
        "s"
      ],
      [
        "Ġf",
        "e"
      ],
      [
        "}",
        "$"
      ],
      [
        "ub",
        "lic"
      ],
      [
        ",",
        "\\\""
      ],
      [
        "Ġin",
        "d"
      ],
      [
        "a",
        "w"
      ],
      [
        "ĠW",
        "e"
      ],
      [
        "ri",
        "b"
      ],
      [
        "^",
        "{"
      ],
      [
        "Ġpe",
        "ople"
      ],
      [
        "Ġb",
        "et"
      ],
      [
        "o",
        "ol"
      ],
      [
        "t",
        "y"
      ],
      [
        "n",
        "B"
      ],
      [
        "Ġh",
        "ow"
      ],
      [
        "pe",
        "c"
      ],
      [
        "Ġon",
        "ly"
      ],
      [
        "at",
        "a"
      ],
      [
        "is",
        "s"
      ],
      [
        "oc",
        "k"
      ],
      [
        "Ġt",
        "wo"
      ],
      [
        "Ġb",
        "l"
      ],
      [
        "r",
        "am"
      ],
      [
        "p",
        "ro"
      ],
      [
        "er",
        "m"
      ],
      [
        "Ġ",
        "5"
      ],
      [
        "Ġu",
        "nder"
      ],
      [
        "n",
        "ing"
      ],
      [
        "rou",
        "gh"
      ],
      [
        "Ġre",
        "t"
      ],
      [
        "ation",
        "al"
      ],
      [
        "n",
        "M"
      ],
      [
        "o",
        "int"
      ],
      [
        "en",
        "er"
      ],
      [
        "le",
        "ct"
      ],
      [
        "od",
        "e"
      ],
      [
        "Ġcl",
        "ass"
      ],
      [
        "Ġa",
        "m"
      ],
      [
        "ĠâĢ",
        "ĵ"
      ],
      [
        "c",
        "re"
      ],
      [
        "Ġcon",
        "s"
      ],
      [
        "Ġs",
        "y"
      ],
      [
        "Ġf",
        "l"
      ],
      [
        "Ġex",
        "p"
      ],
      [
        "rou",
        "nd"
      ],
      [
        "it",
        "ies"
      ],
      [
        "is",
        "e"
      ],
      [
        "Ġne",
        "ed"
      ],
      [
        "on",
        "t"
      ],
      [
        "l",
        "es"
      ],
      [
        "c",
        "ed"
      ],
      [
        "Ġh",
        "im"
      ],
      [
        "Ġas",
        "s"
      ],
      [
        "ul",
        "l"
      ],
      [
        "ic",
        "s"
      ],
      [
        "ĠĠĠĠĠĠĠĠ",
        "ĠĠĠĠĠĠĠĠ"
      ],
      [
        ".\\\"",
        "\\"
      ],
      [
        "ĠTh",
        "is"
      ],
      [
        "e",
        "x"
      ],
      [
        "ĠU",
        "n"
      ],
      [
        "ou",
        "gh"
      ],
      [
        "h",
        "at"
      ],
      [
        "Ġpro",
        "v"
      ],
      [
        "Ġa",
        "ct"
      ],
      [
        "Ġe",
        "m"
      ],
      [
        "t",
        "ing"
      ],
      [
        "Ġm",
        "ay"
      ],
      [
        "Ġb",
        "ack"
      ],
      [
        "n",
        "F"
      ],
      [
        "Ġad",
        "d"
      ],
      [
        "Ġs",
        "et"
      ],
      [
        "Ġat",
        "t"
      ],
      [
        "at",
        "ing"
      ],
      [
        "Ġm",
        "ost"
      ],
      [
        "Ġc",
        "o"
      ],
      [
        "Ġc",
        "ould"
      ],
      [
        "Ġkn",
        "ow"
      ],
      [
        "Ġd",
        "iff"
      ],
      [
        "id",
        "ent"
      ],
      [
        "Ġwhe",
        "re"
      ],
      [
        "Ġth",
        "rough"
      ],
      [
        "ot",
        "h"
      ],
      [
        "0",
        "2"
      ],
      [
        "Ġo",
        "b"
      ],
      [
        "n",
        "P"
[...]
