{
  "version": "1.0",
  "truncation": null,
  "padding": null,
  "added_tokens": [
    {
      "id": 0,
      "content": "<unk>",
      "single_word": false,
      "lstrip": false,
      "rstrip": false,
      "normalized": false,
      "special": true
    },
    {
      "id": 1,
      "content": "<s>",
      "single_word": false,
      "lstrip": false,
      "rstrip": false,
      "normalized": false,
      "special": true
    },
    {
      "id": 2,
      "content": "</s>",
      "single_word": false,
      "lstrip": false,
      "rstrip": false,
      "normalized": false,
      "special": true
    },
    {
      "id": 3,
      "content": "<user>",
      "single_word": false,
      "lstrip": false,
      "rstrip": false,
      "normalized": false,
      "special": true
    },
    {
      "id": 4,
      "content": "<assistant>",
      "single_word": false,
      "lstrip": false,
      "rstrip": false,
      "normalized": false,
      "special": true
    },
    {
      "id": 5,
      "content": "<pad>",
      "single_word": false,
      "lstrip": false,
      "rstrip": false,
      "normalized": false,
      "special": true
    },
    {
      "id": 6,
      "content": "<sentinel_0>",
      "single_word": false,
      "lstrip": false,
      "rstrip": false,
      "normalized": false,
      "special": true
    },
    {
      "id": 7,
      "content": "<sentinel_1>",
      "single_word": false,
      "lstrip": false,
      "rstrip": false,
      "normalized": false,
      "special": true
    },
    {
      "id": 8,
      "content": "<sentinel_2>",
      "single_word": false,
      "lstrip": false,
      "rstrip": false,
      "normalized": false,
      "special": true
    },
    {
      "id": 9,
      "content": "<sentinel_3>",
      "single_word": false,
      "lstrip": false,
      "rstrip": false,
      "normalized": false,
      "special": true
    },
    {
      "id": 10,
      "content": "<sentinel_4>",
      "single_word": false,
      "lstrip": false,
      "rstrip": false,
      "normalized": false,
      "special": true
    },
    {
      "id": 11,
      "content": "<sentinel_5>",
      "single_word": false,
      "lstrip": false,
      "rstrip": false,
      "normalized": false,
      "special": true
    },
    {
      "id": 12,
      "content": "<sentinel_6>",
      "single_word": false,
      "lstrip": false,
      "rstrip": false,
      "normalized": false,
      "special": true
    },
    {
      "id": 13,
      "content": "<sentinel_7>",
      "single_word": false,
      "lstrip": false,
      "rstrip": false,
      "normalized": false,
      "special": true
    },
    {
      "id": 14,
      "content": "<sentinel_8>",
      "single_word": false,
      "lstrip": false,
      "rstrip": false,
      "normalized": false,
      "special": true
    },
    {
      "id": 15,
      "content": "<sentinel_9>",
      "single_word": false,
      "lstrip": false,
      "rstrip": false,
      "normalized": false,
      "special": true
    },
    {
      "id": 16,
      "content": "<sentinel_10>",
      "single_word": false,
      "lstrip": false,
      "rstrip": false,
      "normalized": false,
      "special": true
    },
    {
      "id": 17,
      "content": "<sentinel_11>",
      "single_word": false,
      "lstrip": false,
      "rstrip": false,
      "normalized": false,
      "special": true
    },
    {
      "id": 18,
      "content": "<sentinel_12>",
      "single_word": false,
      "lstrip": false,
      "rstrip": false,
      "normalized": false,
      "special": true
    },
    {
      "id": 19,
      "content": "<sentinel_13>",
      "single_word": false,
      "lstrip": false,
      "rstrip": false,
      "normalized": false,
      "special": true
    },
    {
      "id": 20,
      "content": "<sentinel_14>",
      "single_word": false,
      "lstrip": false,
      "rstrip": false,
      "normalized": false,
      "special": true
    },
    {
      "id": 21,
      "content": "<sentinel_15>",
      "single_word": false,
      "lstrip": false,
      "rstrip": false,
      "normalized": false,
      "special": true
    },
    {
      "id": 22,
      "content": "<sentinel_16>",
      "single_word": false,
      "lstrip": false,
      "rstrip": false,
      "normalized": false,
      "special": true
    },
    {
      "id": 23,
      "content": "<sentinel_17>",
      "single_word": false,
      "lstrip": false,
      "rstrip": false,
      "normalized": false,
      "special": true
    },
    {
      "id": 24,
      "content": "<sentinel_18>",
      "single_word": false,
      "lstrip": false,
      "rstrip": false,
      "normalized": false,
      "special": true
    },
    {
      "id": 25,
      "content": "<sentinel_19>",
      "single_word": false,
      "lstrip": false,
      "rstrip": false,
      "normalized": false,
      "special": true
    },
    {
      "id": 26,
      "content": "<sentinel_20>",
      "single_word": false,
      "lstrip": false,
      "rstrip": false,
      "normalized": false,
      "special": true
    },
    {
      "id": 27,
      "content": "<sentinel_21>",
      "single_word": false,
      "lstrip": false,
      "rstrip": false,
      "normalized": false,
      "special": true
    },
    {
      "id": 28,
      "content": "<sentinel_22>",
      "single_word": false,
      "lstrip": false,
      "rstrip": false,
      "normalized": false,
      "special": true
    },
    {
      "id": 29,
      "content": "<sentinel_23>",
      "single_word": false,
      "lstrip": false,
      "rstrip": false,
      "normalized": false,
      "special": true
    },
    {
      "id": 30,
      "content": "<sentinel_24>",
      "single_word": false,
      "lstrip": false,
      "rstrip": false,
      "normalized": false,
      "special": true
    },
    {
      "id": 31,
      "content": "<sentinel_25>",
      "single_word": false,
      "lstrip": false,
      "rstrip": false,
      "normalized": false,
      "special": true
    },
    {
      "id": 32,
      "content": "<sentinel_26>",
      "single_word": false,
      "lstrip": false,
      "rstrip": false,
      "normalized": false,
      "special": true
    },
    {
      "id": 33,
      "content": "<sentinel_27>",
      "single_word": false,
      "lstrip": false,
      "rstrip": false,
      "normalized": false,
      "special": true
    },
    {
      "id": 34,
      "content": "<sentinel_28>",
      "single_word": false,
      "lstrip": false,
      "rstrip": false,
      "normalized": false,
      "special": true
    },
    {
      "id": 35,
      "content": "<sentinel_29>",
      "single_word": false,
      "lstrip": false,
      "rstrip": false,
      "normalized": false,
      "special": true
    },
    {
      "id": 36,
      "content": "<sentinel_30>",
      "single_word": false,
      "lstrip": false,
      "rstrip": false,
      "normalized": false,
      "special": true
    },
    {
      "id": 37,
      "content": "<sentinel_31>",
      "single_word": false,
      "lstrip": false,
      "rstrip": false,
      "normalized": false,
      "special": true
    },
    {
      "id": 38,
      "content": "<sentinel_32>",
      "single_word": false,
      "lstrip": false,
      "rstrip": false,
      "normalized": false,
      "special": true
    },
    {
      "id": 39,
      "content": "<sentinel_33>",
      "single_word": false,
      "lstrip": false,
      "rstrip": false,
      "normalized": false,
      "special": true
    },
    {
      "id": 40,
      "content": "<sentinel_34>",
      "single_word": false,
      "lstrip": false,
      "rstrip": false,
      "normalized": false,
      "special": true
    },
    {
      "id": 41,
      "content": "<sentinel_35>",
      "single_word": false,
      "lstrip": false,
      "rstrip": false,
      "normalized": false,
      "special": true
    },
    {
      "id": 42,
      "content": "<sentinel_36>",
      "single_word": false,
      "lstrip": false,
      "rstrip": false,
      "normalized": false,
      "special": true
    },
    {
      "id": 43,
      "content": "<sentinel_37>",
      "single_word": false,
      "lstrip": false,
      "rstrip": false,
      "normalized": false,
      "special": true
    },
    {
      "id": 44,
      "content": "<sentinel_38>",
      "single_word": false,
      "lstrip": false,
      "rstrip": false,
      "normalized": false,
      "special": true
    },
    {
      "id": 45,
      "content": "<sentinel_39>",
      "single_word": false,
      "lstrip": false,
      "rstrip": false,
      "normalized": false,
      "special": true
    },
    {
      "id": 46,
      "content": "<sentinel_40>",
      "single_word": false,
      "lstrip": false,
      "rstrip": false,
      "normalized": false,
      "special": true
    },
    {
      "id": 47,
      "content": "<sentinel_41>",
      "single_word": false,
      "lstrip": false,
      "rstrip": false,
      "normalized": false,
      "special": true
    },
    {
      "id": 48,
      "content": "<sentinel_42>",
      "single_word": false,
      "lstrip": false,
      "rstrip": false,
      "normalized": false,
      "special": true
    },
    {
      "id": 49,
      "content": "<sentinel_43>",
      "single_word": false,
      "lstrip": false,
      "rstrip": false,
      "normalized": false,
      "special": true
    },
    {
      "id": 50,
      "content": "<sentinel_44>",
      "single_word": false,
      "lstrip": false,
      "rstrip": false,
      "normalized": false,
      "special": true
    },
    {
      "id": 51,
      "content": "<sentinel_45>",
      "single_word": false,
      "lstrip": false,
      "rstrip": false,
      "normalized": false,
      "special": true
    },
    {
      "id": 52,
      "content": "<sentinel_46>",
      "single_word": false,
      "lstrip": false,
      "rstrip": false,
      "normalized": false,
      "special": true
    },
    {
      "id": 53,
      "content": "<sentinel_47>",
      "single_word": false,
      "lstrip": false,
      "rstrip": false,
      "normalized": false,
      "special": true
    },
    {
      "id": 54,
      "content": "<sentinel_48>",
      "single_word": false,
      "lstrip": false,
      "rstrip": false,
      "normalized": false,
      "special": true
    },
    {
      "id": 55,
      "content": "<sentinel_49>",
      "single_word": false,
      "lstrip": false,
      "rstrip": false,
      "normalized": false,
      "special": true
    },
    {
      "id": 56,
      "content": "<sentinel_50>",
      "single_word": false,
      "lstrip": false,
      "rstrip": false,
      "normalized": false,
      "special": true
    },
    {
      "id": 57,
      "content": "<sentinel_51>",
      "single_word": false,
      "lstrip": false,
      "rstrip": false,
      "normalized": false,
      "special": true
    },
    {
      "id": 58,
      "content": "<sentinel_52>",
      "single_word": false,
      "lstrip": false,
      "rstrip": false,
      "normalized": false,
      "special": true
    },
    {
      "id": 59,
      "content": "<sentinel_53>",
      "single_word": false,
      "lstrip": false,
      "rstrip": false,
      "normalized": false,
      "special": true
    },
    {
      "id": 60,
      "content": "<sentinel_54>",
      "single_word": false,
      "lstrip": false,
      "rstrip": false,
      "normalized": false,
      "special": true
    },
    {
      "id": 61,
      "content": "<sentinel_55>",
      "single_word": false,
      "lstrip": false,
      "rstrip": false,
      "normalized": false,
      "special": true
    },
    {
      "id": 62,
      "content": "<sentinel_56>",
      "single_word": false,
      "lstrip": false,
      "rstrip": false,
      "normalized": false,
      "special": true
    },
    {
      "id": 63,
      "content": "<sentinel_57>",
      "single_word": false,
      "lstrip": false,
      "rstrip": false,
      "normalized": false,
      "special": true
    },
    {
      "id": 64,
      "content": "<sentinel_58>",
      "single_word": false,
      "lstrip": false,
      "rstrip": false,
      "normalized": false,
      "special": true
    },
    {
      "id": 65,
      "content": "<sentinel_59>",
      "single_word": false,
      "lstrip": false,
      "rstrip": false,
      "normalized": false,
      "special": true
    },
    {
      "id": 66,
      "content": "<sentinel_60>",
      "single_word": false,
      "lstrip": false,
      "rstrip": false,
      "normalized": false,
      "special": true
    },
    {
      "id": 67,
      "content": "<sentinel_61>",
      "single_word": false,
      "lstrip": false,
      "rstrip": false,
      "normalized": false,
      "special": true
    },
    {
      "id": 68,
      "content": "<sentinel_62>",
      "single_word": false,
      "lstrip": false,
      "rstrip": false,
      "normalized": false,
      "special": true
    },
    {
      "id": 69,
      "content": "<sentinel_63>",
      "single_word": false,
      "lstrip": false,
      "rstrip": false,
      "normalized": false,
      "special": true
    },
    {
      "id": 70,
      "content": "<sentinel_64>",
      "single_word": false,
      "lstrip": false,
      "rstrip": false,
      "normalized": false,
      "special": true
    },
    {
      "id": 71,
      "content": "<sentinel_65>",
      "single_word": false,
      "lstrip": false,
      "rstrip": false,
      "normalized": false,
      "special": true
    },
    {
      "id": 72,
      "content": "<sentinel_66>",
      "single_word": false,
      "lstrip": false,
      "rstrip": false,
      "normalized": false,
      "special": true
    },
    {
      "id": 73,
      "content": "<sentinel_67>",
      "single_word": false,
      "lstrip": false,
      "rstrip": false,
      "normalized": false,
      "special": true
    },
    {
      "id": 74,
      "content": "<sentinel_68>",
      "single_word": false,
      "lstrip": false,
      "rstrip": false,
      "normalized": false,
      "special": true
    },
    {
      "id": 75,
      "content": "<sentinel_69>",
      "single_word": false,
      "lstrip": false,
      "rstrip": false,
      "normalized": false,
      "special": true
    },
    {
      "id": 76,
      "content": "<sentinel_70>",
      "single_word": false,
      "lstrip": false,
      "rstrip": false,
      "normalized": false,
      "special": true
    },
    {
      "id": 77,
      "content": "<sentinel_71>",
      "single_word": false,
      "lstrip": false,
      "rstrip": false,
      "normalized": false,
      "special": true
    },
    {
      "id": 78,
      "content": "<sentinel_72>",
      "single_word": false,
      "lstrip": false,
      "rstrip": false,
      "normalized": false,
      "special": true
    },
    {
      "id": 79,
      "content": "<sentinel_73>",
      "single_word": false,
      "lstrip": false,
      "rstrip": false,
      "normalized": false,
      "special": true
    },
    {
      "id": 80,
      "content": "<sentinel_74>",
      "single_word": false,
      "lstrip": false,
      "rstrip": false,
      "normalized": false,
      "special": true
    },
    {
      "id": 81,
      "content": "<sentinel_75>",
      "single_word": false,
      "lstrip": false,
      "rstrip": false,
      "normalized": false,
      "special": true
    },
    {
      "id": 82,
      "content": "<sentinel_76>",
      "single_word": false,
      "lstrip": false,
      "rstrip": false,
      "normalized": false,
      "special": true
    },
    {
      "id": 83,
      "content": "<sentinel_77>",
      "single_word": false,
      "lstrip": false,
      "rstrip": false,
      "normalized": false,
      "special": true
    },
    {
      "id": 84,
      "content": "<sentinel_78>",
      "single_word": false,
      "lstrip": false,
      "rstrip": false,
      "normalized": false,
      "special": true
    },
    {
      "id": 85,
      "content": "<sentinel_79>",
      "single_word": false,
      "lstrip": false,
      "rstrip": false,
      "normalized": false,
      "special": true
    },
    {
      "id": 86,
      "content": "<sentinel_80>",
      "single_word": false,
      "lstrip": false,
      "rstrip": false,
      "normalized": false,
      "special": true
    },
    {
      "id": 87,
      "content": "<sentinel_81>",
      "single_word": false,
      "lstrip": false,
      "rstrip": false,
      "normalized": false,
      "special": true
    },
    {
      "id": 88,
      "content": "<sentinel_82>",
      "single_word": false,
      "lstrip": false,
      "rstrip": false,
      "normalized": false,
      "special": true
    },
    {
      "id": 89,
      "content": "<sentinel_83>",
      "single_word": false,
      "lstrip": false,
      "rstrip": false,
      "normalized": false,
      "special": true
    },
    {
      "id": 90,
      "content": "<sentinel_84>",
      "single_word": false,
      "lstrip": false,
      "rstrip": false,
      "normalized": false,
      "special": true
    },
    {
      "id": 91,
      "content": "<sentinel_85>",
      "single_word": false,
      "lstrip": false,
      "rstrip": false,
      "normalized": false,
      "special": true
    },
    {
      "id": 92,
      "content": "<sentinel_86>",
      "single_word": false,
      "lstrip": false,
      "rstrip": false,
      "normalized": false,
      "special": true
    },
    {
      "id": 93,
      "content": "<sentinel_87>",
      "single_word": false,
      "lstrip": false,
      "rstrip": false,
      "normalized": false,
      "special": true
    },
    {
      "id": 94,
      "content": "<sentinel_88>",
      "single_word": false,
      "lstrip": false,
      "rstrip": false,
      "normalized": false,
      "special": true
    },
    {
      "id": 95,
      "content": "<sentinel_89>",
      "single_word": false,
      "lstrip": false,
      "rstrip": false,
      "normalized": false,
      "special": true
    },
    {
      "id": 96,
      "content": "<sentinel_90>",
      "single_word": false,
      "lstrip": false,
      "rstrip": false,
      "normalized": false,
      "special": true
    },
    {
      "id": 97,
      "content": "<sentinel_91>",
      "single_word": false,
      "lstrip": false,
      "rstrip": false,
      "normalized": false,
      "special": true
    },
    {
      "id": 98,
      "content": "<sentinel_92>",
      "single_word": false,
      "lstrip": false,
      "rstrip": false,
      "normalized": false,
      "special": true
    },
    {
      "id": 99,
      "content": "<sentinel_93>",
      "single_word": false,
      "lstrip": false,
      "rstrip": false,
      "normalized": false,
      "special": true
    },
    {
      "id": 100,
      "content": "<sentinel_94>",
      "single_word": false,
      "lstrip": false,
      "rstrip": false,
      "normalized": false,
      "special": true
    },
    {
      "id": 101,
      "content": "<sentinel_95>",
      "single_word": false,
      "lstrip": false,
      "rstrip": false,
      "normalized": false,
      "special": true
    },
    {
      "id": 102,
      "content": "<sentinel_96>",
      "single_word": false,
      "lstrip": false,
      "rstrip": false,
      "normalized": false,
      "special": true
    },
    {
      "id": 103,
      "content": "<sentinel_97>",
      "single_word": false,
      "lstrip": false,
      "rstrip": false,
      "normalized": false,
      "special": true
    },
    {
      "id": 104,
      "content": "<sentinel_98>",
      "single_word": false,
      "lstrip": false,
      "rstrip": false,
      "normalized": false,
      "special": true
    },
    {
      "id": 105,
      "content": "<sentinel_99>",
      "single_word": false,
      "lstrip": false,
      "rstrip": false,
      "normalized": false,
      "special": true
    }
  ],
  "normalizer": {
    "type": "Sequence",
    "normalizers": [
      {
        "type": "NFKC"
      },
      {
        "type": "Strip",
        "strip_left": true,
        "strip_right": true
      }
    ]
  },
  "pre_tokenizer": {
    "type": "ByteLevel",
    "add_prefix_space": true,
    "trim_offsets": true,
    "use_regex": true
  },
  "post_processor": null,
  "decoder": {
    "type": "ByteLevel",
    "add_prefix_space": true,
    "trim_offsets": true,
    "use_regex": true
  },
  "model": {
    "type": "BPE",
    "dropout": null,
    "unk_token": "<unk>",
    "continuing_subword_prefix": null,
    "end_of_word_suffix": null,
    "fuse_unk": false,
    "byte_fallback": false,
    "ignore_merges": false,
    "vocab": {
      "<unk>": 0,
      "<s>": 1,
      "</s>": 2,
      "<user>": 3,
      "<assistant>": 4,
      "<pad>": 5,
      "<sentinel_0>": 6,
      "<sentinel_1>": 7,
      "<sentinel_2>": 8,
      "<sentinel_3>": 9,
      "<sentinel_4>": 10,
      "<sentinel_5>": 11,
      "<sentinel_6>": 12,
      "<sentinel_7>": 13,
      "<sentinel_8>": 14,
      "<sentinel_9>": 15,
      "<sentinel_10>": 16,
      "<sentinel_11>": 17,
      "<sentinel_12>": 18,
      "<sentinel_13>": 19,
      "<sentinel_14>": 20,
      "<sentinel_15>": 21,
      "<sentinel_16>": 22,
      "<sentinel_17>": 23,
      "<sentinel_18>": 24,
      "<sentinel_19>": 25,
      "<sentinel_20>": 26,
      "<sentinel_21>": 27,
      "<sentinel_22>": 28,
      "<sentinel_23>": 29,
      "<sentinel_24>": 30,
      "<sentinel_25>": 31,
      "<sentinel_26>": 32,
      "<sentinel_27>": 33,
      "<sentinel_28>": 34,
      "<sentinel_29>": 35,
      "<sentinel_30>": 36,
      "<sentinel_31>": 37,
      "<sentinel_32>": 38,
      "<sentinel_33>": 39,
      "<sentinel_34>": 40,
      "<sentinel_35>": 41,
      "<sentinel_36>": 42,
      "<sentinel_37>": 43,
      "<sentinel_38>": 44,
      "<sentinel_39>": 45,
      "<sentinel_40>": 46,
      "<sentinel_41>": 47,
      "<sentinel_42>": 48,
      "<sentinel_43>": 49,
      "<sentinel_44>": 50,
      "<sentinel_45>": 51,
      "<sentinel_46>": 52,
      "<sentinel_47>": 53,
      "<sentinel_48>": 54,
      "<sentinel_49>": 55,
      "<sentinel_50>": 56,
      "<sentinel_51>": 57,
      "<sentinel_52>": 58,
      "<sentinel_53>": 59,
      "<sentinel_54>": 60,
      "<sentinel_55>": 61,
      "<sentinel_56>": 62,
      "<sentinel_57>": 63,
      "<sentinel_58>": 64,
      "<sentinel_59>": 65,
      "<sentinel_60>": 66,
      "<sentinel_61>": 67,
      "<sentinel_62>": 68,
      "<sentinel_63>": 69,
      "<sentinel_64>": 70,
      "<sentinel_65>": 71,
      "<sentinel_66>": 72,
      "<sentinel_67>": 73,
      "<sentinel_68>": 74,
      "<sentinel_69>": 75,
      "<sentinel_70>": 76,
      "<sentinel_71>": 77,
      "<sentinel_72>": 78,
      "<sentinel_73>": 79,
      "<sentinel_74>": 80,
      "<sentinel_75>": 81,
      "<sentinel_76>": 82,
      "<sentinel_77>": 83,
      "<sentinel_78>": 84,
      "<sentinel_79>": 85,
      "<sentinel_80>": 86,
      "<sentinel_81>": 87,
      "<sentinel_82>": 88,
      "<sentinel_83>": 89,
      "<sentinel_84>": 90,
      "<sentinel_85>": 91,
      "<sentinel_86>": 92,
      "<sentinel_87>": 93,
      "<sentinel_88>": 94,
      "<sentinel_89>": 95,
      "<sentinel_90>": 96,
      "<sentinel_91>": 97,
      "<sentinel_92>": 98,
      "<sentinel_93>": 99,
      "<sentinel_94>": 100,
      "<sentinel_95>": 101,
      "<sentinel_96>": 102,
      "<sentinel_97>": 103,
      "<sentinel_98>": 104,
      "<sentinel_99>": 105,
      "!": 106,
      "\"": 107,
      "#": 108,
      "$": 109,
      "%": 110,
      "&": 111,
      "'": 112,
      "(": 113,
      ")": 114,
      "*": 115,
      "+": 116,
      ",": 117,
      "-": 118,
      ".": 119,
      "/": 120,
      "0": 121,
      "1": 122,
      "2": 123,
      "3": 124,
      "4": 125,
      "5": 126,
      "6": 127,
      "7": 128,
      "8": 129,
      "9": 130,
      ":": 131,
      ";": 132,
      "<": 133,
      "=": 134,
      ">": 135,
      "?": 136,
      "@": 137,
      "A": 138,
      "B": 139,
      "C": 140,
      "D": 141,
      "E": 142,
      "F": 143,
      "G": 144,
      "H": 145,
      "I": 146,
      "J": 147,
      "K": 148,
      "L": 149,
      "M": 150,
      "N": 151,
      "O": 152,
      "P": 153,
      "Q": 154,
      "R": 155,
      "S": 156,
      "T": 157,
      "U": 158,
      "V": 159,
      "W": 160,
      "X": 161,
      "Y": 162,
      "Z": 163,
      "[": 164,
      "\\": 165,
      "]": 166,
      "^": 167,
      "_": 168,
      "`": 169,
      "a": 170,
      "b": 171,
      "c": 172,
      "d": 173,
      "e": 174,
      "f": 175,
      "g": 176,
      "h": 177,
      "i": 178,
      "j": 179,
      "k": 180,
      "l": 181,
      "m": 182,
      "n": 183,
      "o": 184,
      "p": 185,
      "q": 186,
      "r": 187,
      "s": 188,
      "t": 189,
      "u": 190,
      "v": 191,
      "w": 192,
      "x": 193,
      "y": 194,
      "z": 195,
      "{": 196,
      "|": 197,
      "}": 198,
      "~": 199,
      "¡": 200,
      "¢": 201,
      "£": 202,
      "¤": 203,
      "¥": 204,
      "¦": 205,
      "§": 206,
      "¨": 207,
      "©": 208,
      "ª": 209,
      "«": 210,
      "¬": 211,
      "®": 212,
      "¯": 213,
      "°": 214,
      "±": 215,
      "²": 216,
      "³": 217,
      "´": 218,
      "µ": 219,
      "¶": 220,
      "·": 221,
      "¸": 222,
      "¹": 223,
      "º": 224,
      "»": 225,
      "¼": 226,
      "½": 227,
      "¾": 228,
      "¿": 229,
      "Â": 230,
      "Ã": 231,
      "Ä": 232,
      "Å": 233,
      "Æ": 234,
      "Ç": 235,
      "È": 236,
      "É": 237,
      "Ê": 238,
      "Ë": 239,
      "Ì": 240,
      "Í": 241,
      "Î": 242,
      "Ï": 243,
      "Ð": 244,
      "Ñ": 245,
      "Ò": 246,
      "Ó": 247,
      "Ô": 248,
      "Õ": 249,
      "Ö": 250,
      "×": 251,
      "Ø": 252,
      "Ù": 253,
      "Ú": 254,
      "Û": 255,
      "Ü": 256,
      "Ý": 257,
      "Þ": 258,
      "ß": 259,
      "à": 260,
      "á": 261,
      "â": 262,
      "ã": 263,
      "ä": 264,
      "å": 265,
      "æ": 266,
      "ç": 267,
      "è": 268,
      "é": 269,
      "ê": 270,
      "ë": 271,
      "ì": 272,
      "í": 273,
      "î": 274,
      "ï": 275,
      "ð": 276,
      "ñ": 277,
      "ó": 278,
      "ô": 279,
      "Ġ": 280,
      "Ģ": 281,
      "ģ": 282,
      "Ĥ": 283,
      "ĥ": 284,
      "Ħ": 285,
      "ħ": 286,
      "Ĩ": 287,
      "ĩ": 288,
      "Ī": 289,
      "ī": 290,
      "Ĭ": 291,
      "ĭ": 292,
      "Į": 293,
      "į": 294,
      "İ": 295,
      "ı": 296,
      "Ĳ": 297,
      "ĳ": 298,
      "Ĵ": 299,
      "ĵ": 300,
      "Ķ": 301,
      "ķ": 302,
      "ĸ": 303,
      "Ĺ": 304,
      "ĺ": 305,
      "Ļ": 306,
      "ļ": 307,
      "Ľ": 308,
      "ľ": 309,
      "Ŀ": 310,
      "ŀ": 311,
      "Ł": 312,
      "ł": 313,
      "Ń": 314,
      "Ġt": 315,
      "Ġa": 316,
      "in": 317,
      "he": 318,
      "re": 319,
      "on": 320,
      "er": 321,
      "Ġthe": 322,
      "Ġs": 323,
      "at": 324,
      "or": 325,
      "en": 326,
      "Ġw": 327,
      "ĠĠ": 328,
      "Ġc": 329,
      "it": 330,
      "Ġo": 331,
      "an": 332,
      "es": 333,
      "is": 334,
      "Ġf": 335,
      "ing": 336,
      "al": 337,
      "Ġp": 338,
      "nd": 339,
      "Ġb": 340,
      "ed": 341,
      "ou": 342,
      "ar": 343,
      "Ġof": 344,
      "Ġin": 345,
      "Ġm": 346,
      "Ġto": 347,
      "Ġand": 348,
      "Ġd": 349,
      "ic": 350,
      "ion": 351,
      "le": 352,
      "as": 353,
      "om": 354,
      "Ġh": 355,
      "Ġth": 356,
      "ent": 357,
      "il": 358,
      ".\\": 359,
      "st": 360,
      "ro": 361,
      "el": 362,
      "Ġl": 363,
      "Ġre": 364,
      "ct": 365,
      "ĠĠĠĠ": 366,
      "et": 367,
      "Ġn": 368,
      "Ġe": 369,
      "ĠS": 370,
      "ĠT": 371,
      "ĠI": 372,
      "Ġg": 373,
      "ve": 374,
      "id": 375,
      "\\\"": 376,
      "ĠC": 377,
      "ut": 378,
      "ĠA": 379,
      "ot": 380,
      "ol": 381,
      "Ġis": 382,
      "am": 383,
      "im": 384,
      "ur": 385,
      "Ġfor": 386,
      "ig": 387,
      "Ġon": 388,
      "ly": 389,
      "ac": 390,
      "ad": 391,
      "ow": 392,
      "Ġbe": 393,
      "Ġy": 394,
      "ay": 395,
      "us": 396,
      "ation": 397,
      "ver": 398,
      "ĠM": 399,
      "Ġthat": 400,
      "Ġst": 401,
      "\\\\": 402,
      "ith": 403,
      "ir": 404,
      "ce": 405,
      "ch": 406,
      "ĠP": 407,
      "Ġyou": 408,
      "ĠB": 409,
      "Ġwith": 410,
      "ul": 411,
      "un": 412,
      "Ġhe": 413,
      "Ġ(": 414,
      "se": 415,
      "Ġit": 416,
      "ter": 417,
      "'s": 418,
      "Ġas": 419,
      "Ġan": 420,
      "Ġ1": 421,
      "if": 422,
      "Ġal": 423,
      "Ġ2": 424,
      "ag": 425,
      "em": 426,
      "Ġwh": 427,
      "ĠD": 428,
      "ĠH": 429,
      "ill": 430,
      "Ġcon": 431,
      "ers": 432,
      "ĠW": 433,
      "Ġpro": 434,
      "od": 435,
      "ra": 436,
      "ĠR": 437,
      "ĠF": 438,
      "ri": 439,
      "Ġwe": 440,
      "ab": 441,
      "est": 442,
      "ist": 443,
      "her": 444,
      "pp": 445,
      "ate": 446,
      "um": 447,
      "and": 448,
      "ĠThe": 449,
      "th": 450,
      "ess": 451,
      "Ġare": 452,
      "Ġcom": 453,
      "Ġv": 454,
      "ĠL": 455,
      "Ġat": 456,
      "ke": 457,
      "Ġde": 458,
      "op": 459,
      "ore": 460,
      "ew": 461,
      "ĠN": 462,
      "ld": 463,
      "qu": 464,
      "te": 465,
      "rom": 466,
      "Ġor": 467,
      "Ġwas": 468,
      "ĠE": 469,
      "ity": 470,
      "ĠG": 471,
      "res": 472,
      "igh": 473,
      "Ġex": 474,
      "os": 475,
      "Ġha": 476,
      "oc": 477,
      "Ġse": 478,
      "ment": 479,
      "ort": 480,
      "Ġr": 481,
      "ĠĠĠ": 482,
      "ant": 483,
      "Ġ\\\"": 484,
      "ain": 485,
      "Ġby": 486,
      "art": 487,
      "ĠĠĠĠĠĠĠĠ": 488,
      "ies": 489,
      "nt": 490,
      "iv": 491,
      "Ġsu": 492,
      "pe": 493,
      "Ġfrom": 494,
      "Ġ20": 495,
      "end": 496,
      "ive": 497,
      "nT": 498,
      "ĠJ": 499,
      "Ġthis": 500,
      "ust": 501,
      "ĠO": 502,
      "Ġhave": 503,
      "Ġnot": 504,
      "ud": 505,
      "Ġsh": 506,
      "ight": 507,
      "Ġch": 508,
      "all": 509,
      "our": 510,
      "Ġu": 511,
      "ard": 512,
      "red": 513,
      "Ġle": 514,
      "ial": 515,
      "ction": 516,
      "pt": 517,
      "Ġus": 518,
      "..": 519,
      "ear": 520,
      "ell": 521,
      "ould": 522,
      "ost": 523,
      "out": 524,
      "ge": 525,
      "Ġcan": 526,
      "Ġwor": 527,
      "og": 528,
      "ure": 529,
      "rou": 530,
      "ome": 531,
      "ine": 532,
      "Ġab": 533,
      "ack": 534,
      "ĠU": 535,
      "ok": 536,
      "gh": 537,
      "Ġpl": 538,
      "per": 539,
      "xt": 540,
      "pl": 541,
      "ak": 542,
      "00": 543,
      "ast": 544,
      "Ġwill": 545,
      "âĢ": 546,
      "Ġj": 547,
      "ich": 548,
      "ide": 549,
      "Ġhas": 550,
      "ff": 551,
      "Ġall": 552,
      "Ġk": 553,
      "Ġ$": 554,
      "Ġ{": 555,
      "ect": 556,
      "ber": 557,
      "age": 558,
      "Ġyour": 559,
      "ice": 560,
      "ally": 561,
      "ame": 562,
      "Ġne": 563,
      "Ġwhe": 564,
      "ated": 565,
      "ia": 566,
      "iz": 567,
      "Ġdo": 568,
      "ans": 569,
      "Ġtr": 570,
      "Ġcl": 571,
      "ie": 572,
      "ong": 573,
      "ass": 574,
      "Ġen": 575,
      "nThe": 576,
      "Ġgo": 577,
      "ther": 578,
      "are": 579,
      "ue": 580,
      "Ġad": 581,
      "ip": 582,
      "ub": 583,
      "ind": 584,
      "ĠIn": 585,
      "ĠK": 586,
      ";\\": 587,
      "able": 588,
      "nA": 589,
      "Ġbut": 590,
      "Ġcomp": 591,
      "Ġme": 592,
      "orm": 593,
      "cc": 594,
      "Ġhis": 595,
      "ous": 596,
      "ap": 597,
      "ary": 598,
      "ult": 599,
      "Ġim": 600,
      "cl": 601,
      "ime": 602,
      "Ġtheir": 603,
      "Ġun": 604,
      "Ġout": 605,
      "ĠSt": 606,
      "one": 607,
      "ook": 608,
      "Ġ201": 609,
      "'t": 610,
      "Ġthey": 611,
      "nI": 612,
      "ions": 613,
      "ĠÐ": 614,
      "Ġcont": 615,
      "act": 616,
      "ace": 617,
      "ite": 618,
      "Ġup": 619,
      "ĠTh": 620,
      "Ġmore": 621,
      "ance": 622,
      "Ġres": 623,
      "av": 624,
      "ib": 625,
      "Ġ\\\\": 626,
      "ry": 627,
      "ign": 628,
      "ake": 629,
      "ĠV": 630,
      "Ġone": 631,
      "ep": 632,
      "ire": 633,
      "Ġwhich": 634,
      "Ġso": 635,
      "ations": 636,
      "ical": 637,
      "so": 638,
      "very": 639,
      "Ġint": 640,
      "Ġwho": 641,
      "du": 642,
      "text": 643,
      "ase": 644,
      "ord": 645,
      "ach": 646,
      "Ġman": 647,
      "Ġapp": 648,
      "ence": 649,
      "Ġ=": 650,
      "Ġabout": 651,
      "ail": 652,
      "ĠCh": 653,
      "ents": 654,
      "ru": 655,
      "Ġwork": 656,
      "port": 657,
      "ile": 658,
      "Ġper": 659,
      "Ġqu": 660,
      "ĠY": 661,
      "Ġ3": 662,
      "Ġli": 663,
      "ĠâĢ": 664,
      "vel": 665,
      "Ġsa": 666,
      "ĠĠĠĠĠĠĠ": 667,
      "Ġte": 668,
      "form": 669,
      ")\\": 670,
      "Ġ-": 671,
      "ond": 672,
      "ount": 673,
      "Ġar": 674,
      "Ġnew": 675,
      "Ġdis": 676,
      "Ġour": 677,
      "ition": 678,
      "Ġ19": 679,
      "int": 680,
      "Ġmy": 681,
      "ll": 682,
      "ark": 683,
      "Ġyear": 684,
      "ress": 685,
      "ne": 686,
      "erv": 687,
      "Ġwere": 688,
      "Ð¾": 689,
      "ens": 690,
      "reat": 691,
      "Ġother": 692,
      "nS": 693,
      "Ġpart": 694,
      "Ġev": 695,
      "ose": 696,
      "ays": 697,
      "fe": 698,
      "ely": 699,
      "Ġalso": 700,
      "lic": 701,
      "ory": 702,
      "ang": 703,
      "own": 704,
      "Ġsp": 705,
      "ild": 706,
      "Ġher": 707,
      "}\\": 708,
      "Ġhad": 709,
      "Ġag": 710,
      "Ġbeen": 711,
      "ree": 712,
      "ob": 713,
      "ph": 714,
      "Ġif": 715,
      "ors": 716,
      "Ġoff": 717,
      "ov": 718,
      "Ð°": 719,
      "ren": 720,
      "vers": 721,
      "ath": 722,
      "ĠIt": 723,
      "\":": 724,
      "\"}": 725,
      "Ġ{\"": 726,
      "Ġ\"": 727,
      "ings": 728,
      "Ġsc": 729,
      "ove": 730,
      "ound": 731,
      "Ġtime": 732,
      "mer": 733,
      "ick": 734,
      "Ġits": 735,
      "Ġthere": 736,
      "Ġany": 737,
      "Ġrec": 738,
      "Ġpe": 739,
      "ian": 740,
      "Ġwould": 741,
      "Ġover": 742,
      "ish": 743,
      "nW": 744,
      "Ġthem": 745,
      "Ġ'": 746,
      "Ġsome": 747,
      "ink": 748,
      "Ġro": 749,
      "Ġkn": 750,
      "irst": 751,
      "Ġget": 752,
      ".\\\"": 753,
      "Ġwhen": 754,
      "Ġpre": 755,
      "ough": 756,
      "urn": 757,
      "ĠHe": 758,
      "Ġthan": 759,
      "Ġlike": 760,
      "use": 761,
      "20": 762,
      "oll": 763,
      "Ðµ": 764,
      "old": 765,
      "ec": 766,
      "Ġbec": 767,
      "Ġwhat": 768,
      "wo": 769,
      "ople": 770,
      "oy": 771,
      "ft": 772,
      "Ġacc": 773,
      "),": 774,
      "fter": 775,
      "Ġinto": 776,
      "nder": 777,
      "wn": 778,
      "ces": 779,
      "rit": 780,
      "Ð¸": 781,
      "ric": 782,
      "Ġdes": 783,
      "ons": 784,
      "ates": 785,
      "Ġ&": 786,
      "Ġ4": 787,
      "clud": 788,
      "Ġam": 789,
      "nC": 790,
      "Ġno": 791,
      "ck": 792,
      "ont": 793,
      "ade": 794,
      "ual": 795,
      "Ġcomm": 796,
      "ater": 797,
      ");\\": 798,
      "hed": 799,
      "--": 800,
      "Ġjust": 801,
      "ject": 802,
      "rough": 803,
      "tern": 804,
      "iew": 805,
      "Ġsaid": 806,
      "we": 807,
      "ĠâĢĵ": 808,
      "Ġspe": 809,
      "rent": 810,
      "Ġshe": 811,
      "Ġpeople": 812,
      "//": 813,
      "Ġfirst": 814,
      "ious": 815,
      "Ġfe": 816,
      "Ġhow": 817,
      "ood": 818,
      "Ġ5": 819,
      "amp": 820,
      "ool": 821,
      "Ġind": 822,
      "nB": 823,
      "get": 824,
      "com": 825,
      "ĠWe": 826,
      "ram": 827,
      "Ġneed": 828,
      ">\\": 829,
      "iss": 830,
      "nM": 831,
      "ĠUn": 832,
      "ational": 833,
      "ss": 834,
      "eth": 835,
      ").": 836,
      "ock": 837,
      "Ġ\\": 838,
      "aw": 839,
      "ning": 840,
      "tt": 841,
      "ef": 842,
      "Ð½": 843,
      "Ġbet": 844,
      "Ġonly": 845,
      "Ġprov": 846,
      "ert": 847,
      "ng": 848,
      "li": 849,
      "nP": 850,
      "lect": 851,
      "ific": 852,
      "ities": 853,
      "Ġunder": 854,
      "Ġbl": 855,
      "eg": 856,
      "Ġcons": 857,
      "Ġtwo": 858,
      "ause": 859,
      "ork": 860,
      "Ġadd": 861,
      "Ġact": 862,
      "Ġinclud": 863,
      "round": 864,
      "ÑĢ": 865,
      "Ġem": 866,
      "elf": 867,
      "Ġmay": 868,
      "ĠThis": 869,
      "Ġmost": 870,
      "ise": 871,
      ",\\\"": 872,
      "olog": 873,
      "les": 874,
      "row": 875,
      "ps": 876,
      "Ġ0": 877,
      "ata": 878,
      "cial": 879,
      "ced": 880,
      "ÑĤ": 881,
      "yst": 882,
      "erm": 883,
      "ating": 884,
      "=\\\"": 885,
      "ring": 886,
      "Ġthrough": 887,
      "Ġknow": 888,
      "rib": 889,
      "pect": 890,
      "hen": 891,
      "Ġco": 892,
      "nF": 893,
      "ek": 894,
      "Ġpr": 895,
      "oint": 896,
      "Ġstud": 897,
      "ident": 898,
      "Ġbu": 899,
      "ublic": 900,
      "itt": 901,
      "Ġinv": 902,
      "Ġafter": 903,
      "ĠĠĠĠĠĠĠĠĠĠĠ": 904,
      "Ġreg": 905,
      "Ġback": 906,
      "ĠCom": 907,
      "nH": 908,
      "Ġdif": 909,
      "?\\": 910,
      "_{": 911,
      "Ġimp": 912,
      "Ġfl": 913,
      "Ġatt": 914,
      "Ñģ": 915,
      "Ġass": 916,
      "pport": 917,
      "Ġthese": 918,
      "ics": 919,
      "oth": 920,
      "ener": 921,
      "ank": 922,
      "Ġcould": 923,
      "Ġyears": 924,
      "als": 925,
      "Ġwhere": 926,
      "</": 927,
      "Ġph": 928,
      "Ġwell": 929,
      "ife": 930,
      "ys": 931,
      "ased": 932,
      "ments": 933,
      "Ġrel": 934,
      "Ġhel": 935,
      "Ġmake": 936,
      "ward": 937,
      "Ġprodu": 938,
      "ict": 939,
      "ful": 940,
      "io": 941,
      "day": 942,
      "Ġevery": 943,
      "Ġlook": 944,
      "nD": 945,
      "Ð¾Ð": 946,
      "Ġserv": 947,
      "Ġinc": 948,
      "Ġset": 949,
      "Ã©": 950,
      "ange": 951,
      "ular": 952,
      "Ġcol": 953,
      "ility": 954,
      "cess": 955,
      "ily": 956,
      "Ġpos": 957,
      "ts": 958,
      "ystem": 959,
      "hat": 960,
      "uch": 961,
      "Ġplay": 962,
      "Ġret": 963,
      "any": 964,
      "Ġhim": 965,
      "Ġwant": 966,
      ".\"}": 967,
      "Ġuse": 968,
      "19": 969,
      "Ġ200": 970,
      "Ġrem": 971,
      "Ġ6": 972,
      "bs": 973,
      "arch": 974,
      "Ġsec": 975,
      "ull": 976,
      "Ġthen": 977,
      "ĠNew": 978,
      "hip": 979,
      "ited": 980,
      "ible": 981,
      "uring": 982,
      "und": 983,
      "Ġent": 984,
      "ative": 985,
      "fore": 986,
      ".\\\"\\": 987,
      "ures": 988,
      "Ġfin": 989,
      "Ġac": 990,
      "Ġmany": 991,
      "ient": 992,
      "ied": 993,
      "ty": 994,
      "Ġ{\\": 995,
      ":\\": 996,
      "ract": 997,
      "ĠPro": 998,
      "ement": 999,
      "Ġsuch": 1000,
      "Ġpol": 1001,
      "velop": 1002,
      "erson": 1003,
      "ower": 1004,
      "Ġway": 1005,
      "Ġvery": 1006,
      "Ġnow": 1007,
      "Ġtra": 1008,
      "ĠRe": 1009,
      "its": 1010,
      "ex": 1011,
      "ax": 1012,
      "iel": 1013,
      "ug": 1014,
      "ices": 1015,
      "Ġmod": 1016,
      "Ġsee": 1017,
      "riv": 1018,
      "ivers": 1019,
      "Ġhelp": 1020,
      "aking": 1021,
      "Ġshould": 1022,
      "iness": 1023,
      "Ġeven": 1024,
      "Ġdid": 1025,
      "up": 1026,
      "ting": 1027,
      "Ġpres": 1028,
      "Ġ*": 1029,
      "Ġexper": 1030,
      "ience": 1031,
      ",\\": 1032,
      "Ġke": 1033,
      "alth": 1034,
      "ues": 1035,
      "ĠAr": 1036,
      "Ġclass": 1037,
      "ble": 1038,
      "gan": 1039,
      "nO": 1040,
      "ĠAnd": 1041,
      "Ġshow": 1042,
      "Ġeff": 1043,
      "land": 1044,
      "Ġdec": 1045,
      "Ġinst": 1046,
      "Ġtrans": 1047,
      "Ġsm": 1048,
      "Ġright": 1049,
      "air": 1050,
      "hes": 1051,
      "Ġbecause": 1052,
      "ner": 1053,
      "Ġ10": 1054,
      "nR": 1055,
      "ash": 1056,
      "other": 1057,
      "Ġend": 1058,
      "chool": 1059,
      "cept": 1060,
      "ix": 1061,
      "pr": 1062,
      "cy": 1063,
      "Ġown": 1064,
      "ars": 1065,
      "au": 1066,
      "Ġ7": 1067,
      "Ġagain": 1068,
      "...": 1069,
      "Ġ<": 1070,
      "ution": 1071,
      "az": 1072,
      "ĠYou": 1073,
      "ĠDe": 1074,
      "ĠSe": 1075,
      "con": 1076,
      "Ġdiffe": 1077,
      "Ġdef": 1078,
      "Ġsub": 1079,
      "Ġinter": 1080,
      "Ġgood": 1081,
      "ah": 1082,
      "nIn": 1083,
      "ins": 1084,
      "nL": 1085,
      "10": 1086,
      "ode": 1087,
      "Ġstart": 1088,
      "ollow": 1089,
      "Ġloc": 1090,
      "Ġworld": 1091,
      "oun": 1092,
      "usiness": 1093,
      "Ġlong": 1094,
      "ale": 1095,
      "formation": 1096,
      "Ġgu": 1097,
      "ĠAl": 1098,
      "Ġbeing": 1099,
      "Ġhigh": 1100,
      "nN": 1101,
      "Ġthink": 1102,
      "Ġsur": 1103,
      "Ġrequ": 1104,
      "Ġcall": 1105,
      "Ġnum": 1106,
      "Ġgr": 1107,
      "Ġmuch": 1108,
      "irect": 1109,
      "ven": 1110,
      "Ġdon": 1111,
      "Ġ8": 1112,
      "Ġgreat": 1113,
      "!\\": 1114,
      "rest": 1115,
      "ctions": 1116,
      "Ġart": 1117,
      "alk": 1118,
      "ince": 1119,
      "ĠĠĠĠĠĠĠĠĠĠĠĠĠĠĠĠ": 1120,
      "The": 1121,
      "Ġmon": 1122,
      "Ġdown": 1123,
      "Ġins": 1124,
      "view": 1125,
      "Ġfam": 1126,
      "Ġ[": 1127,
      "ason": 1128,
      "'re": 1129,
      "ween": 1130,
      "ize": 1131,
      "ines": 1132,
      "Ġthose": 1133,
      "nE": 1134,
      "Ġmade": 1135,
      "ĠAn": 1136,
      "Ġform": 1137,
      "Ġdoes": 1138,
      "Ġcount": 1139,
      "let": 1140,
      "man": 1141,
      "meric": 1142,
      "Ġbel": 1143,
      "Ġdevelop": 1144,
      "Ġval": 1145,
      "ten": 1146,
      "imes": 1147,
      "Ġread": 1148,
      "Ġfun": 1149,
      "ield": 1150,
      "Ġfind": 1151,
      "atch": 1152,
      "Ġbefore": 1153,
      "ĠSh": 1154,
      "line": 1155,
      "Ġmem": 1156,
      "ives": 1157,
      "pen": 1158,
      "led": 1159,
      "Ġchar": 1160,
      "gram": 1161,
      "{\\\\": 1162,
      "Ġsystem": 1163,
      "Ġhere": 1164,
      "Ġmin": 1165,
      "Ġcur": 1166,
      "Ġsim": 1167,
      "chn": 1168,
      "Ġused": 1169,
      "Ġ9": 1170,
      "der": 1171,
      "Ġdet": 1172,
      "Ġbetween": 1173,
      "Ġdisc": 1174,
      "ages": 1175,
      "Ġlead": 1176,
      "uth": 1177,
      "ather": 1178,
      "Ġmed": 1179,
      "ism": 1180,
      "ave": 1181,
      "iet": 1182,
      "**": 1183,
      "Ġob": 1184,
      "Ġext": 1185,
      "Ġvar": 1186,
      "way": 1187,
      "Ġexp": 1188,
      "Ġser": 1189,
      "read": 1190,
      "Ġfollow": 1191,
      "ĠAs": 1192,
      "ton": 1193,
      "Ġed": 1194,
      "ouse": 1195,
      "Ġtake": 1196,
      "Ġpublic": 1197,
      "Ġinte": 1198,
      "oh": 1199,
      "Ġcar": 1200,
      "Ġbr": 1201,
      "Ġperson": 1202,
      "nTh": 1203,
      "Ġsom": 1204,
      "vern": 1205,
      "000": 1206,
      "Ġcre": 1207,
      "ually": 1208,
      "Ġsign": 1209,
      "Ġlast": 1210,
      "Ġday": 1211,
      "Ð»": 1212,
      "ets": 1213,
      "Ġra": 1214,
      "ists": 1215,
      "ern": 1216,
      "Ġeach": 1217,
      "Ġear": 1218,
      "Ġ$\\\\": 1219,
      "Ġav": 1220,
      "ĠFor": 1221,
      "Ġwhile": 1222,
      "Ġbest": 1223,
      "ology": 1224,
      "Ġlife": 1225,
      ".,": 1226,
      "uss": 1227,
      "els": 1228,
      "Ġdata": 1229,
      "orn": 1230,
      "Ġsupport": 1231,
      "Ġmark": 1232,
      "Ġrep": 1233,
      "ĠAmeric": 1234,
      "ute": 1235,
      "roup": 1236,
      "Ġ|": 1237,
      "arm": 1238,
      "Ġcommun": 1239,
      "ever": 1240,
      "Ġfil": 1241,
      "Ġche": 1242,
      "Ġstr": 1243,
      "Ġvis": 1244,
      "vent": 1245,
      "ĠBut": 1246,
      "Ġfound": 1247,
      "Ġsame": 1248,
      "ER": 1249,
      "Ġcour": 1250,
      "uc": 1251,
      "Ġel": 1252,
      "Ġgener": 1253,
      "ness": 1254,
      "ters": 1255,
      "ality": 1256,
      "Ġdifferent": 1257,
      "Ġhand": 1258,
      "Ġpoint": 1259,
      "Ġbusiness": 1260,
      "Ġinformation": 1261,
      "Ġ.": 1262,
      "Ġi": 1263,
      "Ġboth": 1264,
      "Ġbo": 1265,
      "Ġchild": 1266,
      "ĠCl": 1267,
      "Ġla": 1268,
      "the": 1269,
      "ĠSc": 1270,
      "ames": 1271,
      "iversity": 1272,
      "ier": 1273,
      "ized": 1274,
      "Ġresult": 1275,
      "ĠTr": 1276,
      "ĠIf": 1277,
      "ined": 1278,
      "oad": 1279,
      "Ġreturn": 1280,
      "....": 1281,
      "Ġweek": 1282,
      "akes": 1283,
      "ĠLe": 1284,
      "ital": 1285,
      "Ġ18": 1286,
      "Ġcor": 1287,
      "Ġaround": 1288,
      "ional": 1289,
      "ger": 1290,
      "Ġstill": 1291,
      "ple": 1292,
      "ĠĠĠĠĠ": 1293,
      "Ġthough": 1294,
      "ature": 1295,
      "ĠAd": 1296,
      "Ġgl": 1297,
      "ross": 1298,
      "Ġprovid": 1299,
      "ann": 1300,
      "Ġbook": 1301,
      "Ġhome": 1302,
      "Ġdel": 1303,
      "ants": 1304,
      "sc": 1305,
      "Ġteam": 1306,
      "Ġdist": 1307,
      "gy": 1308,
      "ral": 1309,
      "Ġcare": 1310,
      "to": 1311,
      "Ġthree": 1312,
      "Ġ}\\": 1313,
      "Ġdesign": 1314,
      "Ġcent": 1315,
      "'ve": 1316,
      "math": 1317,
      "Ðº": 1318,
      "ĠâĢĶ": 1319,
      "Ġty": 1320,
      "Ġlar": 1321,
      "aj": 1322,
      "'m": 1323,
      "ym": 1324,
      "âĢĶ": 1325,
      "ĠInd": 1326,
      "ww": 1327,
      "Ġappro": 1328,
      "ĠIs": 1329,
      "Ġreally": 1330,
      "ved": 1331,
      "Ġsol": 1332,
      "Ġimport": 1333,
      "Ġpartic": 1334,
      "ĠWh": 1335,
      "sp": 1336,
      "anc": 1337,
      "ruct": 1338,
      "ret": 1339,
      "ired": 1340,
      "ĠZ": 1341,
      "ik": 1342,
      "ien": 1343,
      "raph": 1344,
      "Ġdep": 1345,
      "Ġprogram": 1346,
      "ĠBl": 1347,
      "Ġsay": 1348,
      "nG": 1349,
      "Ġduring": 1350,
      "Ġprocess": 1351,
      "app": 1352,
      "ural": 1353,
      "ished": 1354,
      "Ġfact": 1355,
      "ĠQ": 1356,
      "12": 1357,
      "ared": 1358,
      "Ġsl": 1359,
      "Ġusing": 1360,
      "self": 1361,
      "St": 1362,
      "Ġref": 1363,
      "Ġgoing": 1364,
      "Ġrun": 1365,
      "oot": 1366,
      "Ġreport": 1367,
      "://": 1368,
      "atic": 1369,
      "bers": 1370,
      "Ñĥ": 1371,
      "Ġconf": 1372,
      "pro": 1373,
      "Ġcontin": 1374,
      "Ġest": 1375,
      "Ġpost": 1376,
      "Ġinf": 1377,
      "ption": 1378,
      "be": 1379,
      "ody": 1380,
      "Ġresp": 1381,
      "ying": 1382,
      "ision": 1383,
      "inal": 1384,
      "Ġcr": 1385,
      "ving": 1386,
      "sh": 1387,
      "Ġnumber": 1388,
      "ĠShe": 1389,
      ").\\": 1390,
      "Ġconst": 1391,
      "----": 1392,
      "ms": 1393,
      "}\\\\": 1394,
      "eng": 1395,
      "rence": 1396,
      "ator": 1397,
      "Ġcle": 1398,
      "ĠThey": 1399,
      "ĠFr": 1400,
      "cent": 1401,
      "Ġsoc": 1402,
      "illion": 1403,
      "__": 1404,
      "ering": 1405,
      "Ġreal": 1406,
      "Ġlist": 1407,
      "Ġplace": 1408,
      "Ġtechn": 1409,
      "Ġprof": 1410,
      "Ġiss": 1411,
      "Ġincluding": 1412,
      "ĠPh": 1413,
      "Ġpat": 1414,
      "of": 1415,
      "Ġschool": 1416,
      "ĠPl": 1417,
      "arn": 1418,
      "ways": 1419,
      "ĠCon": 1420,
      "Ġopen": 1421,
      "Ġwrit": 1422,
      "11": 1423,
      "Ġadv": 1424,
      "ina": 1425,
      "Ġ/": 1426,
      "Ġpass": 1427,
      "riend": 1428,
      "Ġbuild": 1429,
      "err": 1430,
      "br": 1431,
      "ON": 1432,
      "ĠEx": 1433,
      "ĠHow": 1434,
      "Ġpur": 1435,
      "Ġhealth": 1436,
      "Ġsecond": 1437,
      "IN": 1438,
      "Ġtop": 1439,
      "Ġsk": 1440,
      "Ġposs": 1441,
      "ma": 1442,
      "ining": 1443,
      "less": 1444,
      "lease": 1445,
      "ploy": 1446,
      "Ġorgan": 1447,
      "que": 1448,
      "Ġproduct": 1449,
      "Ġ12": 1450,
      "par": 1451,
      "Ġmain": 1452,
      "son": 1453,
      "Ġexpl": 1454,
      "Ġhapp": 1455,
      "Ġtoo": 1456,
      "rem": 1457,
      "rol": 1458,
      "Ġdirect": 1459,
      "ittle": 1460,
      "Ġmus": 1461,
      "ense": 1462,
      "ĠSp": 1463,
      "reen": 1464,
      "Ġeffect": 1465,
      "Ġinterest": 1466,
      "ccess": 1467,
      "iving": 1468,
      "Ġfew": 1469,
      "Ġperform": 1470,
      "\\\"\\": 1471,
      "work": 1472,
      "ref": 1473,
      "Ġmonth": 1474,
      "Ġproject": 1475,
      "ĠComm": 1476,
      "Ġlot": 1477,
      "ases": 1478,
      "Ġfr": 1479,
      "Ġmust": 1480,
      "ote": 1481,
      "...\\": 1482,
      "21": 1483,
      "Ġname": 1484,
      "rist": 1485,
      "Ġstate": 1486,
      "Ġsince": 1487,
      "over": 1488,
      "50": 1489,
      "yn": 1490,
      "Ġrest": 1491,
      "vernment": 1492,
      "lement": 1493,
      "Ġincre": 1494,
      "Ġpar": 1495,
      "ustom": 1496,
      "ething": 1497,
      "omen": 1498,
      "gg": 1499,
      "ron": 1500,
      "att": 1501,
      "Ġoper": 1502,
      "ĠThere": 1503,
      "mber": 1504,
      "stand": 1505,
      "nJ": 1506,
      "min": 1507,
      "ves": 1508,
      "Ġspec": 1509,
      "pos": 1510,
      "eb": 1511,
      "ox": 1512,
      "Ġcase": 1513,
      "Ġmov": 1514,
      "Ġstand": 1515,
      "Ġ+": 1516,
      "ery": 1517,
      "ĠCol": 1518,
      "Ġallow": 1519,
      "Ġagainst": 1520,
      "thing": 1521,
      "Ġsmall": 1522,
      "Ġinvest": 1523,
      "ĠUniversity": 1524,
      "ission": 1525,
      "Ġlaw": 1526,
      "Ġtest": 1527,
      "ential": 1528,
      "Ġplan": 1529,
      "Ġquest": 1530,
      "Ġanother": 1531,
      "Ð²": 1532,
      "Ġeas": 1533,
      "Ġcompany": 1534,
      "ember": 1535,
      "Ġtri": 1536,
      "Ġgame": 1537,
      "ailable": 1538,
      "Ġdi": 1539,
      "Ġhist": 1540,
      "nThis": 1541,
      "oss": 1542,
      "put": 1543,
      "Ġfamily": 1544,
      "18": 1545,
      "}$": 1546,
      "Ġz": 1547,
      "ĠTe": 1548,
      "gr": 1549,
      "Ġhead": 1550,
      "ĠUS": 1551,
      "Ġwithout": 1552,
      "ertain": 1553,
      "ior": 1554,
      "Ġdem": 1555,
      "ization": 1556,
      "uro": 1557,
      "Ġequ": 1558,
      "ĠRes": 1559,
      "Ġcome": 1560,
      "Ġrece": 1561,
      "'ll": 1562,
      "here": 1563,
      "Ġide": 1564,
      "Ġthings": 1565,
      "âĢĵ": 1566,
      "outh": 1567,
      "Ġcurrent": 1568,
      "ĠOn": 1569,
      "ered": 1570,
      "ately": 1571,
      "Ġnext": 1572,
      "ling": 1573,
      "^{": 1574,
      "In": 1575,
      "()": 1576,
      "ĠMar": 1577,
      "Ġpower": 1578,
      "Ġrese": 1579,
      "Ġleg": 1580,
      "Ġet": 1581,
      "ott": 1582,
      "ĠÂ": 1583,
      "ĠAll": 1584,
      "lection": 1585,
      "ically": 1586,
      "Ġsomething": 1587,
      "ĠBe": 1588,
      "AT": 1589,
      "ample": 1590,
      "Ġlevel": 1591,
      "med": 1592,
      "Ġproble": 1593,
      "Ġhum": 1594,
      "Ġ199": 1595,
      "Ġann": 1596,
      "\\\",": 1597,
      "ead": 1598,
      "isc": 1599,
      "Ġput": 1600,
      "orth": 1601,
      "ES": 1602,
      "30": 1603,
      "by": 1604,
      "ley": 1605,
      "Ġpop": 1606,
      "Ġbig": 1607,
      "ream": 1608,
      "ump": 1609,
      "uthor": 1610,
      "ohn": 1611,
      "Ġfeel": 1612,
      "Ġalways": 1613,
      "ains": 1614,
      "ird": 1615,
      "ised": 1616,
      "ury": 1617,
      "Ġbro": 1618,
      "ask": 1619,
      "Ġca": 1620,
      "Ġimportant": 1621,
      "Ġkeep": 1622,
      "Ġnever": 1623,
      "Ġlittle": 1624,
      "oci": 1625,
      "Ġmet": 1626,
      "Ġbetter": 1627,
      "Ġstat": 1628,
      "ĠĠĠĠĠĠĠĠĠĠĠĠĠĠĠ": 1629,
      "Ġmanag": 1630,
      "por": 1631,
      "iven": 1632,
      "ified": 1633,
      "Ġmat": 1634,
      "15": 1635,
      "Ġturn": 1636,
      "ĠOr": 1637,
      "ium": 1638,
      "Ġold": 1639,
      "Ġmight": 1640,
      "ivid": 1641,
      "16": 1642,
      "right": 1643,
      "ource": 1644,
      "iron": 1645,
      "ane": 1646,
      "Ġmarket": 1647,
      "uck": 1648,
      "ider": 1649,
      "Ġlove": 1650,
      "Ġavailable": 1651,
      "ethod": 1652,
      "ĠSo": 1653,
      "arent": 1654,
      "itions": 1655,
      "Ġ15": 1656,
      "Ġask": 1657,
      "22": 1658,
      "Ġpresent": 1659,
      "Ġlet": 1660,
      "Ġfree": 1661,
      "ĠCent": 1662,
      "AR": 1663,
      "ration": 1664,
      "une": 1665,
      "ories": 1666,
      "Ġgrow": 1667,
      "Ġ:": 1668,
      "ients": 1669,
      "conom": 1670,
      "ability": 1671,
      "Ġorder": 1672,
      "ray": 1673,
      "vious": 1674,
      "Ġcap": 1675,
      "Ġwithin": 1676,
      "ards": 1677,
      "Ġwater": 1678,
      "Ġseem": 1679,
      "Ġterm": 1680,
      "ument": 1681,
      "Ġrecord": 1682,
      "ively": 1683,
      "Ġexperience": 1684,
      "Ġview": 1685,
      "Ġgot": 1686,
      "ently": 1687,
      "Ġfour": 1688,
      "oid": 1689,
      "Ġsays": 1690,
      "Ġproper": 1691,
      "ries": 1692,
      "Ġbeh": 1693,
      "Ġprote": 1694,
      "Ġbelie": 1695,
      "ured": 1696,
      "ternational": 1697,
      "gin": 1698,
      "ived": 1699,
      "Ġbre": 1700,
      "Ġgroup": 1701,
      "ope": 1702,
      "lish": 1703,
      "ware": 1704,
      "Ġfac": 1705,
      "Ġpay": 1706,
      "enn": 1707,
      "omm": 1708,
      "Ġcost": 1709,
      "Ġless": 1710,
      "Ġaff": 1711,
      "Ġeng": 1712,
      "Ġchange": 1713,
      "ĠMay": 1714,
      "Ġes": 1715,
      "Ġservice": 1716,
      "acy": 1717,
      "Ġsing": 1718,
      "Ġfriend": 1719,
      "icle": 1720,
      "Ġsupp": 1721,
      "ency": 1722,
      "oor": 1723,
      "Ġfunction": 1724,
      "lex": 1725,
      "ĠTo": 1726,
      "Ġlocal": 1727,
      "Ġwin": 1728,
      "OR": 1729,
      "ots": 1730,
      "Ġfull": 1731,
      "Ġcustom": 1732,
      "ention": 1733,
      "ĠEng": 1734,
      "nWe": 1735,
      "Ġaccess": 1736,
      "til": 1737,
      "ney": 1738,
      "Ġhard": 1739,
      "Ġchang": 1740,
      "Ġprom": 1741,
      "ats": 1742,
      "ĠGo": 1743,
      "fr": 1744,
      "ta": 1745,
      "Ġable": 1746,
      "Ġ#": 1747,
      "14": 1748,
      "\\\">": 1749,
      "iety": 1750,
      "for": 1751,
      "ged": 1752,
      "ober": 1753,
      "17": 1754,
      "oney": 1755,
      "ush": 1756,
      "Ġnon": 1757,
      "Ġexpect": 1758,
      "Ñı": 1759,
      "Ġworking": 1760,
      "ination": 1761,
      "ably": 1762,
      "val": 1763,
      "ours": 1764,
      "ĠMan": 1765,
      "aim": 1766,
      "ained": 1767,
      "Ġsit": 1768,
      "Ġchildren": 1769,
      "aut": 1770,
      "AN": 1771,
      "Ġcho": 1772,
      "Ġcountry": 1773,
      "Ġstudents": 1774,
      "ĠCo": 1775,
      "Ġdays": 1776,
      "inc": 1777,
      "13": 1778,
      "Ġpract": 1779,
      "Ġprovide": 1780,
      "ajor": 1781,
      "ĠCan": 1782,
      "ĠThat": 1783,
      "Ġvalue": 1784,
      "ĠX": 1785,
      "Ð¼": 1786,
      "Ġaddition": 1787,
      "Ġsuccess": 1788,
      "Ġgovernment": 1789,
      "Ġ16": 1790,
      "nY": 1791,
      "Ġcond": 1792,
      "Ġoffic": 1793,
      "irc": 1794,
      "orld": 1795,
      "Ġarea": 1796,
      "(\\\\": 1797,
      "urs": 1798,
      "ĠAmerican": 1799,
      "de": 1800,
      "ising": 1801,
      "ocus": 1802,
      "ĠNo": 1803,
      "ĠCar": 1804,
      "Ġconc": 1805,
      "Ġmar": 1806,
      "Ġactiv": 1807,
      "ĠAm": 1808,
      "Ġgive": 1809,
      "eter": 1810,
      "nIt": 1811,
      "equ": 1812,
      "Ġstory": 1813,
      "Ġleft": 1814,
      "]\\": 1815,
      "ording": 1816,
      "Ġcharact": 1817,
      "ĠJan": 1818,
      "ister": 1819,
      "ĠJohn": 1820,
      "resent": 1821,
      "ĠChrist": 1822,
      "Ġmeet": 1823,
      "ene": 1824,
      "ai": 1825,
      "viron": 1826,
      "ateg": 1827,
      "Ġapplic": 1828,
      "aster": 1829,
      "Ġ//": 1830,
      "Ġevent": 1831,
      "Ġemploy": 1832,
      "ights": 1833,
      "ĠAt": 1834,
      "augh": 1835,
      "Ñĸ": 1836,
      "ST": 1837,
      "iting": 1838,
      "Ġsure": 1839,
      "ee": 1840,
      "isk": 1841,
      "uture": 1842,
      "Ġservices": 1843,
      "Ġspecial": 1844,
      "Ġindust": 1845,
      "Ġ@": 1846,
      "EN": 1847,
      "Ġdev": 1848,
      "nU": 1849,
      "ference": 1850,
      "Ġmusic": 1851,
      "Ð´": 1852,
      "set": 1853,
      "uly": 1854,
      "abel": 1855,
      "etwork": 1856,
      "Ġunderstand": 1857,
      "iver": 1858,
      "side": 1859,
      "Ġcommunity": 1860,
      "Ġsocial": 1861,
      "200": 1862,
      "Ġ17": 1863,
      "Ġline": 1864,
      "Ġanal": 1865,
      "Ġ30": 1866,
      "egin": 1867,
      "Ġresearch": 1868,
      "ending": 1869,
      "rop": 1870,
      "Ġelect": 1871,
      "ĠUnited": 1872,
      "Ġmaking": 1873,
      "ung": 1874,
      "org": 1875,
      "Ġnear": 1876,
      "}}": 1877,
      "Ġopt": 1878,
      "Ġ2018": 1879,
      "Ġtoday": 1880,
      "Ġmillion": 1881,
      "ole": 1882,
      "itive": 1883,
      "Ġpriv": 1884,
      "Ġbased": 1885,
      "Ġexc": 1886,
      "Ġmove": 1887,
      "Ġaut": 1888,
      "ID": 1889,
      "Ġword": 1890,
      "Ġalong": 1891,
      "Ġuntil": 1892,
      "Ġaway": 1893,
      "tr": 1894,
      "Ġcalled": 1895,
      "ulation": 1896,
      "yl": 1897,
      "ĠMed": 1898,
      "Ġ14": 1899,
      "idd": 1900,
      "Ġ2019": 1901,
      "ograph": 1902,
      "Ġpast": 1903,
      "ended": 1904,
      "lished": 1905,
      "Ġland": 1906,
      "Ġtalk": 1907,
      "Ġfollowing": 1908,
      "Ġocc": 1909,
      "pecial": 1910,
      "==": 1911,
      "Ġpolit": 1912,
      "Ġfund": 1913,
      "ĠRep": 1914,
      "Ġdesc": 1915,
      "Ġphot": 1916,
      "Ġwhy": 1917,
      "ourn": 1918,
      "ales": 1919,
      "Ġorig": 1920,
      "Ġself": 1921,
      "aff": 1922,
      "Ġmult": 1923,
      "ĠWith": 1924,
      "ows": 1925,
      "Ġjob": 1926,
      "ready": 1927,
      "osp": 1928,
      "ians": 1929,
      "ĠBr": 1930,
      "ĠSu": 1931,
      "not": 1932,
      "osed": 1933,
      "ĠFl": 1934,
      "Ġcourse": 1935,
      "rict": 1936,
      "Ġimpro": 1937,
      "(\\\"": 1938,
      "ances": 1939,
      "ĠPr": 1940,
      "Ġben": 1941,
      "raw": 1942,
      "yle": 1943,
      "veral": 1944,
      "Ġ11": 1945,
      "Ġve": 1946,
      "Ġpa": 1947,
      "rap": 1948,
      "Ġbas": 1949,
      "Ġident": 1950,
      "Ġfore": 1951,
      "Ġacross": 1952,
      "Ġmean": 1953,
      "Ġtoget": 1954,
      "Ġtogether": 1955,
      "icy": 1956,
      "duct": 1957,
      "Ġcreat": 1958,
      "alf": 1959,
      "Ġkind": 1960,
      "urity": 1961,
      "ĠEuro": 1962,
      "ttp": 1963,
      "ique": 1964,
      "ĠGr": 1965,
      "Ġlarge": 1966,
      "ĠWhat": 1967,
      "Ġmil": 1968,
      "ividual": 1969,
      "Ġ13": 1970,
      "aces": 1971,
      "vironment": 1972,
      "begin": 1973,
      "Ġfield": 1974,
      "itor": 1975,
      "Ġprofess": 1976,
      "Ġvers": 1977,
      "Ġtimes": 1978,
      "Ġmajor": 1979,
      "Ġmembers": 1980,
      "Ġwomen": 1981,
      "Ġlim": 1982,
      "Ġbecome": 1983,
      "go": 1984,
      "Ġoften": 1985,
      "pped": 1986,
      "Ġhaving": 1987,
      "ĠYork": 1988,
      "urther": 1989,
      "'d": 1990,
      "Ġtem": 1991,
      "wards": 1992,
      "aterial": 1993,
      "Ġexample": 1994,
      "Ã¡": 1995,
      "roll": 1996,
      "ike": 1997,
      "amb": 1998,
      "ideo": 1999,
      "Ġdevelopment": 2000,
      "Ġgiven": 2001,
      "me": 2002,
      "obal": 2003,
      "ison": 2004,
      "ĠPol": 2005,
      "Ġ}": 2006,
      "Ġpossible": 2007,
      "Ġfar": 2008,
      "Ġcontrol": 2009,
      "Ġshort": 2010,
      "Ġthing": 2011,
      "Ġalready": 2012,
      "AL": 2013,
      "Ġlight": 2014,
      "Ġeduc": 2015,
      "ĠEn": 2016,
      "Ġyoung": 2017,
      "Ġseason": 2018,
      "Ġcamp": 2019,
      "Ġpot": 2020,
      "Ġlik": 2021,
      "Ġtrad": 2022,
      "Ġfocus": 2023,
      "ĠAss": 2024,
      "ĠApp": 2025,
      "Ġeconom": 2026,
      "Ġmethod": 2027,
      "Ġinclude": 2028,
      "ript": 2029,
      "Ġhuman": 2030,
      "Ġsw": 2031,
      "ffic": 2032,
      "Ġfeat": 2033,
      "utes": 2034,
      "Ġ2017": 2035,
      "Ġclear": 2036,
      "Ġdidn": 2037,
      "Ġfilm": 2038,
      "ills": 2039,
      "Ġseveral": 2040,
      "Ġparticular": 2041,
      "aps": 2042,
      "dd": 2043,
      "Ġcity": 2044,
      "ither": 2045,
      "ored": 2046,
      "Ġmen": 2047,
      "vert": 2048,
      "iod": 2049,
      "artment": 2050,
      "Ġtreat": 2051,
      "co": 2052,
      "lev": 2053,
      ")$": 2054,
      "Ġwr": 2055,
      "Ġtype": 2056,
      "ands": 2057,
      "Ġaccount": 2058,
      "Ġfood": 2059,
      "che": 2060,
      "IT": 2061,
      "ift": 2062,
      "Ġtell": 2063,
      "Ġlearn": 2064,
      "ĠWhen": 2065,
      "Ġonline": 2066,
      "Ġfuture": 2067,
      "Ġ_": 2068,
      "sel": 2069,
      "nect": 2070,
      "',": 2071,
      "ched": 2072,
      "leg": 2073,
      "Ġwar": 2074,
      "imate": 2075,
      "Ġair": 2076,
      "na": 2077,
      "ĠInst": 2078,
      "nK": 2079,
      "utions": 2080,
      "ails": 2081,
      "joy": 2082,
      "Ġindividual": 2083,
      "Ġcertain": 2084,
      "eral": 2085,
      "ify": 2086,
      "pportun": 2087,
      "Ġauthor": 2088,
      "Ġhold": 2089,
      "Ġmoney": 2090,
      "uary": 2091,
      "ĠÃ": 2092,
      "Ġce": 2093,
      "Ġinvol": 2094,
      "ĠGu": 2095,
      "Ġknown": 2096,
      "Ġleast": 2097,
      "idence": 2098,
      "Ġmeans": 2099,
      "Ġcult": 2100,
      "_{\\\\": 2101,
      "ĠNational": 2102,
      "fer": 2103,
      "Ġever": 2104,
      "ÑģÑĤ": 2105,
      "ides": 2106,
      "Ġenough": 2107,
      "Ġside": 2108,
      "25": 2109,
      "ape": 2110,
      "Ġroom": 2111,
      "Ġant": 2112,
      "Ġcame": 2113,
      "Ġlooking": 2114,
      "Ġwebs": 2115,
      "ĠÐ¿": 2116,
      "Ġstudy": 2117,
      "Ġhistory": 2118,
      "Ġlater": 2119,
      "Ġcreate": 2120,
      "ttps": 2121,
      "back": 2122,
      "Ġdone": 2123,
      "IC": 2124,
      "ilar": 2125,
      "ĠState": 2126,
      "ĠWorld": 2127,
      "aring": 2128,
      "Ġearly": 2129,
      "ĠMin": 2130,
      "Ġdr": 2131,
      "Ġ2016": 2132,
      "Ġcheck": 2133,
      "ources": 2134,
      "Ġothers": 2135,
      "ones": 2136,
      "Ġreview": 2137,
      "uff": 2138,
      "play": 2139,
      "sw": 2140,
      "ball": 2141,
      "ype": 2142,
      "Ġhouse": 2143,
      "AS": 2144,
      "ĠEurope": 2145,
      "ued": 2146,
      "23": 2147,
      "ids": 2148,
      "ctor": 2149,
      "oman": 2150,
      "Ġ198": 2151,
      "Ġx": 2152,
      "aken": 2153,
      "reg": 2154,
      "Ġsite": 2155,
      "ĠPres": 2156,
      "->": 2157,
      "ÑĮ": 2158,
      "most": 2159,
      "Ġlo": 2160,
      "Ġkey": 2161,
      "Ġredu": 2162,
      "Ġdri": 2163,
      "nIf": 2164,
      "Ġspace": 2165,
      "}{": 2166,
      "Ġ,": 2167,
      "aint": 2168,
      "Ġopportun": 2169,
      "Ġsum": 2170,
      "ada": 2171,
      "Ã³": 2172,
      "irl": 2173,
      "rew": 2174,
      "Ġseries": 2175,
      "abor": 2176,
      "ĠApr": 2177,
      "ĠIm": 2178,
      "ĠStates": 2179,
      "Ġhig": 2180,
      "Ġvol": 2181,
      "iam": 2182,
      "ĠSte": 2183,
      "Ġmakes": 2184,
      "It": 2185,
      "Ġtook": 2186,
      "cer": 2187,
      "Ġtot": 2188,
      "Ġmom": 2189,
      "Ġ2020": 2190,
      "ĠCount": 2191,
      "Ġlow": 2192,
      "ler": 2193,
      "Ġfre": 2194,
      "Ġdiscuss": 2195,
      "ĠCity": 2196,
      "Ġproblem": 2197,
      "Ġclaim": 2198,
      "Ġ2015": 2199,
      "Ġener": 2200,
      "raft": 2201,
      "Ġspecific": 2202,
      "reet": 2203,
      "Ġmodel": 2204,
      "Ġbenef": 2205,
      "Ġstrong": 2206,
      "ony": 2207,
      "ED": 2208,
      "lege": 2209,
      "rodu": 2210,
      "urch": 2211,
      "ogn": 2212,
      "Ġneeds": 2213,
      "Ġamong": 2214,
      "ĠEd": 2215,
      "nHe": 2216,
      "Ġport": 2217,
      "rain": 2218,
      "book": 2219,
      "add": 2220,
      "Ġpub": 2221,
      "Ġcomb": 2222,
      "load": 2223,
      "ĠOct": 2224,
      "ĠSchool": 2225,
      "ĠAb": 2226,
      "agn": 2227,
      "af": 2228,
      "Ġmaterial": 2229,
      "ĠCal": 2230,
      "Ġtre": 2231,
      "ĠNe": 2232,
      "ĠAust": 2233,
      "Ġlive": 2234,
      "oard": 2235,
      "Ġdoing": 2236,
      "iol": 2237,
      "Ġappear": 2238,
      "Ġenjoy": 2239,
      "Ġnight": 2240,
      "cal": 2241,
      "Ġpersonal": 2242,
      "();\\": 2243,
      "Ġresults": 2244,
      "Ġ25": 2245,
      "ster": 2246,
      "ental": 2247,
      "We": 2248,
      "arget": 2249,
      "Ġdoc": 2250,
      "Ġthought": 2251,
      "ĠAug": 2252,
      "nV": 2253,
      "Ġelse": 2254,
      "Ġmeas": 2255,
      "Ġbit": 2256,
      "Ġtrue": 2257,
      "Ġreason": 2258,
      "Ġhappen": 2259,
      "Ġenc": 2260,
      "Ġseen": 2261,
      "ĠHowever": 2262,
      "::": 2263,
      "Ġcompet": 2264,
      "AC": 2265,
      "Ġdeal": 2266,
      "ators": 2267,
      "Ġonce": 2268,
      "ĠBro": 2269,
      "bl": 2270,
      "ze": 2271,
      "pping": 2272,
      "Ġfive": 2273,
      "Ġchall": 2274,
      "ault": 2275,
      "fect": 2276,
      "ĠMc": 2277,
      "Ġrequire": 2278,
      "my": 2279,
      "Ġsuper": 2280,
      "frac": 2281,
      "Ġdoesn": 2282,
      "verage": 2283,
      "ĠÐ²": 2284,
      "Ġinit": 2285,
      "ĠOne": 2286,
      "Ġbody": 2287,
      "Ġdue": 2288,
      "lu": 2289,
      "ĠGod": 2290,
      "anies": 2291,
      "lete": 2292,
      "Ġrepresent": 2293,
      "ches": 2294,
      "ĠMarch": 2295,
      "Ġfinal": 2296,
      "Ġrelations": 2297,
      "Ġcrit": 2298,
      "ule": 2299,
      "ÃŃ": 2300,
      "ĠAf": 2301,
      "part": 2302,
      "ĠGe": 2303,
      "IS": 2304,
      "ĠMy": 2305,
      "ners": 2306,
      "Ġwon": 2307,
      "Ġlink": 2308,
      "uf": 2309,
      "nAs": 2310,
      "Ġ100": 2311,
      "Ġquestion": 2312,
      "Ġperiod": 2313,
      "Ġcomes": 2314,
      "ĠSec": 2315,
      "ino": 2316,
      "ĠMe": 2317,
      "40": 2318,
      "ĠCont": 2319,
      "Ġcomplet": 2320,
      "ĠThese": 2321,
      "ilt": 2322,
      "now": 2323,
      "ĠEm": 2324,
      "ibility": 2325,
      "ĠComp": 2326,
      "EC": 2327,
      "Ġmind": 2328,
      "ilities": 2329,
      "Ġactually": 2330,
      "Ġjo": 2331,
      "Ġnews": 2332,
      "aining": 2333,
      "Ġwhether": 2334,
      "Ġtyp": 2335,
      "ume": 2336,
      "Ġvisit": 2337,
      "ĠSouth": 2338,
      "ĠWill": 2339,
      "Ġabove": 2340,
      "Ġindustry": 2341,
      "fig": 2342,
      "Ġsignific": 2343,
      "Ġoffer": 2344,
      "Ġstarted": 2345,
      "str": 2346,
      "ĠAg": 2347,
      "Ġmedia": 2348,
      "illed": 2349,
      "Ġsingle": 2350,
      "hers": 2351,
      "Ġquality": 2352,
      "Ġrisk": 2353,
      "www": 2354,
      "Ġfav": 2355,
      "Ġmonths": 2356,
      "ancial": 2357,
      "angu": 2358,
      "olution": 2359,
      "ĠApril": 2360,
      "Ġwent": 2361,
      "ival": 2362,
      "Ġcou": 2363,
      "error": 2364,
      "Ġobject": 2365,
      "Ġpercent": 2366,
      "Ġproducts": 2367,
      "time": 2368,
      "itle": 2369,
      "ĠDep": 2370,
      "Ñĭ": 2371,
      "Ġ--": 2372,
      "Ġbring": 2373,
      "Ġaddress": 2374,
      "wh": 2375,
      "Ġpri": 2376,
      "Ġprob": 2377,
      "though": 2378,
      "Ġtold": 2379,
      "iter": 2380,
      "Ġcharacter": 2381,
      "ĠJanuary": 2382,
      "ĠPart": 2383,
      "Ġpress": 2384,
      "Ġwebsite": 2385,
      "Ġenvironment": 2386,
      "onse": 2387,
      "Ġgetting": 2388,
      "irm": 2389,
      "Ġstep": 2390,
      "ĠServ": 2391,
      "Ġyet": 2392,
      "oon": 2393,
      "Ġtry": 2394,
      "uation": 2395,
      "ples": 2396,
      "Ġ2014": 2397,
      "gest": 2398,
      "--------": 2399,
      "........": 2400,
      "hel": 2401,
      "Ġenergy": 2402,
      "Ġ24": 2403,
      "Ġcell": 2404,
      "ression": 2405,
      "Th": 2406,
      "Ġfurther": 2407,
      "Ġtax": 2408,
      "Ġsound": 2409,
      "fort": 2410,
      "ÑĢÐ°": 2411,
      "Ñĩ": 2412,
      "Ġbuilding": 2413,
      "ĠDo": 2414,
      "ks": 2415,
      "ĠSept": 2416,
      "ests": 2417,
      "Con": 2418,
      "Ġstruct": 2419,
      "Ġmot": 2420,
      "60": 2421,
      "new": 2422,
      "ĠHar": 2423,
      "ification": 2424,
      "head": 2425,
      "ĠJune": 2426,
      "ili": 2427,
      "Ġexist": 2428,
      "anks": 2429,
      "rm": 2430,
      "Ġrespons": 2431,
      "Ġbegin": 2432,
      "Ġwind": 2433,
      "Ġcal": 2434,
      "itted": 2435,
      "face": 2436,
      "ried": 2437,
      "Ġprivate": 2438,
      "nWhat": 2439,
      "Ġdiff": 2440,
      "ĠDr": 2441,
      "ĠNorth": 2442,
      "Ġdeb": 2443,
      "ĠWar": 2444,
      "Ġnetwork": 2445,
      "used": 2446,
      "chie": 2447,
      "cember": 2448,
      "atural": 2449,
      "hy": 2450,
      "Ġrole": 2451,
      "asing": 2452,
      "Ġcontent": 2453,
      "room": 2454,
      "hing": 2455,
      "irt": 2456,
      "Ġconsider": 2457,
      "Ġrespect": 2458,
      "ournal": 2459,
      "Ġvideo": 2460,
      "cing": 2461,
      "Ġshare": 2462,
      "Ġpage": 2463,
      "Ġmess": 2464,
      "Ð½Ð¸": 2465,
      "Ġissues": 2466,
      "Ġey": 2467,
      "ĠPar": 2468,
      "Ġphys": 2469,
      "minist": 2470,
      "Ġaud": 2471,
      "ĠAct": 2472,
      "Ġdeath": 2473,
      "unch": 2474,
      "ml": 2475,
      "Ġworks": 2476,
      "ny": 2477,
      "ĠFeb": 2478,
      "ges": 2479,
      "ception": 2480,
      "nFor": 2481,
      "epend": 2482,
      "Ġwalk": 2483,
      "ibr": 2484,
      "Ġcompanies": 2485,
      "Ġpotential": 2486,
      "Ġtext": 2487,
      "ovember": 2488,
      "Ġbeaut": 2489,
      "ĠGl": 2490,
      "ns": 2491,
      "},": 2492,
      "ari": 2493,
      "Ġtechnology": 2494,
      "Ġdeterm": 2495,
      "ruction": 2496,
      "Ġquick": 2497,
      "Ġder": 2498,
      "ana": 2499,
      "Ġund": 2500,
      "Ġcommon": 2501,
      "/\\": 2502,
      "24": 2503,
      "Ġens": 2504,
      "ĠHis": 2505,
      "ĠCO": 2506,
      "ysis": 2507,
      "clus": 2508,
      "Ġannoun": 2509,
      "Ġbreak": 2510,
      "eq": 2511,
      "ops": 2512,
      "Ġsong": 2513,
      "ĠJuly": 2514,
      "Ġparent": 2515,
      "ĠBar": 2516,
      "Ġlat": 2517,
      "ĠQu": 2518,
      "ĠPresident": 2519,
      "ules": 2520,
      "span": 2521,
      "ports": 2522,
      "Ġsugg": 2523,
      "('": 2524,
      "Ch": 2525,
      "pecially": 2526,
      "ĠArt": 2527,
      "Ġposition": 2528,
      "****": 2529,
      "empt": 2530,
      "Ġrange": 2531,
      "RE": 2532,
      "Ġofficial": 2533,
      "ĠReg": 2534,
      "Ġeasy": 2535,
      "Ġface": 2536,
      "Ġprevious": 2537,
      "ĠCor": 2538,
      "Ġage": 2539,
      "Ġsignificant": 2540,
      "Ġ197": 2541,
      "Ġ2013": 2542,
      "plic": 2543,
      "ĠEl": 2544,
      "Ġhours": 2545,
      "Ġste": 2546,
      "earch": 2547,
      "Ġbelow": 2548,
      "Ġwhole": 2549,
      "Ġbar": 2550,
      "cont": 2551,
      "nHow": 2552,
      "istic": 2553,
      "ief": 2554,
      "Ġsimilar": 2555,
      "Ġheart": 2556,
      "Ġcut": 2557,
      "Ġcontact": 2558,
      "ĠPe": 2559,
      "ends": 2560,
      "Ġhalf": 2561,
      "Ġobs": 2562,
      "icro": 2563,
      "Ġgeneral": 2564,
      "ises": 2565,
      "Ġpo": 2566,
      "Ġago": 2567,
      "ĠStud": 2568,
      "Ġtw": 2569,
      "Ġwa": 2570,
      "elt": 2571,
      "ĠMr": 2572,
      "ĠBy": 2573,
      "Ġassoci": 2574,
      "oe": 2575,
      "Ġgen": 2576,
      "fl": 2577,
      "Ġsoft": 2578,
      "Ð¾Ð²": 2579,
      "Ġaction": 2580,
      "ĠNews": 2581,
      "elling": 2582,
      "selves": 2583,
      "Ġparticip": 2584,
      "umb": 2585,
      "aur": 2586,
      "Ġimpact": 2587,
      "ging": 2588,
      "ades": 2589,
      "label": 2590,
      "Ġdou": 2591,
      "ocr": 2592,
      "Ġmor": 2593,
      "div": 2594,
      "ledge": 2595,
      "Ġ50": 2596,
      "col": 2597,
      "Ġfriends": 2598,
      "Ġeither": 2599,
      "Ġarg": 2600,
      "Ġsent": 2601,
      "iday": 2602,
      "AM": 2603,
      "ĠDes": 2604,
      "ĠÑģ": 2605,
      "opy": 2606,
      "Ġdescrib": 2607,
      "ham": 2608,
      "ĠNot": 2609,
      "mit": 2610,
      "Ġperformance": 2611,
      "ĠPark": 2612,
      "Ġestab": 2613,
      "aged": 2614,
      "Ġcoll": 2615,
      "Ġamount": 2616,
      "era": 2617,
      "ĠDav": 2618,
      "Ġprotect": 2619,
      "ĠAugust": 2620,
      "year": 2621,
      "Ġbelieve": 2622,
      "mathb": 2623,
      "hib": 2624,
      "cil": 2625,
      "Ġtaken": 2626,
      "ĠBrit": 2627,
      "Ġlog": 2628,
      "alt": 2629,
      "ĠAmerica": 2630,
      "Ġgames": 2631,
      "tee": 2632,
      "ĠMus": 2633,
      "sec": 2634,
      "atur": 2635,
      "Ġtrack": 2636,
      "Ġrad": 2637,
      "Ġvarious": 2638,
      "Ġfail": 2639,
      "Ġnational": 2640,
      "iff": 2641,
      "Ġsix": 2642,
      "ĠĠĠĠĠĠĠĠĠĠĠĠĠĠĠĠĠĠĠ": 2643,
      "ĠOctober": 2644,
      "Ġfall": 2645,
      "icult": 2646,
      "ips": 2647,
      "Ġmiss": 2648,
      "ĠSeptember": 2649,
      "Ġthird": 2650,
      "Ġentire": 2651,
      "ĠDecember": 2652,
      "Ġhy": 2653,
      "Ġeverything": 2654,
      "Ġalmost": 2655,
      "aul": 2656,
      "Ġeffort": 2657,
      "ems": 2658,
      "action": 2659,
      "Ġtaking": 2660,
      "Ġhot": 2661,
      "ĠAfter": 2662,
      "Ġidea": 2663,
      "ĠChe": 2664,
      "Ġ2021": 2665,
      "field": 2666,
      "ength": 2667,
      "key": 2668,
      "Ġhost": 2669,
      "ables": 2670,
      "ĠPer": 2671,
      "ET": 2672,
      "Ġaccording": 2673,
      "Ġdom": 2674,
      "apt": 2675,
      "Ġsubject": 2676,
      "ĠHer": 2677,
      "Ġhom": 2678,
      "ĠSoc": 2679,
      "Ġshows": 2680,
      "ĠHealth": 2681,
      "ological": 2682,
      "ĠMark": 2683,
      "Ġclose": 2684,
      "ĠWest": 2685,
      "Ġperfect": 2686,
      "gress": 2687,
      "Pro": 2688,
      "ires": 2689,
      "Ġpack": 2690,
      "Ġintern": 2691,
      "ided": 2692,
      "rel": 2693,
      "rug": 2694,
      "ington": 2695,
      "cle": 2696,
      "ĠNovember": 2697,
      "bar": 2698,
      "Ġpie": 2699,
      "Ġissue": 2700,
      "Ġcontrib": 2701,
      "ully": 2702,
      "nOn": 2703,
      "Ex": 2704,
      "iction": 2705,
      "ux": 2706,
      "ites": 2707,
      "\\\".": 2708,
      "ij": 2709,
      "ille": 2710,
      "eta": 2711,
      "Ġtool": 2712,
      "ev": 2713,
      "Ġtravel": 2714,
      "ĠAfric": 2715,
      "Ġfront": 2716,
      "itch": 2717,
      "Ġupd": 2718,
      "ĠSm": 2719,
      "Ġfoot": 2720,
      "ground": 2721,
      "Ġ</": 2722,
      "Ġtotal": 2723,
      "adem": 2724,
      "Ġrequired": 2725,
      "Ġabs": 2726,
      "lected": 2727,
      "aced": 2728,
      "Ġ2012": 2729,
      "Ġop": 2730,
      "ama": 2731,
      "Ġprice": 2732,
      "ĠCounty": 2733,
      "ply": 2734,
      "Ġtrying": 2735,
      "iple": 2736,
      "Ġnecess": 2737,
      "Ġsize": 2738,
      "Ð¹": 2739,
      "Ġrather": 2740,
      "ament": 2741,
      "lin": 2742,
      "Ġevents": 2743,
      "ogle": 2744,
      "nYou": 2745,
      "ĠSch": 2746,
      "Ġsym": 2747,
      "Ġess": 2748,
      "ecut": 2749,
      "Ġpoints": 2750,
      "ĠHouse": 2751,
      "HE": 2752,
      "atory": 2753,
      "Ð·": 2754,
      "Ġmanagement": 2755,
      "ĠChar": 2756,
      "Ġmass": 2757,
      "ci": 2758,
      "Ġlikely": 2759,
      "Ġwatch": 2760,
      "Ġfile": 2761,
      "Ġrelationship": 2762,
      "Ġanything": 2763,
      "Ġprim": 2764,
      "Ġareas": 2765,
      "Ġdig": 2766,
      "ey": 2767,
      "Ġsomeone": 2768,
      "ĠAustral": 2769,
      "off": 2770,
      "left": 2771,
      "cite": 2772,
      "Ġhowever": 2773,
      "Ġversion": 2774,
      "ruary": 2775,
      "Ġheld": 2776,
      "aving": 2777,
      "ĠCour": 2778,
      "nov": 2779,
      "ores": 2780,
      "Ġexam": 2781,
      "aching": 2782,
      "Ġcomput": 2783,
      "leased": 2784,
      "Ġformer": 2785,
      "Ġtable": 2786,
      "pper": 2787,
      "Ġpolitical": 2788,
      "Ġachie": 2789,
      "Ġep": 2790,
      "Ġ>": 2791,
      "Ġfeatures": 2792,
      "Ġimprove": 2793,
      "Ġcirc": 2794,
      "Ġespecially": 2795,
      "cast": 2796,
      "Ġrecogn": 2797,
      "ris": 2798,
      "ormal": 2799,
      "ensive": 2800,
      "Name": 2801,
      "Ġstay": 2802,
      "Ġcontinue": 2803,
      "su": 2804,
      "ondon": 2805,
      "Ġmember": 2806,
      "ender": 2807,
      "Ġcode": 2808,
      "name": 2809,
      "Ġblack": 2810,
      "hold": 2811,
      "Ġprovided": 2812,
      "Ġconnect": 2813,
      "itional": 2814,
      "oved": 2815,
      "Ġadded": 2816,
      "Ġquite": 2817,
      "Ġoriginal": 2818,
      "Ġcred": 2819,
      "ĠRuss": 2820,
      "ĠRec": 2821,
      "aging": 2822,
      "nThere": 2823,
      "27": 2824,
      "\\\">\\": 2825,
      "Ġclos": 2826,
      "uild": 2827,
      "Ð¿": 2828,
      "nSt": 2829,
      "oud": 2830,
      "Ġminutes": 2831,
      "Ġattack": 2832,
      "ĠCenter": 2833,
      "Ġpick": 2834,
      "Ġtraining": 2835,
      "Ġcoun": 2836,
      "ude": 2837,
      "anguage": 2838,
      "Ġsat": 2839,
      "Ġopp": 2840,
      "Ġproperty": 2841,
      "Ġtarget": 2842,
      "Ġeducation": 2843,
      "Ġleaders": 2844,
      "Ġred": 2845,
      "Ġdifficult": 2846,
      "uk": 2847,
      "Ġbehind": 2848,
      "this": 2849,
      "Ġrecent": 2850,
      "Ġglobal": 2851,
      "Ġcoming": 2852,
      "Ġchanges": 2853,
      "Ġ21": 2854,
      "80": 2855,
      "Ġwond": 2856,
      "Ã¤": 2857,
      "{\\": 2858,
      "$,": 2859,
      "tain": 2860,
      "Ġfinancial": 2861,
      "ald": 2862,
      "come": 2863,
      "Ġneg": 2864,
      "Ġneeded": 2865,
      "Ġreceived": 2866,
      "opt": 2867,
      "Ġdest": 2868,
      "Ġliving": 2869,
      "Ġden": 2870,
      "RO": 2871,
      "ĠOur": 2872,
      "ser": 2873,
      "Ġstaff": 2874,
      "ety": 2875,
      "Ġoffice": 2876,
      "Ġviol": 2877,
      "Ġcases": 2878,
      "ĠUK": 2879,
      "ication": 2880,
      "Ġbuy": 2881,
      "roid": 2882,
      "nh": 2883,
      "Ġbad": 2884,
      "Ġcreated": 2885,
      "iddle": 2886,
      "Ġrecomm": 2887,
      "ague": 2888,
      "Ġforward": 2889,
      "Ġarticle": 2890,
      "based": 2891,
      "Ġwanted": 2892,
      "Ġground": 2893,
      "Ġinternational": 2894,
      "Ġquestions": 2895,
      "nBy": 2896,
      "Ġprovides": 2897,
      "ht": 2898,
      "roups": 2899,
      "Ġaccept": 2900,
      ",\\\\": 2901,
      "Ġsystems": 2902,
      "medi": 2903,
      "Ġasked": 2904,
      "):": 2905,
      "hern": 2906,
      "Ġdeg": 2907,
      "Ġpolicy": 2908,
      "Ġsecurity": 2909,
      "Ġcourt": 2910,
      "Ġagre": 2911,
      "45": 2912,
      "ĠJust": 2913,
      "sy": 2914,
      "pre": 2915,
      "arning": 2916,
      "Ġrights": 2917,
      "Ġill": 2918,
      "amed": 2919,
      "Ġuser": 2920,
      "Ġ23": 2921,
      "ension": 2922,
      "ett": 2923,
      "nes": 2924,
      "Ġexperien": 2925,
      "ession": 2926,
      "Ġfig": 2927,
      "ivity": 2928,
      "nAn": 2929,
      "ĠInternational": 2930,
      "icles": 2931,
      "alse": 2932,
      "uge": 2933,
      "Ġinj": 2934,
      "bum": 2935,
      "Ġrepl": 2936,
      "'\\": 2937,
      "ext": 2938,
      "oo": 2939,
      "Ġansw": 2940,
      "ION": 2941,
      "ĠMore": 2942,
      "where": 2943,
      "da": 2944,
      "Ġconcern": 2945,
      "Ġ2010": 2946,
      "Ġwriting": 2947,
      "Ġdam": 2948,
      "lebr": 2949,
      "Ġmatter": 2950,
      "ĠLaw": 2951,
      "ceed": 2952,
      "eal": 2953,
      "urg": 2954,
      "99": 2955,
      "Ġdate": 2956,
      "inary": 2957,
      "rect": 2958,
      "Id": 2959,
      "Ġwords": 2960,
      "Ġhon": 2961,
      "Ġpurch": 2962,
      "Ġregard": 2963,
      "26": 2964,
      "Ġbecame": 2965,
      "ĠĠĠĠĠĠĠĠĠ": 2966,
      "idge": 2967,
      "Ġparty": 2968,
      "ĠÐ½": 2969,
      "Ġpain": 2970,
      "Ġfire": 2971,
      "Ġcountries": 2972,
      "Ġinvestig": 2973,
      "oring": 2974,
      "Ġpers": 2975,
      "Ġterms": 2976,
      "import": 2977,
      "Ġpatients": 2978,
      "Ġincrease": 2979,
      "Ġpict": 2980,
      "Ġimm": 2981,
      "atform": 2982,
      "aign": 2983,
      "EL": 2984,
      "ĠFebruary": 2985,
      "\\\\\\": 2986,
      "ava": 2987,
      "Ġpath": 2988,
      "ING": 2989,
      "Ġdefin": 2990,
      "Ġpopular": 2991,
      "Ġsearch": 2992,
      "sub": 2993,
      "itary": 2994,
      "ica": 2995,
      "Ġhigher": 2996,
      "Ġeveryone": 2997,
      "Ñħ": 2998,
      "Ġ2011": 2999,
      "28": 3000,
      "Ġmoment": 3001,
      "Ã¼": 3002,
      "Ġcannot": 3003,
      "Ġsimple": 3004,
      "ĠMon": 3005,
      "Ġupon": 3006,
      "nCh": 3007,
      "ederal": 3008,
      "overed": 3009,
      "ĠSw": 3010,
      "Ġways": 3011,
      "ĠFin": 3012,
      "Ġele": 3013,
      "iful": 3014,
      "Ġproduction": 3015,
      "Ġseems": 3016,
      "Ġprobably": 3017,
      "Ġnothing": 3018,
      "nAnd": 3019,
      "Ġwhite": 3020,
      "AP": 3021,
      "uel": 3022,
      "Ġanim": 3023,
      "Ġcomplete": 3024,
      "ees": 3025,
      "Ġinstall": 3026,
      "ĠDon": 3027,
      "Ġrate": 3028,
      "IL": 3029,
      "Ġ40": 3030,
      "ĠHigh": 3031,
      "ford": 3032,
      "Ġroad": 3033,
      "Ġsuggest": 3034,
      "ĠChina": 3035,
      "Ġassist": 3036,
      "ĠGerm": 3037,
      "Ġpred": 3038,
      "____": 3039,
      "Ġsense": 3040,
      "Ġbi": 3041,
      "Ġincludes": 3042,
      "Ġimage": 3043,
      "Ġoutside": 3044,
      "Ġnatural": 3045,
      "urb": 3046,
      "fully": 3047,
      "ĠMich": 3048,
      "nBut": 3049,
      "Ġengine": 3050,
      "Ġshall": 3051,
      "Ġtakes": 3052,
      "mb": 3053,
      "pha": 3054,
      "Ġver": 3055,
      "Ġintrodu": 3056,
      "Ġcover": 3057,
      "Ġvari": 3058,
      "Ġsoon": 3059,
      "ĠLondon": 3060,
      "la": 3061,
      "ĠVal": 3062,
      "Ġconsum": 3063,
      "35": 3064,
      "astic": 3065,
      "ĠOff": 3066,
      "aker": 3067,
      "Ġut": 3068,
      "Ġisn": 3069,
      "Ġpropos": 3070,
      "Ġlay": 3071,
      "ĠSer": 3072,
      "itting": 3073,
      "agement": 3074,
      "Ġ...": 3075,
      "Ġoffers": 3076,
      "anced": 3077,
      "Ġcareer": 3078,
      "ese": 3079,
      "izing": 3080,
      "Ġapplication": 3081,
      "Ġhope": 3082,
      "Ġapproach": 3083,
      "Ġvia": 3084,
      "ached": 3085,
      "Ġrequest": 3086,
      "Ġworked": 3087,
      "ĠLa": 3088,
      "Ġgrad": 3089,
      "Ġdecision": 3090,
      "ription": 3091,
      "Ġgrowth": 3092,
      "Ġblock": 3093,
      "uments": 3094,
      "vis": 3095,
      "oice": 3096,
      "US": 3097,
      "Ġlives": 3098,
      "29": 3099,
      "Ġsource": 3100,
      "ĠOf": 3101,
      "Ġpaper": 3102,
      "nAl": 3103,
      "Ġproblems": 3104,
      "Ð±": 3105,
      "ran": 3106,
      "ags": 3107,
      "Ġtown": 3108,
      "Ġcontract": 3109,
      "order": 3110,
      "Ġsens": 3111,
      "Ġdocument": 3112,
      "ÐµÑĢ": 3113,
      "hood": 3114,
      "nWhen": 3115,
      "ĠTV": 3116,
      "ĠCoun": 3117,
      "})": 3118,
      "Ġsimply": 3119,
      "ael": 3120,
      "Ġbegan": 3121,
      "Ġgirl": 3122,
      "ivil": 3123,
      "Ġstyle": 3124,
      "itter": 3125,
      "ho": 3126,
      "ĠDepartment": 3127,
      "Ġcurrently": 3128,
      "OT": 3129,
      "oph": 3130,
      "itution": 3131,
      "tty": 3132,
      "Ġplayers": 3133,
      "ĠDirect": 3134,
      "Ġtreatment": 3135,
      "ĠPat": 3136,
      "ĠAng": 3137,
      "Ġloss": 3138,
      "ror": 3139,
      "UR": 3140,
      "ufact": 3141,
      "Ġclean": 3142,
      "Ġknowledge": 3143,
      "Ġprint": 3144,
      "bor": 3145,
      "Ġitself": 3146,
      "aily": 3147,
      "Ġaffect": 3148,
      "Ġ27": 3149,
      "Ġunique": 3150,
      "Ã¶": 3151,
      "atives": 3152,
      "ĠBlack": 3153,
      "oke": 3154,
      "Ġlearning": 3155,
      "Ġdistrib": 3156,
      "unction": 3157,
      "light": 3158,
      "apan": 3159,
      "Ġsaw": 3160,
      "acc": 3161,
      "lim": 3162,
      "oper": 3163,
      "Ġlate": 3164,
      "ĠSan": 3165,
      "Ġtour": 3166,
      "idth": 3167,
      "ĠInc": 3168,
      "ĠIndia": 3169,
      "arter": 3170,
      "Ġfavor": 3171,
      "urance": 3172,
      "ĠAssoci": 3173,
      "Ġindic": 3174,
      "Ġrecently": 3175,
      "etimes": 3176,
      "ĠII": 3177,
      "Ġreported": 3178,
      "Ġtou": 3179,
      "Ġpractice": 3180,
      "Ġbecom": 3181,
      "Ġsaf": 3182,
      "asc": 3183,
      "Ġopportunity": 3184,
      "td": 3185,
      "iforn": 3186,
      "33": 3187,
      "Ġinflu": 3188,
      "}_": 3189,
      "ĠKing": 3190,
      "omp": 3191,
      "rences": 3192,
      "itute": 3193,
      "ĠTra": 3194,
      "Ġprofessional": 3195,
      "Ġgroups": 3196,
      "Ġprior": 3197,
      "Ġincluded": 3198,
      "Ġsex": 3199,
      "ams": 3200,
      "ocal": 3201,
      "ĠYour": 3202,
      "Ġthroughout": 3203,
      "Ġexpected": 3204,
      "imum": 3205,
      "Ġ26": 3206,
      "Ġresponse": 3207,
      "ĠCourt": 3208,
      "Ġ28": 3209,
      "airs": 3210,
      "ida": 3211,
      "erc": 3212,
      "Ġbooks": 3213,
      "ha": 3214,
      "}(": 3215,
      "Ġ22": 3216,
      "Ġpresident": 3217,
      "ĠDay": 3218,
      "Ġbuilt": 3219,
      "mathcal": 3220,
      "pm": 3221,
      "Ġson": 3222,
      "Ġdeep": 3223,
      "ĠGener": 3224,
      "attle": 3225,
      "Ġthemselves": 3226,
      "ky": 3227,
      "Ġconditions": 3228,
      "ming": 3229,
      "obile": 3230,
      "rab": 3231,
      "Ġrunning": 3232,
      "Ġrelated": 3233,
      "iqu": 3234,
      "Ġimplement": 3235,
      "Ġwritten": 3236,
      "ĠAc": 3237,
      "lier": 3238,
      "ÐµÐ½": 3239,
      "uses": 3240,
      "enc": 3241,
      "Ġcommit": 3242,
      "ĠCommun": 3243,
      "01": 3244,
      "Ġlonger": 3245,
      "Ġbed": 3246,
      "Ġemer": 3247,
      "Ġdise": 3248,
      "ager": 3249,
      "Ġcolor": 3250,
      "Ġarch": 3251,
      "ĠAcc": 3252,
      "Ġsett": 3253,
      "pose": 3254,
      "Ġmother": 3255,
      "Ġplease": 3256,
      "ĠEnglish": 3257,
      "Ġcard": 3258,
      "ĠTrump": 3259,
      "iles": 3260,
      "ĠFrom": 3261,
      "rown": 3262,
      "ifornia": 3263,
      "ĠNow": 3264,
      "Ġpublished": 3265,
      "String": 3266,
      "Ġcy": 3267,
      "!!": 3268,
      "ĠHol": 3269,
      "ĠSystem": 3270,
      "Ġanalysis": 3271,
      "Ġweb": 3272,
      "var": 3273,
      "equation": 3274,
      "Ð³": 3275,
      "ĠDem": 3276,
      "unt": 3277,
      "bol": 3278,
      "Ġbase": 3279,
      "irth": 3280,
      "idered": 3281,
      "orge": 3282,
      "Ġlegal": 3283,
      "Ġmedical": 3284,
      "Ġveh": 3285,
      "Ġinvolved": 3286,
      "Ġchalleng": 3287,
      "Ġstop": 3288,
      "Ġworth": 3289,
      "mon": 3290,
      "Ġsus": 3291,
      "Ġcustomers": 3292,
      "##": 3293,
      "AD": 3294,
      "Ġprot": 3295,
      "Ġexact": 3296,
      "Ġcomplex": 3297,
      "Ġrelease": 3298,
      "wood": 3299,
      "Ġattempt": 3300,
      "Ġpolice": 3301,
      "Ġdesigned": 3302,
      "Ġcompl": 3303,
      "Ġcampaign": 3304,
      "Ġboard": 3305,
      "Ġ196": 3306,
      "aves": 3307,
      "nimport": 3308,
      "class": 3309,
      "ĠCons": 3310,
      "}^": 3311,
      "pir": 3312,
      "Ġhistor": 3313,
      "Ġsepar": 3314,
      "Ġwoman": 3315,
      "Ġmodern": 3316,
      "Ġregular": 3317,
      "erved": 3318,
      "Ġinside": 3319,
      "resh": 3320,
      "ements": 3321,
      "ĠÐ¸": 3322,
      "Ġstates": 3323,
      "Ġlost": 3324,
      "Ġjud": 3325,
      "resp": 3326,
      "32": 3327,
      "omb": 3328,
      "ĠSen": 3329,
      "alls": 3330,
      "Ġadditional": 3331,
      "aries": 3332,
      "ressed": 3333,
      "ĠSome": 3334,
      "rs": 3335,
      "Ġcand": 3336,
      "Ġsection": 3337,
      "ĠOb": 3338,
      "Ġstudent": 3339,
      "Ġleading": 3340,
      "Ġextra": 3341,
      "rang": 3342,
      "Val": 3343,
      "atter": 3344,
      "aches": 3345,
      "ashington": 3346,
      "Ġinstead": 3347,
      "Ġadminist": 3348,
      "Ġplatform": 3349,
      "Ġvict": 3350,
      "Ġweeks": 3351,
      "Ġled": 3352,
      "mark": 3353,
      "ado": 3354,
      "Ġensure": 3355,
      "Ġevidence": 3356,
      "ĠCollege": 3357,
      "Ġhttps": 3358,
      "Ġdetails": 3359,
      "Ġpretty": 3360,
      "Ġmach": 3361,
      "Ġcelebr": 3362,
      "Ġemail": 3363,
      "Ġlower": 3364,
      "Ġfight": 3365,
      "ĠDavid": 3366,
      "sequ": 3367,
      "Ġid": 3368,
      "Ġconduct": 3369,
      "Ġvot": 3370,
      ")\\\\": 3371,
      "Ġhimself": 3372,
      "Ġalbum": 3373,
      "ÑĨ": 3374,
      "Ġque": 3375,
      "Ġprevent": 3376,
      "Ġleave": 3377,
      "rought": 3378,
      "Ġstri": 3379,
      "Ġprojects": 3380,
      "Ġanyone": 3381,
      "Ġoptions": 3382,
      "Ġdecl": 3383,
      "Ġstandard": 3384,
      "Ġactivities": 3385,
      "Ġautom": 3386,
      "Ġsil": 3387,
      "Ġregion": 3388,
      "ico": 3389,
      "dom": 3390,
      "arc": 3391,
      "Ġ2009": 3392,
      "iber": 3393,
      "ties": 3394,
      "sych": 3395,
      "vey": 3396,
      "Ġlevels": 3397,
      "Type": 3398,
      ");": 3399,
      "Ġrev": 3400,
      "Ġplaying": 3401,
      "Ġdrug": 3402,
      "Ġpan": 3403,
      "elta": 3404,
      "Ġoil": 3405,
      "ĠTw": 3406,
      "useum": 3407,
      "Cl": 3408,
      "ĠAir": 3409,
      "Ġheav": 3410,
      "Ġblog": 3411,
      "Ġreleased": 3412,
      "pite": 3413,
      "Ġaverage": 3414,
      "Ġmatch": 3415,
      "ĠÐ¾": 3416,
      "Ġbox": 3417,
      "ĠWhile": 3418,
      "ĠWork": 3419,
      "oul": 3420,
      "Ġplayed": 3421,
      "Ġconsidered": 3422,
      "Ġseek": 3423,
      "Ġmeeting": 3424,
      "nTo": 3425,
      "Ġhit": 3426,
      "ĠWilliam": 3427,
      "iment": 3428,
      "Ġlatest": 3429,
      "Ġhor": 3430,
      "uted": 3431,
      "ĠBook": 3432,
      "90": 3433,
      "Ġreading": 3434,
      "ospital": 3435,
      "Ġbeautiful": 3436,
      "edd": 3437,
      "rie": 3438,
      "ening": 3439,
      "Ġ2022": 3440,
      "Ġdiv": 3441,
      "ĠStreet": 3442,
      "ĠGroup": 3443,
      "umn": 3444,
      "Ġround": 3445,
      "haps": 3446,
      "mission": 3447,
      "Ġord": 3448,
      "Ġband": 3449,
      "pd": 3450,
      "BC": 3451,
      "Ġcross": 3452,
      "Ġcause": 3453,
      "Ġusers": 3454,
      "ĠJapan": 3455,
      "LE": 3456,
      "rael": 3457,
      "Ġreve": 3458,
      "nSo": 3459,
      "erve": 3460,
      "asons": 3461,
      "inter": 3462,
      "itation": 3463,
      "ĠCalifornia": 3464,
      "><": 3465,
      "Ġetc": 3466,
      "Ġeconomic": 3467,
      "Ġcook": 3468,
      "Ġborn": 3469,
      "Ġsold": 3470,
      "Ġprep": 3471,
      "nÐ": 3472,
      "oom": 3473,
      "Ġpark": 3474,
      "nc": 3475,
      "duc": 3476,
      "ĠTrans": 3477,
      "Ġmag": 3478,
      "reng": 3479,
      "Ġdie": 3480,
      "Ġdisplay": 3481,
      "Ġscreen": 3482,
      "ND": 3483,
      "Ġgoal": 3484,
      "alpha": 3485,
      "Ġhol": 3486,
      "esc": 3487,
      "ĠJe": 3488,
      "erous": 3489,
      "Ġintegr": 3490,
      "Ġfather": 3491,
      "36": 3492,
      "ĠHist": 3493,
      "List": 3494,
      "ĠFirst": 3495,
      "Ġbroad": 3496,
      "à¤": 3497,
      "verse": 3498,
      "ography": 3499,
      "Ġlanguage": 3500,
      "Ġtitle": 3501,
      "ulations": 3502,
      "Ġhop": 3503,
      "lying": 3504,
      "70": 3505,
      "hem": 3506,
      "Ġ*/\\": 3507,
      "irit": 3508,
      "Ġfast": 3509,
      "illing": 3510,
      "Ġsubs": 3511,
      "Ġparents": 3512,
      "ibrary": 3513,
      "55": 3514,
      "down": 3515,
      "Ġdraw": 3516,
      "Ġability": 3517,
      "unk": 3518,
      "chan": 3519,
      "Ġbehav": 3520,
      "Ġimmedi": 3521,
      "Ġmanufact": 3522,
      "ĠThen": 3523,
      "Ġwrite": 3524,
      "rote": 3525,
      "Ð¾ÑĢ": 3526,
      "Ġdu": 3527,
      "rench": 3528,
      "Res": 3529,
      "Ġhttp": 3530,
      "Ġindepend": 3531,
      "44": 3532,
      "Ġvalues": 3533,
      "ences": 3534,
      "Ġcomment": 3535,
      "Ġcouple": 3536,
      "Ġreceive": 3537,
      "OS": 3538,
      "estern": 3539,
      "mercial": 3540,
      "Ġmovie": 3541,
      "Ð¾Ð´": 3542,
      "Ġmultiple": 3543,
      "pri": 3544,
      "Ġnature": 3545,
      "def": 3546,
      "~\\\\": 3547,
      "see": 3548,
      "Ġbrand": 3549,
      "ĠEuropean": 3550,
      "Ġdriv": 3551,
      "Ã¨": 3552,
      "Ġnecessary": 3553,
      "Ġsoftware": 3554,
      "Ġsolution": 3555,
      "no": 3556,
      "ĠPre": 3557,
      "ville": 3558,
      "Ġinitial": 3559,
      "ara": 3560,
      "Ġsort": 3561,
      "Ġmention": 3562,
      "ĠSim": 3563,
      "Ar": 3564,
      "../": 3565,
      "ĠDis": 3566,
      "ĠMor": 3567,
      "body": 3568,
      "Ġinterview": 3569,
      "Ġwonder": 3570,
      "wise": 3571,
      "Ġplans": 3572,
      "ares": 3573,
      "idents": 3574,
      "Ġusually": 3575,
      "oto": 3576,
      "odes": 3577,
      "Ġwasn": 3578,
      "Ġserious": 3579,
      "Ġrock": 3580,
      "ĠResearch": 3581,
      "ĠÐº": 3582,
      "ga": 3583,
      "gen": 3584,
      "istry": 3585,
      "uate": 3586,
      "imately": 3587,
      "ixed": 3588,
      "like": 3589,
      "wide": 3590,
      "Ġlocated": 3591,
      "etic": 3592,
      "Ġten": 3593,
      "ĠEast": 3594,
      "Ġstru": 3595,
      "vest": 3596,
      "ĠWashington": 3597,
      "Ġstring": 3598,
      "html": 3599,
      "Ġsqu": 3600,
      "Ġextrem": 3601,
      "ĠPaul": 3602,
      "Ġwrong": 3603,
      "Ġprograms": 3604,
      "Ġcapt": 3605,
      "ĠCouncil": 3606,
      "Ġspeak": 3607,
      "Ġculture": 3608,
      "Ġ29": 3609,
      "Ġideas": 3610,
      "ĠCanada": 3611,
      "yond": 3612,
      "Ġsales": 3613,
      "Ġ2008": 3614,
      "ĠBritish": 3615,
      "just": 3616,
      "Ġannounced": 3617,
      "Ġeffic": 3618,
      "anch": 3619,
      "IG": 3620,
      "$.": 3621,
      "Ġcollection": 3622,
      "acing": 3623,
      "Ġsubst": 3624,
      "Ġmax": 3625,
      "raz": 3626,
      "Ġsurpr": 3627,
      "ĠPal": 3628,
      "37": 3629,
      "Ġstories": 3630,
      "Ġconne": 3631,
      "ĠRepublic": 3632,
      "isions": 3633,
      "lam": 3634,
      "ĠEar": 3635,
      "Ġgave": 3636,
      "eed": 3637,
      "ords": 3638,
      "Ġfelt": 3639,
      "lied": 3640,
      "rim": 3641,
      "Ġpartners": 3642,
      "34": 3643,
      "ĠAdd": 3644,
      "odel": 3645,
      "Ġdead": 3646,
      "ĠTechn": 3647,
      "ĠRed": 3648,
      "Ġdeveloped": 3649,
      "ilies": 3650,
      "Ġstore": 3651,
      "ellow": 3652,
      "Ġresources": 3653,
      "Ġbott": 3654,
      "Ġrelig": 3655,
      "het": 3656,
      "itiz": 3657,
      "100": 3658,
      "Ġquickly": 3659,
      "bt": 3660,
      "ĠInt": 3661,
      "atal": 3662,
      "bit": 3663,
      "oes": 3664,
      "Ġkids": 3665,
      "Ġnull": 3666,
      "log": 3667,
      "Ġtask": 3668,
      "Ġinteresting": 3669,
      "Ġshown": 3670,
      "Ġlooks": 3671,
      "osing": 3672,
      "Ġstar": 3673,
      "Ġprinc": 3674,
      "Ġer": 3675,
      "ki": 3676,
      "umber": 3677,
      "Ð°Ð½": 3678,
      "ĠIN": 3679,
      "Ġge": 3680,
      "Ph": 3681,
      "ĠAre": 3682,
      "Ġcenter": 3683,
      "Ġphone": 3684,
      "\\\":": 3685,
      "This": 3686,
      "ought": 3687,
      "inated": 3688,
      "pi": 3689,
      "Ġconsist": 3690,
      "Ġcosts": 3691,
      "Ġpric": 3692,
      "Ġgoes": 3693,
      "UT": 3694,
      "zz": 3695,
      "ĠTHE": 3696,
      "Ġ=>": 3697,
      "ecutive": 3698,
      "OL": 3699,
      "))": 3700,
      "box": 3701,
      "Ġfit": 3702,
      "$\\\\": 3703,
      "Ð¾Ð¼": 3704,
      "list": 3705,
      "azing": 3706,
      "Ġdemon": 3707,
      "Ġattention": 3708,
      "Ġthreat": 3709,
      "Ġready": 3710,
      "ĠInter": 3711,
      "Ġsn": 3712,
      "enge": 3713,
      "Ġwhose": 3714,
      "Ġtowards": 3715,
      "ĠDist": 3716,
      "Ġsafety": 3717,
      "Ġdevice": 3718,
      "Ġmessage": 3719,
      "Ġhands": 3720,
      "lation": 3721,
      "sum": 3722,
      "Ġsafe": 3723,
      "ĠFace": 3724,
      "Ġboy": 3725,
      "Ġmid": 3726,
      "Ġorganiz": 3727,
      "ĠSund": 3728,
      "Ġdigital": 3729,
      "Ġbal": 3730,
      "38": 3731,
      "mas": 3732,
      "Ġstage": 3733,
      "Ġpositive": 3734,
      "Ġeffective": 3735,
      "ĠProf": 3736,
      "Ġaward": 3737,
      "igma": 3738,
      "Ġbank": 3739,
      "Ġconcept": 3740,
      "yt": 3741,
      "Ġsummer": 3742,
      "Ġparts": 3743,
      "OM": 3744,
      "Ġbrought": 3745,
      "=\\\\": 3746,
      "39": 3747,
      "ils": 3748,
      "Ġdrive": 3749,
      "more": 3750,
      "Ġanswer": 3751,
      "Ġgives": 3752,
      "Ġstreng": 3753,
      "ĠSy": 3754,
      "Ġdirectly": 3755,
      "Ġfa": 3756,
      "Ġsle": 3757,
      "Ġdire": 3758,
      "ĠOut": 3759,
      "Ġsaying": 3760,
      "eters": 3761,
      "Ġlocation": 3762,
      "Ġchoose": 3763,
      "Ġball": 3764,
      "ĠIndian": 3765,
      "Ð°Ð»": 3766,
      "====": 3767,
      "ero": 3768,
      "Ġcapital": 3769,
      "nWh": 3770,
      "Ġsituation": 3771,
      "Ġsuff": 3772,
      "Ġorganization": 3773,
      "ĠBusiness": 3774,
      "ened": 3775,
      "Ġencour": 3776,
      "Ġdecided": 3777,
      "ĠJames": 3778,
      "Ġliter": 3779,
      "ĠAnt": 3780,
      "mitted": 3781,
      "urt": 3782,
      "Ġteac": 3783,
      "Ġtrust": 3784,
      "EO": 3785,
      "Ġflow": 3786,
      "Ġscient": 3787,
      "Ġfair": 3788,
      "IM": 3789,
      "arily": 3790,
      "Ġblood": 3791,
      "Ġchoice": 3792,
      "Ġcollect": 3793,
      "enty": 3794,
      "section": 3795,
      "Ġcorrect": 3796,
      "Ġknew": 3797,
      "ĠPost": 3798,
      "Ġwide": 3799,
      "Ġchance": 3800,
      "Ġ60": 3801,
      "itect": 3802,
      "Ð¾Ð»": 3803,
      "ĠIsrael": 3804,
      "Ġaim": 3805,
      "Ġhear": 3806,
      "nf": 3807,
      "Ġskills": 3808,
      "arr": 3809,
      "Ġmilitary": 3810,
      "Ġscience": 3811,
      "75": 3812,
      "band": 3813,
      "isf": 3814,
      "ĠÐ´": 3815,
      "rast": 3816,
      "Ġeffects": 3817,
      "ĠHere": 3818,
      "ĠPort": 3819,
      "ĠIS": 3820,
      "Ġstructure": 3821,
      "Ġstudies": 3822,
      "Ġnation": 3823,
      "Ġones": 3824,
      "ĠRet": 3825,
      "iding": 3826,
      "Ġavoid": 3827,
      "Ġqual": 3828,
      "ÑģÐº": 3829,
      "Ġinnov": 3830,
      "ĠLet": 3831,
      "Ġyourself": 3832,
      "Ġfeature": 3833,
      "Ġmorning": 3834,
      "onent": 3835,
      "Ġremember": 3836,
      "ache": 3837,
      "Ġassociated": 3838,
      "Ġerror": 3839,
      "do": 3840,
      "apter": 3841,
      "48": 3842,
      "Ġallows": 3843,
      "Ġpopulation": 3844,
      "ulated": 3845,
      "igned": 3846,
      "ĠUs": 3847,
      "Ġdownload": 3848,
      "Ġcondition": 3849,
      "nown": 3850,
      "Ġacqu": 3851,
      "Ġlack": 3852,
      "Ġheard": 3853,
      "ãģ": 3854,
      "ros": 3855,
      "Ġ!": 3856,
      "CC": 3857,
      "Ġsal": 3858,
      "weet": 3859,
      "Ġaw": 3860,
      "ambda": 3861,
      "ste": 3862,
      "ĠFound": 3863,
      "Ġstatement": 3864,
      "Ġgiving": 3865,
      "Ġdetail": 3866,
      "ishing": 3867,
      "Data": 3868,
      "Ġstock": 3869,
      "></": 3870,
      "Ġplant": 3871,
      "Ġfeed": 3872,
      "uman": 3873,
      "Ġdirector": 3874,
      "Ġfrequ": 3875,
      "ĠProgram": 3876,
      "Ġdoor": 3877,
      "Ġschools": 3878,
      "ĠFriday": 3879,
      "nWith": 3880,
      "Ġhous": 3881,
      "ĠYear": 3882,
      "Ġoccur": 3883,
      "Ġplayer": 3884,
      "ĠGoogle": 3885,
      "Ġproviding": 3886,
      "mp": 3887,
      "ube": 3888,
      "Ġdark": 3889,
      "Ġdemand": 3890,
      "Ġbud": 3891,
      "Ġoption": 3892,
      "aper": 3893,
      "Ġbillion": 3894,
      "ategy": 3895,
      "IV": 3896,
      "Cont": 3897,
      "Ġprem": 3898,
      "Ġhappy": 3899,
      "ĠDan": 3900,
      "Ġfem": 3901,
      "Ġturned": 3902,
      "ternal": 3903,
      "Ġfirm": 3904,
      "ection": 3905,
      "ka": 3906,
      "PS": 3907,
      "ĠEduc": 3908,
      "Ġneigh": 3909,
      "comp": 3910,
      "Ġvoid": 3911,
      "Ġgets": 3912,
      "rad": 3913,
      "Ġcomfort": 3914,
      "Ġri": 3915,
      "aughter": 3916,
      "Ġrespond": 3917,
      "Ġachieve": 3918,
      "Ġter": 3919,
      "Ġhighly": 3920,
      "ĠGreen": 3921,
      "ston": 3922,
      "force": 3923,
      "istics": 3924,
      "ĠCong": 3925,
      "Ġphysical": 3926,
      "Ġprec": 3927,
      "return": 3928,
      "Ġded": 3929,
      "ipment": 3930,
      "Ġlimited": 3931,
      "Ġcam": 3932,
      "Ġnovel": 3933,
      "urrent": 3934,
      "men": 3935,
      "Ġwrote": 3936,
      "Ġstra": 3937,
      "Ġforce": 3938,
      "Ġtypes": 3939,
      "You": 3940,
      "Ġsuccessful": 3941,
      "ĠJack": 3942,
      "change": 3943,
      "Ġeyes": 3944,
      "Ġ==": 3945,
      "Ġdog": 3946,
      "64": 3947,
      "Ġmis": 3948,
      "Ġassess": 3949,
      "ĠAustralia": 3950,
      "Ġrecommend": 3951,
      "board": 3952,
      "met": 3953,
      "Ġincreasing": 3954,
      "Ġsurv": 3955,
      "199": 3956,
      "rial": 3957,
      "Ġcandid": 3958,
      "Ġvariety": 3959,
      "aturday": 3960,
      "Ġimages": 3961,
      "icip": 3962,
      "Ġconvers": 3963,
      "ĠReview": 3964,
      "fo": 3965,
      "05": 3966,
      "NA": 3967,
      "Ġspeed": 3968,
      "ĠRich": 3969,
      "bre": 3970,
      "ago": 3971,
      "Ġenter": 3972,
      "Ġeasily": 3973,
      "Ġdat": 3974,
      "rief": 3975,
      "ancy": 3976,
      "Ġclick": 3977,
      "ĠGreat": 3978,
      "Ġclub": 3979,
      "ĠWhite": 3980,
      "ĠAnn": 3981,
      "itz": 3982,
      "tered": 3983,
      "ĠChurch": 3984,
      "Ġimag": 3985,
      "ĠCompany": 3986,
      "Ġbound": 3987,
      "Ġprogress": 3988,
      "Ġdisease": 3989,
      "Ġdegree": 3990,
      "aby": 3991,
      "osition": 3992,
      "urd": 3993,
      "Ġmeasure": 3994,
      "ĠScience": 3995,
      "ĠGeneral": 3996,
      "Ġang": 3997,
      "Ġessential": 3998,
      "Ġaware": 3999,
      "CH": 4000,
      "aught": 4001,
      "ecause": 4002,
      "Ġwel": 4003,
      "ĠÐ½Ð°": 4004,
      "EM": 4005,
      "Ġlic": 4006,
      "bon": 4007,
      "ĠGet": 4008,
      "ĠTex": 4009,
      "hest": 4010,
      "ĠBen": 4011,
      "Ġcredit": 4012,
      "ĠPublic": 4013,
      "Ġsem": 4014,
      "Ġtemper": 4015,
      "itc": 4016,
      "Tr": 4017,
      "ĠĠĠĠĠĠĠĠĠĠĠĠĠĠĠĠĠĠĠĠĠĠĠ": 4018,
      "ibly": 4019,
      "ĠVol": 4020,
      "Ġbackground": 4021,
      "Ġparticularly": 4022,
      "Ġhuge": 4023,
      "Ġfamilies": 4024,
      "Ġarriv": 4025,
      "Ġlooked": 4026,
      "ĠItal": 4027,
      "ios": 4028,
      "Ġweight": 4029,
      "lick": 4030,
      "ynam": 4031,
      "Ġgrand": 4032,
      "Ġinform": 4033,
      "Ġil": 4034,
      "Ġdifference": 4035,
      "overy": 4036,
      "Ġsen": 4037,
      "Ġitems": 4038,
      "Ġincreased": 4039,
      "ults": 4040,
      "Ġtried": 4041,
      "Ġslow": 4042,
      "Ġpull": 4043,
      "ĠDevelop": 4044,
      "type": 4045,
      "Ġ||": 4046,
      "Qu": 4047,
      "Ġpiece": 4048,
      "mu": 4049,
      "Ġactivity": 4050,
      "Ġdream": 4051,
      "Ġbenefits": 4052,
      "Ġcomputer": 4053,
      "ĠAssociation": 4054,
      "using": 4055,
      "Ġbeyond": 4056,
      "Ġ2007": 4057,
      "ĠHall": 4058,
      "lands": 4059,
      "np": 4060,
      "aled": 4061,
      "orage": 4062,
      "Ġcentury": 4063,
      "_\\\\": 4064,
      "Ġ`": 4065,
      "Ð¾Ð³": 4066,
      "ech": 4067,
      "].": 4068,
      "Ġthinking": 4069,
      "Ġreach": 4070,
      "ĠRober": 4071,
      "onday": 4072,
      "Ġnumbers": 4073,
      "Ġbus": 4074,
      "ĠThom": 4075,
      "itude": 4076,
      "ĠSunday": 4077,
      "venue": 4078,
      "Ġunderstanding": 4079,
      "with": 4080,
      "ĠPress": 4081,
      "Ġsun": 4082,
      "ĠFacebook": 4083,
      "Ġindividuals": 4084,
      "Ġemployees": 4085,
      "Ġcompletely": 4086,
      "uration": 4087,
      "ĠInstitute": 4088,
      "Ġ31": 4089,
      "itable": 4090,
      "Ġap": 4091,
      "Ġgrowing": 4092,
      "rian": 4093,
      "Ġnearly": 4094,
      "Ġwife": 4095,
      "Ġsche": 4096,
      "imal": 4097,
      "Ġmeaning": 4098,
      "ĠService": 4099,
      "ĠMil": 4100,
      "arrow": 4101,
      "Ġmyself": 4102,
      "Ġnamed": 4103,
      "Ġfarm": 4104,
      "ius": 4105,
      "Ġexcell": 4106,
      "Ġsell": 4107,
      "Ġgreen": 4108,
      "Ġcateg": 4109,
      "Ġfalse": 4110,
      "ĠBoard": 4111,
      "Ġthous": 4112,
      "amma": 4113,
      "Ġtrade": 4114,
      "47": 4115,
      "berg": 4116,
      "data": 4117,
      "item": 4118,
      "ĠDel": 4119,
      "Ġult": 4120,
      "Ġstarting": 4121,
      "Ġaltern": 4122,
      "oday": 4123,
      "includ": 4124,
      "nAt": 4125,
      "Ġrace": 4126,
      "Ġcustomer": 4127,
      "itar": 4128,
      "undred": 4129,
      "Ġparam": 4130,
      "ken": 4131,
      "Ġgas": 4132,
      "65": 4133,
      "iant": 4134,
      "Ġtouch": 4135,
      "ĠMichael": 4136,
      "Ġload": 4137,
      "ula": 4138,
      "iation": 4139,
      "Ġbasis": 4140,
      "ĠPhil": 4141,
      "Ġtraditional": 4142,
      "Ġmount": 4143,
      "ĠJew": 4144,
      "Ġsometimes": 4145,
      "Ġearlier": 4146,
      "Ġroll": 4147,
      "ĠEv": 4148,
      "Ġplaces": 4149,
      "Ġstrateg": 4150,
      "Ġcontext": 4151,
      "View": 4152,
      "Ġallowed": 4153,
      "Ġcommercial": 4154,
      "?\\\"": 4155,
      "Ġspent": 4156,
      "ĠRead": 4157,
      "Ġcool": 4158,
      "ĠĠĠĠĠĠ": 4159,
      "ester": 4160,
      "Ġfully": 4161,
      "ĠDec": 4162,
      "mathbb": 4163,
      "Ġlargest": 4164,
      "ENT": 4165,
      "31": 4166,
      "lo": 4167,
      "Ġâ": 4168,
      "Ġbirth": 4169,
      "Ġearn": 4170,
      "Ġpromot": 4171,
      "ĠBer": 4172,
      "Ġwood": 4173,
      "Ġrefer": 4174,
      "Ġsave": 4175,
      "ĠMal": 4176,
      "inese": 4177,
      "Ġclients": 4178,
      "annel": 4179,
      "izes": 4180,
      "Ġbeginning": 4181,
      "ĠFrench": 4182,
      "Ġmodels": 4183,
      "IP": 4184,
      "acity": 4185,
      "ĠMart": 4186,
      "Ġchanged": 4187,
      "iance": 4188,
      "Ġmer": 4189,
      "ĠSur": 4190,
      "Ġsust": 4191,
      "IR": 4192,
      "Ġuses": 4193,
      "ĠKe": 4194,
      "Sh": 4195,
      "Ġemb": 4196,
      "ĠSol": 4197,
      "Ġselect": 4198,
      "lear": 4199,
      "rey": 4200,
      "inn": 4201,
      "ĠSuper": 4202,
      "49": 4203,
      "Ġgovern": 4204,
      "ously": 4205,
      "Ġexpert": 4206,
      "but": 4207,
      "Ġlif": 4208,
      "rig": 4209,
      "Ġmoving": 4210,
      "icon": 4211,
      "Ġconstruction": 4212,
      "za": 4213,
      "Ġlines": 4214,
      "Ġvoice": 4215,
      "OD": 4216,
      "Ġnote": 4217,
      "Ġvirt": 4218,
      "Ġsociety": 4219,
      "VID": 4220,
      "ĠMem": 4221,
      "Ġexcept": 4222,
      "Ġcivil": 4223,
      "\\\")": 4224,
      "Ġactive": 4225,
      "Ġcompared": 4226,
      "ĠAfrica": 4227,
      "Ġnormal": 4228,
      "Ġcharacters": 4229,
      "olf": 4230,
      "Ġpurpose": 4231,
      "mar": 4232,
      "ellig": 4233,
      "ait": 4234,
      "ÑĪ": 4235,
      "Ġhref": 4236,
      "ĠPlay": 4237,
      "Ġteams": 4238,
      "ÑĢÐµ": 4239,
      "ona": 4240,
      "ĠJournal": 4241,
      "Ġsolutions": 4242,
      "Ġworkers": 4243,
      "Ġcontinu": 4244,
      "Ġfine": 4245,
      "Ñİ": 4246,
      "ĠArch": 4247,
      "}_{": 4248,
      "To": 4249,
      "()\\": 4250,
      "Ġreports": 4251,
      "ĠMac": 4252,
      "Ġrules": 4253,
      "ĠOF": 4254,
      "ĠDemocr": 4255,
      "}^{": 4256,
      "\\\".\\": 4257,
      "Ġcalc": 4258,
      "Ġapply": 4259,
      "Ġcarry": 4260,
      "eria": 4261,
      "ĠDirector": 4262,
      "Ġdaily": 4263,
      "ĠEngland": 4264,
      "Ġmoved": 4265,
      "Ġclin": 4266,
      "AG": 4267,
      "Ġvan": 4268,
      "yp": 4269,
      "Ġregist": 4270,
      "Ġmaterials": 4271,
      "Ġdro": 4272,
      "respond": 4273,
      "Ġremain": 4274,
      "ĠWind": 4275,
      "Ġserved": 4276,
      "Ġcopy": 4277,
      "Ġcreating": 4278,
      "Ġlength": 4279,
      "ĠÃł": 4280,
      "ĠServices": 4281,
      "ronic": 4282,
      "UL": 4283,
      "Ġcollabor": 4284,
      "Ġdied": 4285,
      "ĠÂ£": 4286,
      "ĠHome": 4287,
      "ĠTexas": 4288,
      "Ġdescribed": 4289,
      "Ġinvestment": 4290,
      "Ġbusinesses": 4291,
      "nthe": 4292,
      "ĠDef": 4293,
      "ii": 4294,
      "Ġeval": 4295,
      "hips": 4296,
      "Ġsend": 4297,
      "Ġfinally": 4298,
      "hens": 4299,
      "icine": 4300,
      "ĠBel": 4301,
      "iers": 4302,
      "place": 4303,
      "lay": 4304,
      "TM": 4305,
      "ĠMag": 4306,
      "Ġcancer": 4307,
      "ĠCommit": 4308,
      "Ġopportunities": 4309,
      "He": 4310,
      "ervation": 4311,
      "Ġpen": 4312,
      "II": 4313,
      "pec": 4314,
      "estival": 4315,
      "ĠCommission": 4316,
      "ĠSaturday": 4317,
      "coming": 4318,
      "Ġfederal": 4319,
      "phi": 4320,
      "porary": 4321,
      "Ġestim": 4322,
      "gl": 4323,
      "ĠMost": 4324,
      "ander": 4325,
      "ampions": 4326,
      "ĠSub": 4327,
      "itely": 4328,
      "Ġmechan": 4329,
      "param": 4330,
      "Ġgold": 4331,
      "nAfter": 4332,
      "Ġappropri": 4333,
      "gar": 4334,
      "ulate": 4335,
      "Sc": 4336,
      "Ġexactly": 4337,
      "oms": 4338,
      "rt": 4339,
      "Ġplanning": 4340,
      "Ġfans": 4341,
      "arden": 4342,
      "Ġtransport": 4343,
      "ota": 4344,
      "Ġfloor": 4345,
      "Ġtim": 4346,
      "mm": 4347,
      "house": 4348,
      "Ġexhib": 4349,
      "Ġsurface": 4350,
      "Ġfresh": 4351,
      "oyal": 4352,
      "cd": 4353,
      "code": 4354,
      "Ġorigin": 4355,
      "aling": 4356,
      "ĠRoad": 4357,
      "Ġdouble": 4358,
      "Ġemot": 4359,
      "encies": 4360,
      "ĠCam": 4361,
      "Ġinsurance": 4362,
      "ĠOffice": 4363,
      "string": 4364,
      "ca": 4365,
      "Ġalthough": 4366,
      "09": 4367,
      "Ġestablished": 4368,
      "Ġtools": 4369,
      "ĠBest": 4370,
      "lor": 4371,
      "Ġ%": 4372,
      "rupt": 4373,
      "amily": 4374,
      "Ġthrow": 4375,
      "Col": 4376,
      "Ġamazing": 4377,
      "Ġanti": 4378,
      "04": 4379,
      "ĠUSA": 4380,
      "ĠGold": 4381,
      "iring": 4382,
      "ĠAngel": 4383,
      "ya": 4384,
      "ĠMary": 4385,
      "Ġfavorite": 4386,
      "Ġstrugg": 4387,
      "ĠMusic": 4388,
      "isation": 4389,
      "),\\": 4390,
      "aste": 4391,
      "sey": 4392,
      "ĠLeg": 4393,
      "Ġconv": 4394,
      "Ġfollowed": 4395,
      "Ġpaid": 4396,
      "porate": 4397,
      "07": 4398,
      "Ġstatus": 4399,
      "As": 4400,
      "ĠMonday": 4401,
      "ĠFil": 4402,
      "Ġcontain": 4403,
      "Ġtransfer": 4404,
      "ĠRel": 4405,
      "Ġsy": 4406,
      "ancing": 4407,
      "ĠBank": 4408,
      "state": 4409,
      "Ġsatisf": 4410,
      "ĠBre": 4411,
      "Ġinterested": 4412,
      "Ġmethods": 4413,
      "Ġprimary": 4414,
      "Ġepis": 4415,
      "ĠMat": 4416,
      "Ġrestaur": 4417,
      "ustr": 4418,
      "ĠLife": 4419,
      "Ġclient": 4420,
      "Ġmarketing": 4421,
      "nAll": 4422,
      "Ġpattern": 4423,
      "ĠClass": 4424,
      "Ġefforts": 4425,
      "ĠST": 4426,
      "Ġexpand": 4427,
      "ĠChristian": 4428,
      "ĠĠĠĠĠĠĠĠĠĠĠĠĠĠĠĠĠĠĠĠĠĠĠĠĠĠĠĠĠĠĠĠ": 4429,
      "ĠPlan": 4430,
      "iller": 4431,
      "reate": 4432,
      "gu": 4433,
      "Ġapplications": 4434,
      "Ġvill": 4435,
      "akers": 4436,
      "Ġspirit": 4437,
      "ĠEvery": 4438,
      "-\\\\": 4439,
      "Ġmiddle": 4440,
      "Ġdrink": 4441,
      "Ġple": 4442,
      "ocol": 4443,
      "Ġdemonstr": 4444,
      "Ġcast": 4445,
      "ĠEven": 4446,
      "Ġnice": 4447,
      "ipl": 4448,
      "Ġcert": 4449,
      "nOne": 4450,
      "atively": 4451,
      "Ġconsult": 4452,
      "Ġunit": 4453,
      "vere": 4454,
      "Ġaspect": 4455,
      "02": 4456,
      "Ġmap": 4457,
      "ĠCr": 4458,
      "Ġwall": 4459,
      "ĠSing": 4460,
      "ĠAM": 4461,
      "Ġcollege": 4462,
      "ĠEducation": 4463,
      "olic": 4464,
      "46": 4465,
      "Ġnames": 4466,
      "Value": 4467,
      "term": 4468,
      "Ġmovement": 4469,
      "Ġpressure": 4470,
      "ĠFlor": 4471,
      "78": 4472,
      "ato": 4473,
      "irus": 4474,
      "inner": 4475,
      "Ġseven": 4476,
      "?\\\"\\": 4477,
      "59": 4478,
      "Ġcritical": 4479,
      "rix": 4480,
      "Ġ2006": 4481,
      "reci": 4482,
      "Ġconstant": 4483,
      "Ġalone": 4484,
      "**\\": 4485,
      "ework": 4486,
      "tained": 4487,
      "ifying": 4488,
      "iences": 4489,
      "ĠPM": 4490,
      "onents": 4491,
      "mary": 4492,
      "Ġstream": 4493,
      "uesday": 4494,
      "Ġskin": 4495,
      "ĠOver": 4496,
      "ÑĤÐ°": 4497,
      "icated": 4498,
      "Re": 4499,
      "Ġcitiz": 4500,
      "ÑĢÐ¸": 4501,
      "ÐµÐ»": 4502,
      "Ġdeliver": 4503,
      "Ġshoot": 4504,
      ".)": 4505,
      "Ġgreater": 4506,
      "point": 4507,
      "Ġcontinued": 4508,
      "Ġhundred": 4509,
      "aran": 4510,
      "Ġquarter": 4511,
      "Ġelements": 4512,
      "Ġcommunities": 4513,
      "ounds": 4514,
      "ĠJer": 4515,
      "Ġfeet": 4516,
      "ĠGeorge": 4517,
      "ursday": 4518,
      "Ġur": 4519,
      "ednes": 4520,
      "ĠFore": 4521,
      "Ġforeign": 4522,
      "align": 4523,
      "nRe": 4524,
      "********": 4525,
      "ĠSee": 4526,
      "Ġhappened": 4527,
      "ĠOther": 4528,
      "ĠSam": 4529,
      "Ð¾Ð½": 4530,
      "Ġhour": 4531,
      "rd": 4532,
      "Ġwants": 4533,
      "SS": 4534,
      "!\"}": 4535,
      "----------------": 4536,
      "Ġclimate": 4537,
      "Ġserve": 4538,
      "Ġcertainly": 4539,
      "igr": 4540,
      "Ġspect": 4541,
      "Ġequipment": 4542,
      "ae": 4543,
      "................": 4544,
      "Ġcells": 4545,
      "ĠFranc": 4546,
      "nEx": 4547,
      "ĠChinese": 4548,
      "Ġsites": 4549,
      "vention": 4550,
      "Ġleader": 4551,
      "net": 4552,
      "Ġsequ": 4553,
      "Ġcry": 4554,
      "Ġestablish": 4555,
      "ologies": 4556,
      "Ġtal": 4557,
      "Ġopin": 4558,
      "Ġwild": 4559,
      "08": 4560,
      "Ġhelped": 4561,
      "Ġbrother": 4562,
      "Ġproced": 4563,
      "Ġwarm": 4564,
      "Ġsetting": 4565,
      "agon": 4566,
      "Ġshot": 4567,
      "Ġrequirements": 4568,
      "^{\\\\": 4569,
      "Ġadvant": 4570,
      "Ġpassed": 4571,
      "ĠMet": 4572,
      "path": 4573,
      "Ġfear": 4574,
      "ĠWell": 4575,
      "print": 4576,
      "Ġmobile": 4577,
      "istan": 4578,
      "Ġoverall": 4579,
      "Ġbenefit": 4580,
      "ĠLou": 4581,
      "Ġdang": 4582,
      "ulf": 4583,
      "ashion": 4584,
      "mathbf": 4585,
      "ady": 4586,
      "inate": 4587,
      "Ġproduced": 4588,
      "ĠÐ¼": 4589,
      "Ġchallenge": 4590,
      "$\\": 4591,
      "ĠGood": 4592,
      "IA": 4593,
      "uty": 4594,
      "Ġgra": 4595,
      "ĠGovernment": 4596,
      "Ġtick": 4597,
      "ĠChild": 4598,
      "ĠÐ³": 4599,
      "iny": 4600,
      "Ġstuff": 4601,
      "Ġexisting": 4602,
      "ĠCap": 4603,
      "Ġrates": 4604,
      "Ð¶": 4605,
      "ĠCommittee": 4606,
      "Ġoperations": 4607,
      "Ġcentral": 4608,
      "Ġelement": 4609,
      "ĠAP": 4610,
      "ednesday": 4611,
      "Ġsale": 4612,
      "ano": 4613,
      "andom": 4614,
      "Ġquant": 4615,
      "Ġappoint": 4616,
      "Ġpicture": 4617,
      "agram": 4618,
      "ĠRob": 4619,
      "ooth": 4620,
      "Ã©s": 4621,
      "Ġsch": 4622,
      "Ġspread": 4623,
      "Ġpeace": 4624,
      "lig": 4625,
      "Ġeconomy": 4626,
      "ÅĤ": 4627,
      "ipe": 4628,
      "osh": 4629,
      "ĠSa": 4630,
      "Ġmicro": 4631,
      "Ġ{\\\\": 4632,
      "Ġabsol": 4633,
      "Ġimmediately": 4634,
      "ĠÐ·": 4635,
      "Ġcharge": 4636,
      "Ġannual": 4637,
      "eful": 4638,
      "Ġiniti": 4639,
      "Ġshared": 4640,
      "CA": 4641,
      "ocation": 4642,
      "Ġletter": 4643,
      "Ġlimit": 4644,
      "Ġbudget": 4645,
      "actions": 4646,
      "levant": 4647,
      "pective": 4648,
      "miss": 4649,
      "Ġeight": 4650,
      "ications": 4651,
      "ferences": 4652,
      "Ġcas": 4653,
      "Ġpolic": 4654,
      "\\\");\\": 4655,
      "top": 4656,
      "ĠString": 4657,
      "word": 4658,
      "Ġjournal": 4659,
      "Ġapprox": 4660,
      "ĠManagement": 4661,
      "oma": 4662,
      "ĠBay": 4663,
      "Ġinput": 4664,
      "iled": 4665,
      "fered": 4666,
      "Ob": 4667,
      "ĠJes": 4668,
      "ette": 4669,
      "ĠChristmas": 4670,
      "rive": 4671,
      "Ġconnection": 4672,
      "],": 4673,
      "ourney": 4674,
      "Ġchem": 4675,
      "Ġtherefore": 4676,
      "Ġcru": 4677,
      "Ġpsych": 4678,
      "Ġperhaps": 4679,
      "ĠCongress": 4680,
      "Ġtrip": 4681,
      "ilde": 4682,
      "Ġpoor": 4683,
      "03": 4684,
      "ella": 4685,
      "roy": 4686,
      "06": 4687,
      "ĠStr": 4688,
      "Ġdoll": 4689,
      "rapy": 4690,
      "Ġremains": 4691,
      "care": 4692,
      "Ġresponsible": 4693,
      "ĠMiss": 4694,
      "Ġsurround": 4695,
      "Ġ.\\": 4696,
      "ĠSal": 4697,
      "OC": 4698,
      "}.": 4699,
      "Ġmill": 4700,
      "eared": 4701,
      "Ġtalking": 4702,
      "ria": 4703,
      "Ġpresented": 4704,
      "Ġgraph": 4705,
      "Ġelectric": 4706,
      "Un": 4707,
      "88": 4708,
      "Ġreduce": 4709,
      "ĠHistory": 4710,
      "Ġstrategy": 4711,
      "Ġlarger": 4712,
      "Ġhelps": 4713,
      "Ġbasic": 4714,
      "Ġexerc": 4715,
      "ĠDevelopment": 4716,
      "Ġmagn": 4717,
      "well": 4718,
      "ĠMod": 4719,
      "atever": 4720,
      "ĠRiver": 4721,
      "irgin": 4722,
      "56": 4723,
      "mod": 4724,
      "Ġpurchase": 4725,
      "Ġartist": 4726,
      "orial": 4727,
      "eline": 4728,
      "Ġreasons": 4729,
      "ĠPeople": 4730,
      "Ġorganizations": 4731,
      "Ġpow": 4732,
      "Ġgoals": 4733,
      "Ġstraight": 4734,
      "Ġaccur": 4735,
      "Ġcorrespond": 4736,
      "anned": 4737,
      "Ġfigure": 4738,
      "Ġahead": 4739,
      "Ġjoin": 4740,
      "Ġpredict": 4741,
      "bo": 4742,
      "Ġ2000": 4743,
      "ĠSince": 4744,
      "Ġmaybe": 4745,
      "ĠAtt": 4746,
      "http": 4747,
      "edy": 4748,
      "Im": 4749,
      "Ġoffered": 4750,
      "Ġcomments": 4751,
      "Ġindependent": 4752,
      "Ġchurch": 4753,
      "ulture": 4754,
      "Ġwait": 4755,
      "edom": 4756,
      "Ġwish": 4757,
      "Ġgrant": 4758,
      "nOur": 4759,
      "57": 4760,
      "ĠTime": 4761,
      "Ġenh": 4762,
      "ĠBig": 4763,
      "ĠIntern": 4764,
      "Ġspot": 4765,
      "ĠStar": 4766,
      "Ġfeeling": 4767,
      "Ġ)": 4768,
      "Ġtruth": 4769,
      "Ġhair": 4770,
      "Ġcouldn": 4771,
      "Ġmachine": 4772,
      "Ġobvious": 4773,
      "ĠRock": 4774,
      "Ġthus": 4775,
      "Ġacadem": 4776,
      "iques": 4777,
      "($": 4778,
      "Ġpatient": 4779,
      "Ġmission": 4780,
      "Ġgun": 4781,
      "ĠConst": 4782,
      "ĠBill": 4783,
      "Ġexcellent": 4784,
      "OP": 4785,
      "Ġeth": 4786,
      "Ġscen": 4787,
      "ĠSociety": 4788,
      "Ġir": 4789,
      "Ġproduce": 4790,
      "Ġopening": 4791,
      "lambda": 4792,
      "Ġmiles": 4793,
      "ĠOpen": 4794,
      "Ġhighest": 4795,
      "Tok": 4796,
      "nPro": 4797,
      "cel": 4798,
      "Ġowners": 4799,
      "ĠFrance": 4800,
      "Ġbill": 4801,
      "beta": 4802,
      "ivery": 4803,
      "Ġactual": 4804,
      "ĠID": 4805,
      "file": 4806,
      "ĠRem": 4807,
      "Ġchallenges": 4808,
      "Ġincome": 4809,
      "MS": 4810,
      "gn": 4811,
      "udd": 4812,
      "ĠSocial": 4813,
      "Ġpet": 4814,
      "ĠAv": 4815,
      "Ġstation": 4816,
      "Ġtrain": 4817,
      "Ġlab": 4818,
      "ĠCamp": 4819,
      "Ġsecret": 4820,
      ".'": 4821,
      "Ġsector": 4822,
      "Ġelection": 4823,
      "58": 4824,
      "bert": 4825,
      "Ġprices": 4826,
      "ĠTuesday": 4827,
      "ĠReport": 4828,
      "Ġsav": 4829,
      "Ġpowerful": 4830,
      "soft": 4831,
      "gs": 4832,
      "ĠAlex": 4833,
      "Ġconfig": 4834,
      "ĠHam": 4835,
      "Ġcontroll": 4836,
      "atus": 4837,
      "Ġsports": 4838,
      "ĠAlso": 4839,
      "Ġharm": 4840,
      "Ġdram": 4841,
      "ini": 4842,
      "42": 4843,
      "Ġpages": 4844,
      "azon": 4845,
      "ruit": 4846,
      "efore": 4847,
      "ĠFe": 4848,
      "Ġvehicle": 4849,
      "Ġscene": 4850,
      "Ġfram": 4851,
      "Ġdefined": 4852,
      "Ġtoward": 4853,
      "etry": 4854,
      "Ġlegis": 4855,
      "Ġcompleted": 4856,
      "New": 4857,
      "Ġhar": 4858,
      "ĠFoundation": 4859,
      "Ã³n": 4860,
      "];\\": 4861,
      "test": 4862,
      "Ġreality": 4863,
      "known": 4864,
      "UN": 4865,
      "Ġoutput": 4866,
      "Ġrepe": 4867,
      "outhern": 4868,
      "imb": 4869,
      "ĠFlorida": 4870,
      "Ġhus": 4871,
      "Ġinstance": 4872,
      "Ġsupply": 4873,
      "osis": 4874,
      "ĠQue": 4875,
      "ĠThursday": 4876,
      "nThat": 4877,
      "ructure": 4878,
      "ĠTom": 4879,
      "Ġdamage": 4880,
      "Ġrob": 4881,
      "Ind": 4882,
      "Ġentry": 4883,
      "Ġwat": 4884,
      "ĠSmith": 4885,
      "nMy": 4886,
      "BA": 4887,
      "sm": 4888,
      "Ġfactors": 4889,
      "Ġdim": 4890,
      "ĠTwitter": 4891,
      "Ġvalid": 4892,
      "Ġunc": 4893,
      "Ġdirection": 4894,
      "azine": 4895,
      "ĠMo": 4896,
      "RA": 4897,
      "Ġ2005": 4898,
      "ĠWeb": 4899,
      "lock": 4900,
      "Ġsmart": 4901,
      "ĠWhy": 4902,
      "Ġhospital": 4903,
      "ĠCare": 4904,
      "standing": 4905,
      "Ġappreci": 4906,
      "Ġvacc": 4907,
      "ĠClub": 4908,
      "Ġclaims": 4909,
      "ĠProject": 4910,
      "Ġplus": 4911,
      "Ġblue": 4912,
      "Ġvote": 4913,
      "ĠMarket": 4914,
      "Ġshowed": 4915,
      "edia": 4916,
      "ilon": 4917,
      "ĠData": 4918,
      "Ġrecords": 4919,
      "Ġreflect": 4920,
      "Ġgone": 4921,
      "66": 4922,
      "Ġagree": 4923,
      "ĠUN": 4924,
      "Ġerr": 4925,
      "Ġdepend": 4926,
      "500": 4927,
      "semb": 4928,
      "eds": 4929,
      "Ġmulti": 4930,
      "win": 4931,
      "ĠTop": 4932,
      "Ġrule": 4933,
      "Ġprofession": 4934,
      "sigma": 4935,
      "ervice": 4936,
      "Ġparties": 4937,
      "Ġfootball": 4938,
      "ĠUnder": 4939,
      "usion": 4940,
      "Ġmemory": 4941,
      "An": 4942,
      "TS": 4943,
      "Ġpaint": 4944,
      "ario": 4945,
      "Ġrat": 4946,
      "ĠAut": 4947,
      "ctors": 4948,
      "Ġarchitect": 4949,
      "ĠMinister": 4950,
      "ĠNet": 4951,
      "Ġbeg": 4952,
      "Ġloved": 4953,
      "nNew": 4954,
      "77": 4955,
      "âĢ¢": 4956,
      "fficient": 4957,
      "ĠLeague": 4958,
      "ĠEr": 4959,
      "Ġjobs": 4960,
      "Ġtrend": 4961,
      "DA": 4962,
      "Ġmix": 4963,
      "ĠÂ»": 4964,
      "Ġphoto": 4965,
      "anta": 4966,
      "BS": 4967,
      "Ġprotection": 4968,
      "Ġles": 4969,
      "active": 4970,
      "ĠPlease": 4971,
      "array": 4972,
      "ĠTimes": 4973,
      "Ġguide": 4974,
      "Ġspend": 4975,
      "Ġagreement": 4976,
      "ĠCOVID": 4977,
      "Ġheat": 4978,
      "Ġappropriate": 4979,
      "ĠWednesday": 4980,
      "Ġwindow": 4981,
      "uit": 4982,
      "value": 4983,
      "Ġassum": 4984,
      "Ġadopt": 4985,
      "Ġdevices": 4986,
      "Ġsleep": 4987,
      "ĠHill": 4988,
      "ĠUnion": 4989,
      "sk": 4990,
      "Ġaudience": 4991,
      "Ġattend": 4992,
      "Ġeye": 4993,
      "Â»": 4994,
      "iling": 4995,
      "Ġdefinitely": 4996,
      "Ġbecomes": 4997,
      "asy": 4998,
      "ĠSk": 4999,
      "Ġnotice": 5000,
      "lt": 5001,
      "Ġspecies": 5002,
      "itness": 5003,
      "ĠSum": 5004,
      "ĠMex": 5005,
      "ĠMuseum": 5006,
      "ĠAfrican": 5007,
      "Ġregarding": 5008,
      "och": 5009,
      "Ġrequires": 5010,
      "../../": 5011,
      "ĠMad": 5012,
      "Get": 5013,
      "nSh": 5014,
      "clusion": 5015,
      "ipp": 5016,
      "Ġglass": 5017,
      "Ġbiggest": 5018,
      "emic": 5019,
      "Ġrap": 5020,
      "Ġproperties": 5021,
      "Ġpartner": 5022,
      "Ġlaunch": 5023,
      "Ġstrength": 5024,
      "43": 5025,
      "itchen": 5026,
      "Ġpreviously": 5027,
      "Ġcapacity": 5028,
      "ĠSun": 5029,
      "ĠUp": 5030,
      "antic": 5031,
      "Ġcalls": 5032,
      "Ġtheory": 5033,
      "inct": 5034,
      "Ġmaster": 5035,
      "icago": 5036,
      "ĠSl": 5037,
      "empl": 5038,
      "ĠAward": 5039,
      "Ġtransform": 5040,
      "ĠDesign": 5041,
      "abase": 5042,
      "ÐµÑĤ": 5043,
      "Ġpush": 5044,
      "Ġtrial": 5045,
      "Ġlock": 5046,
      "Ġtruly": 5047,
      "Ġsources": 5048,
      "bf": 5049,
      "Ġprop": 5050,
      "Ġbrain": 5051,
      "Ġleadership": 5052,
      "Ġfiles": 5053,
      "ĠEconom": 5054,
      "Ġsustain": 5055,
      "Ġgenerally": 5056,
      "Ġstatic": 5057,
      "Ġadvert": 5058,
      "Ġforms": 5059,
      "ita": 5060,
      "opping": 5061,
      "Ġselected": 5062,
      "Ġexpress": 5063,
      "nWhile": 5064,
      "ĠHel": 5065,
      "anda": 5066,
      "atre": 5067,
      "Ġsongs": 5068,
      "Ġartists": 5069,
      "Ġdisapp": 5070,
      "ĠRobert": 5071,
      "itors": 5072,
      "ena": 5073,
      "Ġpm": 5074,
      "ĠMicro": 5075,
      "Ġphotos": 5076,
      "orrow": 5077,
      "Ġreb": 5078,
      "Ġkept": 5079,
      "Ġlearned": 5080,
      "osure": 5081,
      "Ġdaughter": 5082,
      "):\\": 5083,
      "Ġtrou": 5084,
      "levision": 5085,
      "Ġfaith": 5086,
      "orthern": 5087,
      "Ġofficials": 5088,
      "inger": 5089,
      "Ġlaun": 5090,
      "ĠList": 5091,
      "icks": 5092,
      "ĠDistrict": 5093,
      "For": 5094,
      "Ġopened": 5095,
      "mail": 5096,
      "Ġattract": 5097,
      "nShe": 5098,
      "Ġfunding": 5099,
      "gency": 5100,
      "CT": 5101,
      "Ġguid": 5102,
      "Ġvs": 5103,
      "IF": 5104,
      "width": 5105,
      "Ġsolid": 5106,
      "Is": 5107,
      "ĠAcadem": 5108,
      "Ġpoll": 5109,
      "atically": 5110,
      "perty": 5111,
      "ĠMany": 5112,
      "rowd": 5113,
      "cher": 5114,
      "Ġdynam": 5115,
      "ĠKore": 5116,
      "Ġviews": 5117,
      "link": 5118,
      "Ġoccas": 5119,
      "Ġproposed": 5120,
      "Ġcompar": 5121,
      "ĠThomas": 5122,
      "SP": 5123,
      "Ġscale": 5124,
      "Ġclosed": 5125,
      "Ġadjust": 5126,
      "OW": 5127,
      "big": 5128,
      "lis": 5129,
      "ĠFree": 5130,
      "Ġcounter": 5131,
      "Ġ?": 5132,
      "Ġsteps": 5133,
      "Ġuseful": 5134,
      "If": 5135,
      "Ġupdate": 5136,
      "Ġcat": 5137,
      "Ġcontinues": 5138,
      "Ġadvice": 5139,
      "fra": 5140,
      "Ġoffering": 5141,
      "ĠCarol": 5142,
      "ĠIsland": 5143,
      ".[": 5144,
      "Ġmajority": 5145,
      "ĠHot": 5146,
      "grad": 5147,
      "Ġarray": 5148,
      "FL": 5149,
      "apers": 5150,
      "Ġrelevant": 5151,
      "ÑĦ": 5152,
      "ĠScott": 5153,
      "tif": 5154,
      "Ġign": 5155,
      "Ġfunctions": 5156,
      "Ġvictim": 5157,
      "ĠOh": 5158,
      "Ġrank": 5159,
      "Ġpresence": 5160,
      "ĠProfess": 5161,
      "Ġcris": 5162,
      "ĠLat": 5163,
      "Ġmeant": 5164,
      "Ġdeveloping": 5165,
      "Ġing": 5166,
      "().": 5167,
      "SE": 5168,
      "Ð½Ð°": 5169,
      "\\\",\\": 5170,
      "Ġfant": 5171,
      "reek": 5172,
      "yer": 5173,
      "Ġcash": 5174,
      "Ġdetermine": 5175,
      "ĠCentral": 5176,
      "Ġslight": 5177,
      "ãĤ": 5178,
      "Ġthank": 5179,
      "Ġstress": 5180,
      "osted": 5181,
      "Ġaren": 5182,
      "Ġdistribution": 5183,
      "ĠBu": 5184,
      "uated": 5185,
      "look": 5186,
      "Ġinsp": 5187,
      "Ġ90": 5188,
      "Ġkilled": 5189,
      "Ġdespite": 5190,
      "));\\": 5191,
      "Ġhusband": 5192,
      "54": 5193,
      "ĠIns": 5194,
      "aming": 5195,
      "Ġprefer": 5196,
      "Ġorg": 5197,
      "cell": 5198,
      "ania": 5199,
      "Ġentertain": 5200,
      "Ã§": 5201,
      "ĠLand": 5202,
      "under": 5203,
      "And": 5204,
      "ĠFrank": 5205,
      "ĠCD": 5206,
      "ĠHuman": 5207,
      "Ġhelping": 5208,
      "Ġbehavior": 5209,
      "Ġscore": 5210,
      "ĠWomen": 5211,
      "ĠInternet": 5212,
      "orter": 5213,
      "Ġcontains": 5214,
      "unte": 5215,
      "Ġfollows": 5216,
      "Ġrow": 5217,
      "Ġseeing": 5218,
      "ĠForm": 5219,
      "Ġraised": 5220,
      "Ġappears": 5221,
      "Ġposted": 5222,
      "ĠDiv": 5223,
      "Ġexperiences": 5224,
      "Ġanc": 5225,
      "Ġjourney": 5226,
      "ĠMount": 5227,
      "Ġcaused": 5228,
      "hi": 5229,
      "Ġcatch": 5230,
      "estic": 5231,
      "Ġspl": 5232,
      "Ġrestrict": 5233,
      "ĠGrand": 5234,
      "roud": 5235,
      "ĠParty": 5236,
      "Ġcultural": 5237,
      "Ġconference": 5238,
      "PA": 5239,
      "Ġactions": 5240,
      "abilities": 5241,
      "Ġrent": 5242,
      "const": 5243,
      "Ġfamous": 5244,
      "Ġcompetition": 5245,
      "uled": 5246,
      "eless": 5247,
      "Ġbottom": 5248,
      "ĠGerman": 5249,
      "nel": 5250,
      "riage": 5251,
      "Ġhomes": 5252,
      "ĠCommunity": 5253,
      "Ġcold": 5254,
      "Ġperformed": 5255,
      "ĠWil": 5256,
      "essage": 5257,
      "ĠMa": 5258,
      "char": 5259,
      "Ġ80": 5260,
      "Ġeat": 5261,
      "ĠRad": 5262,
      "ĠÂ«": 5263,
      "ni": 5264,
      "eps": 5265,
      "Ġindex": 5266,
      "which": 5267,
      "hand": 5268,
      "anging": 5269,
      "Ġenvironmental": 5270,
      "Ġpros": 5271,
      "Ġadministration": 5272,
      "clusive": 5273,
      "ani": 5274,
      "bour": 5275,
      "Ġhealthy": 5276,
      "abled": 5277,
      "ĠÐ±": 5278,
      "going": 5279,
      "Ġresist": 5280,
      "ĠTre": 5281,
      "Ġolder": 5282,
      "Ġitem": 5283,
      "Ġsenior": 5284,
      "Ġ2004": 5285,
      "Ġclearly": 5286,
      "edding": 5287,
      "ega": 5288,
      "41": 5289,
      "Ġinfluence": 5290,
      "ĠWeek": 5291,
      "ĠGermany": 5292,
      "ĠBi": 5293,
      "phone": 5294,
      "+\\\\": 5295,
      "ĠVirgin": 5296,
      "Ġstandards": 5297,
      "ĠMedia": 5298,
      "95": 5299,
      "Ġda": 5300,
      "Ġrare": 5301,
      "ECT": 5302,
      "gment": 5303,
      "ĠTor": 5304,
      "Ġwouldn": 5305,
      "ĠCanad": 5306,
      "oving": 5307,
      "Ġonto": 5308,
      "ĠEngine": 5309,
      "^{-": 5310,
      "Ġ(\\\\": 5311,
      "Ġweekend": 5312,
      "What": 5313,
      "oute": 5314,
      "inding": 5315,
      "Ġsession": 5316,
      "orney": 5317,
      "ĠEarth": 5318,
      "Ġnorth": 5319,
      "Ġsouth": 5320,
      "Ġmist": 5321,
      "ffee": 5322,
      "ĠTur": 5323,
      "Ġheavy": 5324,
      "Ġserver": 5325,
      "ĠLos": 5326,
      "App": 5327,
      "Ġcreative": 5328,
      "Ġgar": 5329,
      "Ġreference": 5330,
      "Ġearth": 5331,
      "Ġcommand": 5332,
      "ĠJul": 5333,
      "Ġincred": 5334,
      "Ġdetect": 5335,
      "Ġreached": 5336,
      "Ġstorage": 5337,
      "nand": 5338,
      "requ": 5339,
      "ĠBrown": 5340,
      "ÑĤÐ¸": 5341,
      "Ġoperation": 5342,
      "Ġexperienced": 5343,
      "2019": 5344,
      "po": 5345,
      "ĠâĢ¢": 5346,
      "asure": 5347,
      "Ġtesting": 5348,
      "ĠSil": 5349,
      "Ġsea": 5350,
      "ĠDet": 5351,
      "Ġweather": 5352,
      "Man": 5353,
      "Ġgeneration": 5354,
      "Ġmentioned": 5355,
      "Ġfan": 5356,
      "Ġselection": 5357,
      "Ġjoined": 5358,
      "Al": 5359,
      "Ġutil": 5360,
      "Ġthanks": 5361,
      "Ġadapt": 5362,
      "Ġdistance": 5363,
      "ffect": 5364,
      "lict": 5365,
      "Ġextremely": 5366,
      "idden": 5367,
      "enses": 5368,
      "Ġcommunication": 5369,
      "Ġseemed": 5370,
      "road": 5371,
      "Ġflu": 5372,
      "ĠRussia": 5373,
      "Ġmanager": 5374,
      "pret": 5375,
      "SA": 5376,
      "dule": 5377,
      "Ġbaby": 5378,
      "Ġcore": 5379,
      "level": 5380,
      "Ġrise": 5381,
      "ua": 5382,
      "Ġreturned": 5383,
      "Object": 5384,
      "ented": 5385,
      "Ġafford": 5386,
      "bed": 5387,
      "writ": 5388,
      "Ġforces": 5389,
      "zen": 5390,
      "Ġsigned": 5391,
      "Ġconcent": 5392,
      "Ġpractices": 5393,
      "Ġtend": 5394,
      "ĠAny": 5395,
      "Ġconstruct": 5396,
      "PR": 5397,
      "Ġplaced": 5398,
      "ĠFig": 5399,
      "ãĥ": 5400,
      "ĠAND": 5401,
      "Ġnuc": 5402,
      "igation": 5403,
      "ĠPeter": 5404,
      "Ġsexual": 5405,
      "Ġrich": 5406,
      "Ġfinding": 5407,
      "ĠMer": 5408,
      "Ġdiagn": 5409,
      "ĠJo": 5410,
      "Ġnom": 5411,
      "ĠWestern": 5412,
      "Ġotherwise": 5413,
      "Ġwonderful": 5414,
      "Ġradio": 5415,
      "Ġfol": 5416,
      "Ġ35": 5417,
      "osen": 5418,
      "lem": 5419,
      "68": 5420,
      "Le": 5421,
      "Ġcrim": 5422,
      "Ġpolicies": 5423,
      "burg": 5424,
      "ĠIT": 5425,
      "Ġcovered": 5426,
      "Ġdriving": 5427,
      "ribute": 5428,
      "ribe": 5429,
      "ĠInformation": 5430,
      "Ġfunds": 5431,
      "igen": 5432,
      "ĠIr": 5433,
      "Ġsomew": 5434,
      "Ġtit": 5435,
      "Ġmental": 5436,
      "nUn": 5437,
      "ĠMont": 5438,
      "Ġincor": 5439,
      "iency": 5440,
      "AB": 5441,
      "ĠÃ©": 5442,
      "cm": 5443,
      "Ġmonitor": 5444,
      "Ġlaws": 5445,
      "ora": 5446,
      "Ġknows": 5447,
      "ses": 5448,
      "Ġteaching": 5449,
      "lections": 5450,
      "Ġresidents": 5451,
      "Ġthousands": 5452,
      "fit": 5453,
      "elligence": 5454,
      "Ġhab": 5455,
      "Ġesc": 5456,
      "ĠJud": 5457,
      "ĠLead": 5458,
      "Ġeasier": 5459,
      "rc": 5460,
      "ĠRichard": 5461,
      "Ġmeasures": 5462,
      "Ġhotel": 5463,
      "Ġwww": 5464,
      "////": 5465,
      "uries": 5466,
      "gor": 5467,
      "ĠTechnology": 5468,
      "ala": 5469,
      "px": 5470,
      "table": 5471,
      "Ġbrief": 5472,
      "Ġappeared": 5473,
      "ĠJesus": 5474,
      "Ġruns": 5475,
      "Ġarrest": 5476,
      "Ġsam": 5477,
      "ĠÑĥ": 5478,
      "Ġstreet": 5479,
      "ĠVis": 5480,
      "Ġsets": 5481,
      "va": 5482,
      "acement": 5483,
      "owl": 5484,
      "Ġapplied": 5485,
      "Ġnut": 5486,
      "ĠNov": 5487,
      "Ġtemperature": 5488,
      "oses": 5489,
      "ĠMass": 5490,
      "Ġvision": 5491,
      "Ġclasses": 5492,
      "emporary": 5493,
      "Ġ70": 5494,
      "size": 5495,
      "Ġ\\\\\\\\\\": 5496,
      "Ġwriter": 5497,
      "iat": 5498,
      "ĠChicago": 5499,
      "CE": 5500,
      "Ġpassion": 5501,
      "Ġdelivery": 5502,
      "angle": 5503,
      "Ġshowing": 5504,
      "['": 5505,
      "Ġvisual": 5506,
      "Ġinternal": 5507,
      "comm": 5508,
      "ĠAlthough": 5509,
      "Ġadvantage": 5510,
      "Ġfocused": 5511,
      "Ġwid": 5512,
      "ĠSpe": 5513,
      "ĠRussian": 5514,
      "igration": 5515,
      "67": 5516,
      "Ġinstr": 5517,
      "ias": 5518,
      "ĠNetwork": 5519,
      "Ġinternet": 5520,
      "Ġfinished": 5521,
      "unately": 5522,
      "Ġphil": 5523,
      "ĠRev": 5524,
      "Ġbecoming": 5525,
      "Ġcitizens": 5526,
      "oration": 5527,
      "Ġshop": 5528,
      "alle": 5529,
      "yan": 5530,
      "pected": 5531,
      ",'": 5532,
      "(\\": 5533,
      "Ġexpression": 5534,
      "ĠGlobal": 5535,
      "ĠJose": 5536,
      "Ġdry": 5537,
      "ĠAmericans": 5538,
      "Ġshape": 5539,
      "ĠTheir": 5540,
      "ĠSecret": 5541,
      "nNow": 5542,
      "Ġlinks": 5543,
      "Ġwhom": 5544,
      "Ġbur": 5545,
      "Ġidentify": 5546,
      "Exception": 5547,
      "Ġfilms": 5548,
      "othing": 5549,
      "ĠMel": 5550,
      "Ġfra": 5551,
      "ĠArts": 5552,
      "Ð¾Ð¹": 5553,
      "}{\\\\": 5554,
      "amin": 5555,
      "Ð½Ñĭ": 5556,
      "Ġsupported": 5557,
      "Ġtechnical": 5558,
      "Ġcities": 5559,
      "Ġproceed": 5560,
      "ĠPower": 5561,
      "Ġdiscussion": 5562,
      "isco": 5563,
      "inem": 5564,
      "Er": 5565,
      "ĠLike": 5566,
      "nergy": 5567,
      "Ġfemale": 5568,
      "Ġhaven": 5569,
      "Ġship": 5570,
      "ĠFund": 5571,
      "Ġseparate": 5572,
      "ĠSecurity": 5573,
      "Ġviolence": 5574,
      "MA": 5575,
      "Ġcoord": 5576,
      "azz": 5577,
      "ĠIran": 5578,
      "ĠEnd": 5579,
      "Ð½Ð¾": 5580,
      "Ġnet": 5581,
      "Ġnav": 5582,
      "Ġfactor": 5583,
      "ĠWood": 5584,
      "LC": 5585,
      "ĠBo": 5586,
      "otes": 5587,
      "Ġbath": 5588,
      "Ġdistrict": 5589,
      "lies": 5590,
      "Ġended": 5591,
      "Ġowner": 5592,
      "user": 5593,
      "rics": 5594,
      "Ġdefault": 5595,
      "Ġbrow": 5596,
      "illa": 5597,
      "ĠSeries": 5598,
      "rier": 5599,
      "iced": 5600,
      "acks": 5601,
      "Ġtree": 5602,
      "ĠBecause": 5603,
      "Ġbreat": 5604,
      "ensity": 5605,
      "No": 5606,
      "._": 5607,
      "Ġoccup": 5608,
      "umer": 5609,
      "Ġdriver": 5610,
      "Ġpool": 5611,
      "olars": 5612,
      "Ġmut": 5613,
      "Ġpieces": 5614,
      "Ġfailed": 5615,
      "aren": 5616,
      "ĠParis": 5617,
      "Ġsmaller": 5618,
      "Ġconnected": 5619,
      "js": 5620,
      "Ġprison": 5621,
      "ixt": 5622,
      "ĠWater": 5623,
      "rite": 5624,
      "ĠVer": 5625,
      "delta": 5626,
      "ĠTwo": 5627,
      "life": 5628,
      "Ġminor": 5629,
      "Ġrout": 5630,
      "Ġdrop": 5631,
      "Ġadvance": 5632,
      "Ġlabor": 5633,
      "ione": 5634,
      "alled": 5635,
      "ĠOffic": 5636,
      "ĠLove": 5637,
      "night": 5638,
      "Ġhappens": 5639,
      "pat": 5640,
      "rid": 5641,
      "ĠCEO": 5642,
      "arsh": 5643,
      "ĠPC": 5644,
      "abin": 5645,
      "Ġcrowd": 5646,
      "Ġcloud": 5647,
      "ĠEach": 5648,
      "De": 5649,
      "ĠWho": 5650,
      "Ġcircum": 5651,
      "ĠLouis": 5652,
      "Ġoperating": 5653,
      "SC": 5654,
      "nb": 5655,
      "friend": 5656,
      "}(\\\\": 5657,
      "ĠShow": 5658,
      "ĠLord": 5659,
      "ĠSom": 5660,
      "gers": 5661,
      "ker": 5662,
      "2018": 5663,
      "Ġleaving": 5664,
      "Ġremove": 5665,
      "Ġunits": 5666,
      "hab": 5667,
      "inder": 5668,
      "ĠObama": 5669,
      "ups": 5670,
      "nHere": 5671,
      "Ġtraffic": 5672,
      "iliar": 5673,
      "icians": 5674,
      "Ġdedicated": 5675,
      "Ġwhatever": 5676,
      "run": 5677,
      "Ġexplore": 5678,
      "ĠFamily": 5679,
      "'.": 5680,
      "ĠLake": 5681,
      "ĠIslam": 5682,
      "while": 5683,
      "51": 5684,
      "ĠĠĠĠĠĠĠĠĠĠĠĠĠ": 5685,
      "ĠEU": 5686,
      "Ġchair": 5687,
      "Ġreligious": 5688,
      "Ġgift": 5689,
      "Ġcars": 5690,
      "Ġdepartment": 5691,
      "aine": 5692,
      "¿½": 5693,
      "Ġprepared": 5694,
      "Ġmetal": 5695,
      "53": 5696,
      "leq": 5697,
      "Ġmanufacture": 5698,
      "LA": 5699,
      "Ġnegative": 5700,
      "Ġresearc": 5701,
      "Ġdocuments": 5702,
      "Ġoptim": 5703,
      "ĠTest": 5704,
      "Ġprepar": 5705,
      "color": 5706,
      "pace": 5707,
      "Ġeventually": 5708,
      "69": 5709,
      "Ġarm": 5710,
      "Ġyouth": 5711,
      "Ġagency": 5712,
      "Ġnoted": 5713,
      "Ġdecisions": 5714,
      "Ġassert": 5715,
      "Ġbattle": 5716,
      "ĠPolicy": 5717,
      "But": 5718,
      "press": 5719,
      "xy": 5720,
      "reme": 5721,
      "Ġ...\\": 5722,
      "ĠAngeles": 5723,
      "Ġguaran": 5724,
      "Ġsymbol": 5725,
      "ĠLong": 5726,
      "Ġadding": 5727,
      "ĠDen": 5728,
      "Ġopinion": 5729,
      "iler": 5730,
      "Ġchanging": 5731,
      "Ġretail": 5732,
      "ideos": 5733,
      "draw": 5734,
      "Ġgirls": 5735,
      "Ġfields": 5736,
      "Ġguess": 5737,
      "Ġdetermined": 5738,
      "ï¿½": 5739,
      "theta": 5740,
      "Ð»Ð°": 5741,
      "Ġprocesses": 5742,
      "dro": 5743,
      "Ġpictures": 5744,
      "Ġnumerous": 5745,
      "ÐºÐ°": 5746,
      "Ġmaintain": 5747,
      "rec": 5748,
      "ĠVict": 5749,
      "ĠDi": 5750,
      "atures": 5751,
      "Ġburn": 5752,
      "Ġ2003": 5753,
      "Ġefficient": 5754,
      "Ġreli": 5755,
      "Ġlabel": 5756,
      "rehens": 5757,
      "ĠNor": 5758,
      "utely": 5759,
      "sq": 5760,
      "times": 5761,
      "Ġdecre": 5762,
      "Ġsecure": 5763,
      "Ġfacilities": 5764,
      "Ġfashion": 5765,
      "ĠAtl": 5766,
      "ĠPet": 5767,
      "ĠDisc": 5768,
      "Ġrac": 5769,
      "ĠInvest": 5770,
      "ĠLu": 5771,
      "Ġpair": 5772,
      "aid": 5773,
      "Ġsusp": 5774,
      "ucky": 5775,
      "oves": 5776,
      "itutions": 5777,
      "ipped": 5778,
      "iture": 5779,
      "Ġanimals": 5780,
      "Se": 5781,
      "ogue": 5782,
      "otic": 5783,
      "ĠBur": 5784,
      "Ġthr": 5785,
      "Ġmanaged": 5786,
      "Ġcamera": 5787,
      "Ġintroduced": 5788,
      "bi": 5789,
      "ĠView": 5790,
      "198": 5791,
      "Ġappeal": 5792,
      "Ġformat": 5793,
      "Ġconsequ": 5794,
      "Ġfab": 5795,
      "nFrom": 5796,
      "Ġarrang": 5797,
      "uilding": 5798,
      "Ġimportance": 5799,
      "agged": 5800,
      "All": 5801,
      "Ġtro": 5802,
      "Ð»Ð¸": 5803,
      "52": 5804,
      "odies": 5805,
      "ially": 5806,
      "Ġlots": 5807,
      "iner": 5808,
      "host": 5809,
      "Ġbalance": 5810,
      "Ġdecades": 5811,
      "ĠElect": 5812,
      "cean": 5813,
      "ĠAccording": 5814,
      "Ð¾Ð³Ð¾": 5815,
      "Ġfinish": 5816,
      "ĠCentre": 5817,
      "ĠTeam": 5818,
      "',\\": 5819,
      "cious": 5820,
      "rum": 5821,
      "inst": 5822,
      "icious": 5823,
      "nAcc": 5824,
      "ĠJoe": 5825,
      "inations": 5826,
      "ĠSpecial": 5827,
      "ATION": 5828,
      "ĠHen": 5829,
      "ais": 5830,
      "Ġgain": 5831,
      "quad": 5832,
      "ĠDuring": 5833,
      "Ġweap": 5834,
      "Ġguy": 5835,
      "Ġedge": 5836,
      "Ġsharing": 5837,
      "Ġconsid": 5838,
      "Ġalternative": 5839,
      "Ġec": 5840,
      "ensions": 5841,
      "fol": 5842,
      "Ġstated": 5843,
      "Ġequal": 5844,
      "Text": 5845,
      "Ġepisode": 5846,
      "Ġexecutive": 5847,
      "Ġconcerns": 5848,
      "phas": 5849,
      "Ġnor": 5850,
      "ĠPo": 5851,
      "Ġfell": 5852,
      "Ġbul": 5853,
      "Ġmostly": 5854,
      "ĠLear": 5855,
      "related": 5856,
      "cript": 5857,
      "Ġeditor": 5858,
      "Ġphase": 5859,
      "ĠFre": 5860,
      "ĠApple": 5861,
      "ĠEnter": 5862,
      "Class": 5863,
      "Ġproud": 5864,
      "Ġvac": 5865,
      "igan": 5866,
      "ĠCath": 5867,
      "Ġwatching": 5868,
      "Ġcrisis": 5869,
      "Ġborder": 5870,
      "Ġspring": 5871,
      "mat": 5872,
      "ĠGen": 5873,
      "Ġcoach": 5874,
      "Ġevening": 5875,
      "Ġmanage": 5876,
      "Ġvon": 5877,
      "ĠAustralian": 5878,
      "Ġbatter": 5879,
      "Ð²Ð°": 5880,
      "Ġplays": 5881,
      "Ġmarkets": 5882,
      "ĠMedical": 5883,
      "ĠEp": 5884,
      "Ġlived": 5885,
      "free": 5886,
      "figure": 5887,
      "$-": 5888,
      "den": 5889,
      "Ġ&&": 5890,
      "Ġobtained": 5891,
      "unc": 5892,
      "Ġwaiting": 5893,
      "Ġidentified": 5894,
      "Ġflo": 5895,
      "ĠDown": 5896,
      "Ġchief": 5897,
      "nIs": 5898,
      "ĠBet": 5899,
      "Ã¥": 5900,
      "asket": 5901,
      "eration": 5902,
      "Par": 5903,
      "ĠCup": 5904,
      "Ġdefend": 5905,
      "gorith": 5906,
      "oted": 5907,
      "Ġhandle": 5908,
      "ĠWhe": 5909,
      "ban": 5910,
      "tp": 5911,
      "ĠNav": 5912,
      "Ġheight": 5913,
      "}.\\": 5914,
      "uster": 5915,
      "gamma": 5916,
      "ĠTown": 5917,
      "rant": 5918,
      "Ġinjury": 5919,
      "Ġamb": 5920,
      "Ġ!=": 5921,
      "rivate": 5922,
      "allery": 5923,
      "uthors": 5924,
      "onom": 5925,
      "Ġrandom": 5926,
      "Ġunivers": 5927,
      "rip": 5928,
      "Ġ*\\": 5929,
      "icate": 5930,
      "Ġarticles": 5931,
      "Ġjoint": 5932,
      "Ad": 5933,
      "ĠPan": 5934,
      "Ġdoubt": 5935,
      "fty": 5936,
      "Ġcop": 5937,
      "$.\\": 5938,
      "nAb": 5939,
      "ĠMartin": 5940,
      "ĠWindows": 5941,
      "ĠPri": 5942,
      "Ġkeeping": 5943,
      "treturn": 5944,
      "ĠOper": 5945,
      "Ġestate": 5946,
      "how": 5947,
      "âĢĭ": 5948,
      "Ġobtain": 5949,
      "ĠAnal": 5950,
      "kins": 5951,
      "FF": 5952,
      "By": 5953,
      "ĠTim": 5954,
      "Ġlaunched": 5955,
      "ĠJohnson": 5956,
      "index": 5957,
      "ĠStat": 5958,
      "ĠArab": 5959,
      "ola": 5960,
      "Ġfat": 5961,
      "ĠOrgan": 5962,
      "mathrm": 5963,
      "ipping": 5964,
      "Ġinterests": 5965,
      "ĠAL": 5966,
      "Ġvolume": 5967,
      "Ġofficer": 5968,
      "Ġclinical": 5969,
      "nu": 5970,
      "EST": 5971,
      "DF": 5972,
      "Ġcombination": 5973,
      "rees": 5974,
      "Ġfurn": 5975,
      "Ġfix": 5976,
      "2017": 5977,
      "ĠJim": 5978,
      "poses": 5979,
      "ĠRE": 5980,
      "ĠChief": 5981,
      "Ġguys": 5982,
      "Ġbeat": 5983,
      "ĠValley": 5984,
      "Ġcommitted": 5985,
      "ĠMot": 5986,
      "Time": 5987,
      "Ġflex": 5988,
      "Ġstarts": 5989,
      "olar": 5990,
      "Ġcrime": 5991,
      "Ġmarried": 5992,
      "nam": 5993,
      "Ġban": 5994,
      "ĠIts": 5995,
      "nhttps": 5996,
      "ĠToday": 5997,
      "ĠAmazon": 5998,
      "ingly": 5999,
      "ĠIll": 6000,
      "ĠHead": 6001,
      "nMore": 6002,
      "non": 6003,
      "Ġ2001": 6004,
      "irmed": 6005,
      "ĠTH": 6006,
      "rho": 6007,
      "date": 6008,
      "je": 6009,
      "Ġmur": 6010,
      "idential": 6011,
      "trans": 6012,
      "Ġpayment": 6013,
      "ĠFire": 6014,
      "Ġexperts": 6015,
      "Ġhistorical": 6016,
      "Ġ(\\\"": 6017,
      "Ġrelationships": 6018,
      "cription": 6019,
      "ĠDev": 6020,
      "Ġterror": 6021,
      "Ġidentity": 6022,
      "Ġnorm": 6023,
      "Ġmissing": 6024,
      "Ġtelevision": 6025,
      "Ġleads": 6026,
      "Ġbutton": 6027,
      "sl": 6028,
      "Ġpod": 6029,
      "Ġinspir": 6030,
      "urban": 6031,
      "Ġlit": 6032,
      "Ġlisten": 6033,
      "Ġ2002": 6034,
      "Ġideal": 6035,
      "Ġstars": 6036,
      "MP": 6037,
      "Ġraise": 6038,
      "script": 6039,
      "ansion": 6040,
      "ĠRights": 6041,
      "nby": 6042,
      "Ġplants": 6043,
      "Ġ45": 6044,
      "igital": 6045,
      "han": 6046,
      "Ġnotes": 6047,
      "Ġvirtual": 6048,
      "Ġadvent": 6049,
      "partial": 6050,
      "cles": 6051,
      "')": 6052,
      "Ġfif": 6053,
      "Ġmaximum": 6054,
      "Ġice": 6055,
      "Ġbrings": 6056,
      "Ġholds": 6057,
      "Ġpray": 6058,
      "Ġvolunte": 6059,
      "Ġapproximately": 6060,
      "ĠNY": 6061,
      "Ġkitchen": 6062,
      "Ġresource": 6063,
      "Ġfuel": 6064,
      "Ġlisted": 6065,
      "Ġwinning": 6066,
      "Ġminimum": 6067,
      "Ġsched": 6068,
      "??": 6069,
      "olds": 6070,
      "!\\\"": 6071,
      "stein": 6072,
      "ĠTO": 6073,
      "Key": 6074,
      "ĠPub": 6075,
      "https": 6076,
      "inating": 6077,
      "pty": 6078,
      "Ġclassic": 6079,
      "Ġinvestigation": 6080,
      "________": 6081,
      "Ġneighbor": 6082,
      "Ġreviews": 6083,
      "ĠCanadian": 6084,
      "ĠFort": 6085,
      "stream": 6086,
      "Ġresol": 6087,
      "Ġrapid": 6088,
      "Ġpanel": 6089,
      "Ġmotor": 6090,
      "Ġuniversity": 6091,
      "arts": 6092,
      "Ġmit": 6093,
      "ĠOld": 6094,
      "osop": 6095,
      "ĠMur": 6096,
      "EW": 6097,
      "Ġprocessing": 6098,
      "ĠVirginia": 6099,
      "Ġcoast": 6100,
      "TH": 6101,
      "andemic": 6102,
      "Ġtransl": 6103,
      "Ġforced": 6104,
      "Ġsurvey": 6105,
      "ĠHy": 6106,
      "Ġexchange": 6107,
      "ĠFood": 6108,
      "Ġdiscover": 6109,
      "79": 6110,
      "Ġcoverage": 6111,
      "Ġ500": 6112,
      "^\\\\": 6113,
      "nPh": 6114,
      "pload": 6115,
      "erry": 6116,
      "Ġacademic": 6117,
      "++": 6118,
      "Ġrecorded": 6119,
      "Ġwelcome": 6120,
      "ĠÑĤ": 6121,
      "':": 6122,
      "ultural": 6123,
      "Ġment": 6124,
      "dis": 6125,
      "Ġadvanced": 6126,
      "ĠTour": 6127,
      "ompl": 6128,
      "aks": 6129,
      "Ġscript": 6130,
      "style": 6131,
      "ĠThanks": 6132,
      "Ġcalling": 6133,
      "Ġ$(": 6134,
      "ĠWall": 6135,
      "Ġsympt": 6136,
      "Ġhousing": 6137,
      "ĠRoyal": 6138,
      "Ġprotected": 6139,
      "ilit": 6140,
      "iden": 6141,
      "ĠOnce": 6142,
      "content": 6143,
      "scape": 6144,
      "Ġmort": 6145,
      "]{": 6146,
      "ura": 6147,
      "Ġissued": 6148,
      "ĠGame": 6149,
      "Ġexcited": 6150,
      "Ġdress": 6151,
      "Ġcards": 6152,
      "Ġfish": 6153,
      "Ġfill": 6154,
      "nNo": 6155,
      "='": 6156,
      "ERS": 6157,
      "Ġresponsibility": 6158,
      "ĠFestival": 6159,
      "Ġbird": 6160,
      "ĠDie": 6161,
      "poration": 6162,
      "olit": 6163,
      "Ġannounce": 6164,
      "ĠStand": 6165,
      "gery": 6166,
      "ĠAsia": 6167,
      "ocument": 6168,
      "Ġfailure": 6169,
      "Ġwinter": 6170,
      "Ġsounds": 6171,
      "etime": 6172,
      "apping": 6173,
      "thlet": 6174,
      "ĠSet": 6175,
      "space": 6176,
      "nThese": 6177,
      "Ġsport": 6178,
      "pack": 6179,
      "vec": 6180,
      "\\\";\\": 6181,
      "Ġsquare": 6182,
      "ĠBack": 6183,
      "Ġunless": 6184,
      "Ġshut": 6185,
      "oston": 6186,
      "Ġmanner": 6187,
      "Ġsignificantly": 6188,
      "ĠLee": 6189,
      "Â°": 6190,
      "2016": 6191,
      "Ġdraft": 6192,
      "ĠÐ°": 6193,
      "ĠJapanese": 6194,
      "sembly": 6195,
      "Ġcoffee": 6196,
      "Ġna": 6197,
      "ĠSand": 6198,
      "Ð¸ÑĤ": 6199,
      "Ġpun": 6200,
      "rical": 6201,
      "eah": 6202,
      "Ġcarried": 6203,
      "ĠAbout": 6204,
      "oria": 6205,
      "Ġapparent": 6206,
      "Ġton": 6207,
      "Ġhearing": 6208,
      "Ġpolitics": 6209,
      "lines": 6210,
      "Ġteachers": 6211,
      "ocket": 6212,
      "EE": 6213,
      "obe": 6214,
      "ĠChampions": 6215,
      "']": 6216,
      "Ġ///": 6217,
      "Ġtechniques": 6218,
      "Ġkid": 6219,
      "Ġspending": 6220,
      "Ġmode": 6221,
      "Ġdefense": 6222,
      "ĠEnergy": 6223,
      "ĠIre": 6224,
      "Ġexplain": 6225,
      "that": 6226,
      "Ġwitness": 6227,
      "There": 6228,
      "Ġframe": 6229,
      "Ġcorporate": 6230,
      "Ġtele": 6231,
      "rete": 6232,
      "Ġremark": 6233,
      "Ġscientific": 6234,
      "*}\\": 6235,
      "CO": 6236,
      "Ġnine": 6237,
      "Ġinterpret": 6238,
      "Ġexercise": 6239,
      "real": 6240,
      "Ġjustice": 6241,
      "Ġfreedom": 6242,
      "Ġsample": 6243,
      "elines": 6244,
      "Ġliber": 6245,
      "ears": 6246,
      "Ġfourth": 6247,
      "Item": 6248,
      "File": 6249,
      "hent": 6250,
      "comes": 6251,
      "Ġwaste": 6252,
      "Ġsto": 6253,
      "Ġcomponents": 6254,
      "nHowever": 6255,
      "Ġandroid": 6256,
      "Ġwilling": 6257,
      "Ġvent": 6258,
      "tilde": 6259,
      "Ġpal": 6260,
      "achel": 6261,
      "Ġdial": 6262,
      "());\\": 6263,
      "Ġrevealed": 6264,
      "Ġcategory": 6265,
      "ĠIP": 6266,
      "uations": 6267,
      "rick": 6268,
      "Ġapart": 6269,
      "Ġpurposes": 6270,
      "Set": 6271,
      "nm": 6272,
      "ĠAcademy": 6273,
      "Ġwear": 6274,
      "ja": 6275,
      "Ġcraft": 6276,
      "Ġfacility": 6277,
      "ĠId": 6278,
      "Ġteacher": 6279,
      "ĠMexico": 6280,
      "Ġcentre": 6281,
      "Ġcombined": 6282,
      "lication": 6283,
      "Ġcorner": 6284,
      "ĠLab": 6285,
      "98": 6286,
      "Ġsweet": 6287,
      "ancer": 6288,
      "oles": 6289,
      "Ġlose": 6290,
      "nThey": 6291,
      "long": 6292,
      "ba": 6293,
      "ulty": 6294,
      "iana": 6295,
      "Ġchannel": 6296,
      "bur": 6297,
      "ĠUse": 6298,
      "\\\")\\": 6299,
      "anish": 6300,
      "Ġspeech": 6301,
      ".)\\": 6302,
      "ĠÐ¡": 6303,
      "Ġbelong": 6304,
      "Ġbright": 6305,
      "py": 6306,
      "tau": 6307,
      "ĠBlue": 6308,
      "ingu": 6309,
      "oz": 6310,
      "Ġbra": 6311,
      "liament": 6312,
      "Ġpor": 6313,
      "terest": 6314,
      "ĠIndust": 6315,
      "ĠWay": 6316,
      "java": 6317,
      "Ġcritic": 6318,
      "olec": 6319,
      "Ġvehicles": 6320,
      "Ġhero": 6321,
      "Ġalle": 6322,
      "ĠCard": 6323,
      "west": 6324,
      "nLet": 6325,
      "Ġreduced": 6326,
      "Ġstre": 6327,
      "Ġmedium": 6328,
      "eller": 6329,
      "group": 6330,
      "ograp": 6331,
      "Int": 6332,
      "Ġtrees": 6333,
      "76": 6334,
      "Ġillustr": 6335,
      "onds": 6336,
      "With": 6337,
      "Ġaccident": 6338,
      "âĢ²": 6339,
      "Ġconven": 6340,
      "Ġadvoc": 6341,
      "0000": 6342,
      "unning": 6343,
      "Ġfamiliar": 6344,
      "ean": 6345,
      "ĠDou": 6346,
      "Ġsand": 6347,
      "ui": 6348,
      "okes": 6349,
      "Ġbuildings": 6350,
      "ĠJustice": 6351,
      "Test": 6352,
      "post": 6353,
      "iples": 6354,
      "Ġaffected": 6355,
      "function": 6356,
      "izer": 6357,
      "upp": 6358,
      "arg": 6359,
      "Ġinfrast": 6360,
      "mega": 6361,
      "Ġweak": 6362,
      "Ġobjects": 6363,
      "Ġisland": 6364,
      "Ġfixed": 6365,
      "node": 6366,
      "ĠConference": 6367,
      "position": 6368,
      "Ġhonest": 6369,
      "Ġflat": 6370,
      "Â®": 6371,
      "nab": 6372,
      "Ġsyn": 6373,
      "ĠCharles": 6374,
      "door": 6375,
      "ushed": 6376,
      "Ġthoughts": 6377,
      "ĠColor": 6378,
      "Ġmovies": 6379,
      "Ġcircumst": 6380,
      "Ġswitch": 6381,
      "Ġ($": 6382,
      "Ġremoved": 6383,
      "ATE": 6384,
      "Ġjump": 6385,
      "oti": 6386,
      "Ġplenty": 6387,
      "Ġdoctor": 6388,
      "Ġemergency": 6389,
      "ÐµÐ¼": 6390,
      "aser": 6391,
      "ĠMcC": 6392,
      "ÐºÐ¸": 6393,
      "length": 6394,
      "Ġ32": 6395,
      "Ġputting": 6396,
      "Ġpp": 6397,
      "amm": 6398,
      "arp": 6399,
      "Ġallowing": 6400,
      "Ġimpress": 6401,
      "ĠFederal": 6402,
      "Ġintended": 6403,
      "Ġ2023": 6404,
      "prise": 6405,
      "ĠAdminist": 6406,
      "Ġrom": 6407,
      "Ġtests": 6408,
      "Add": 6409,
      "Ġshift": 6410,
      "Ġcomfortable": 6411,
      "ĠReal": 6412,
      "lie": 6413,
      "Ġfilled": 6414,
      "Ġconclud": 6415,
      "ĠLibrary": 6416,
      "Ġinstitutions": 6417,
      "Ġstick": 6418,
      "Ġpackage": 6419,
      "Ġrain": 6420,
      "eqref": 6421,
      "}$,": 6422,
      "ride": 6423,
      "ommod": 6424,
      "UM": 6425,
      "2020": 6426,
      "iano": 6427,
      "Ġleaves": 6428,
      "ship": 6429,
      "Ġagreed": 6430,
      "ĠGeorg": 6431,
      "ĠBob": 6432,
      "eck": 6433,
      "cknow": 6434,
      "ĠBas": 6435,
      "icit": 6436,
      "FA": 6437,
      "Ġsmooth": 6438,
      "ĠJeff": 6439,
      "tenance": 6440,
      "Ġherself": 6441,
      "Ġanaly": 6442,
      "Ġdepart": 6443,
      "Ġdiet": 6444,
      "Ġauthority": 6445,
      "Ġslightly": 6446,
      "ĠEqu": 6447,
      "ĠAdv": 6448,
      "ĠLast": 6449,
      "ĠSection": 6450,
      "ĠCy": 6451,
      "Ġholding": 6452,
      "stract": 6453,
      "Ġofficers": 6454,
      "RI": 6455,
      "Ġje": 6456,
      "Ġforget": 6457,
      "isters": 6458,
      "Ġsupposed": 6459,
      "irms": 6460,
      "Ġmotiv": 6461,
      "rich": 6462,
      "ĠGal": 6463,
      "Ġexplained": 6464,
      "ĠPolit": 6465,
      "othes": 6466,
      "Ġfeels": 6467,
      "Ġmusical": 6468,
      "\\\"><": 6469,
      "ivered": 6470,
      "Ġpil": 6471,
      "Ġdiscovered": 6472,
      "ishes": 6473,
      "essions": 6474,
      "Ġspecifically": 6475,
      "parent": 6476,
      "Ġdatabase": 6477,
      "Ġregul": 6478,
      "merican": 6479,
      "Ġasking": 6480,
      "Ġperspective": 6481,
      "Ġshares": 6482,
      "coh": 6483,
      "Ġcomponent": 6484,
      "Ġtransition": 6485,
      "Ġtheme": 6486,
      "ographic": 6487,
      "ĠJones": 6488,
      "Ġaccompl": 6489,
      "otal": 6490,
      "infty": 6491,
      "iÃ³n": 6492,
      "Ġimpl": 6493,
      "Ġlibrary": 6494,
      "itutional": 6495,
      "Ġaspects": 6496,
      "redients": 6497,
      "Ġcriminal": 6498,
      "fortunately": 6499,
      "page": 6500,
      "lymp": 6501,
      "Ġau": 6502,
      "Ġconversation": 6503,
      "|\\\\": 6504,
      "ĠPolice": 6505,
      "Ġhighlight": 6506,
      "iveness": 6507,
      "))\\": 6508,
      "Ġargument": 6509,
      "Ġnone": 6510,
      "ĠCheck": 6511,
      "ESS": 6512,
      "Ġdecide": 6513,
      "ĠAff": 6514,
      "ÐµÐ½Ð¸": 6515,
      "ĠDu": 6516,
      "Ġlocations": 6517,
      "nic": 6518,
      "ĠPac": 6519,
      "Ġfort": 6520,
      "ih": 6521,
      "ĠCall": 6522,
      "ĠAuthor": 6523,
      "Ġsupporting": 6524,
      "''": 6525,
      "ĠMuslim": 6526,
      "ĠRoman": 6527,
      "ployment": 6528,
      "Ġobserved": 6529,
      "On": 6530,
      "aked": 6531,
      "Ġapproved": 6532,
      "ĠJewish": 6533,
      "odd": 6534,
      "ĠYoung": 6535,
      "Ð¾Ñģ": 6536,
      "EX": 6537,
      "ĠMen": 6538,
      "ogen": 6539,
      "stra": 6540,
      "Ġentre": 6541,
      "AA": 6542,
      "nin": 6543,
      "ician": 6544,
      "Ġfle": 6545,
      "ĠBoy": 6546,
      "Ġvideos": 6547,
      "Ġexamples": 6548,
      "jo": 6549,
      "case": 6550,
      "orem": 6551,
      "ĠÎ": 6552,
      "ĠIreland": 6553,
      "osit": 6554,
      "ĠChris": 6555,
      "Ġrid": 6556,
      "cho": 6557,
      "oster": 6558,
      "nAccording": 6559,
      "fection": 6560,
      "Ġemphas": 6561,
      "Ġchemical": 6562,
      "rome": 6563,
      "Ġsnow": 6564,
      "Ġdemocr": 6565,
      "Ġshel": 6566,
      "ĠProv": 6567,
      "ĠMiddle": 6568,
      "Ġserving": 6569,
      "Ġreturns": 6570,
      "ĠCast": 6571,
      "ĠJon": 6572,
      "map": 6573,
      "Ġcomplic": 6574,
      "ĠWilliams": 6575,
      "Ġmo": 6576,
      "url": 6577,
      "itage": 6578,
      "ĠColl": 6579,
      "Ġtells": 6580,
      "ĠLo": 6581,
      "mosp": 6582,
      "Ġforest": 6583,
      "Error": 6584,
      "Ġmassive": 6585,
      "Ġrestaurant": 6586,
      "Ġelim": 6587,
      "Comp": 6588,
      "ĠSenate": 6589,
      "Requ": 6590,
      "Ġreform": 6591,
      "Ġsty": 6592,
      "Ġdebt": 6593,
      "elled": 6594,
      "war": 6595,
      "Ġparticipants": 6596,
      "kin": 6597,
      ")(": 6598,
      "ĠCH": 6599,
      "Def": 6600,
      "Ġprove": 6601,
      "Ġreaders": 6602,
      "ye": 6603,
      "Ġsoul": 6604,
      "ĠAud": 6605,
      "Ġrespectively": 6606,
      "ĠLim": 6607,
      "Ġanimal": 6608,
      "Ġdivid": 6609,
      "nn": 6610,
      "fs": 6611,
      "mes": 6612,
      "omega": 6613,
      "63": 6614,
      "Ġschedule": 6615,
      "Ġminute": 6616,
      "Ġagent": 6617,
      "asp": 6618,
      "ĠJun": 6619,
      "Ġconducted": 6620,
      "Ġexciting": 6621,
      "Ġexperim": 6622,
      "Ġtechnologies": 6623,
      "Ġmechanism": 6624,
      "nPre": 6625,
      "Ġprofile": 6626,
      "Ġcomprehens": 6627,
      "nDe": 6628,
      "Ġkill": 6629,
      "lements": 6630,
      "Ġuna": 6631,
      "uable": 6632,
      "Ġbeauty": 6633,
      "Ġconcerned": 6634,
      "Ġlin": 6635,
      "Ġbringing": 6636,
      "gypt": 6637,
      "ĠBoth": 6638,
      "Ġupdated": 6639,
      "Ġinfrastructure": 6640,
      "Ġrelax": 6641,
      "ĠSecond": 6642,
      "icial": 6643,
      "Ġhyp": 6644,
      "Ġflav": 6645,
      "Ġrevenue": 6646,
      "Ġwealth": 6647,
      "ĠMicrosoft": 6648,
      "nWhy": 6649,
      "nTr": 6650,
      "hetic": 6651,
      "ati": 6652,
      "Ġproof": 6653,
      "ĠOnline": 6654,
      "ĠSports": 6655,
      "2015": 6656,
      "Ġtopic": 6657,
      "Ġwine": 6658,
      "ĠHaw": 6659,
      "astern": 6660,
      "My": 6661,
      "Ġassistance": 6662,
      "aven": 6663,
      "ĠExper": 6664,
      "Ġexternal": 6665,
      "ali": 6666,
      "ĠSar": 6667,
      "Ġregistered": 6668,
      "sim": 6669,
      "Ġkick": 6670,
      "Ġdestroy": 6671,
      "Ġmale": 6672,
      "Ġtruck": 6673,
      "Ġcommitment": 6674,
      "dden": 6675,
      "Ġabsolutely": 6676,
      "Ġmatters": 6677,
      "rav": 6678,
      "RC": 6679,
      "Ġseat": 6680,
      "ĠHor": 6681,
      "Ġexec": 6682,
      "Ġenjoyed": 6683,
      "Ġunf": 6684,
      "sen": 6685,
      "ĠStep": 6686,
      "ĠMike": 6687,
      "Ġstanding": 6688,
      "Ñī": 6689,
      "Ġflight": 6690,
      "Ġauthorities": 6691,
      "');\\": 6692,
      "Ġsevere": 6693,
      "nhttp": 6694,
      "\\\\\\\\": 6695,
      "Ġmotion": 6696,
      "ĠAD": 6697,
      "ĠMax": 6698,
      "Ġnuclear": 6699,
      "ĠSup": 6700,
      "irty": 6701,
      "NS": 6702,
      "Ġera": 6703,
      "Ġtradition": 6704,
      "Ġprofessionals": 6705,
      "Ġrot": 6706,
      "Ġvisitors": 6707,
      ")}": 6708,
      "Ġpandemic": 6709,
      "ĠPenn": 6710,
      "Ġcandidate": 6711,
      "prene": 6712,
      "Ġseconds": 6713,
      "Ġpromote": 6714,
      "Ġsac": 6715,
      "andon": 6716,
      "Ġobserv": 6717,
      "Ġdiscl": 6718,
      "Ġdetailed": 6719,
      "GB": 6720,
      "zy": 6721,
      "Ġremaining": 6722,
      "iverse": 6723,
      "resents": 6724,
      "Ġcarbon": 6725,
      "AY": 6726,
      "HS": 6727,
      "86": 6728,
      "Ġaccounts": 6729,
      "Ġadults": 6730,
      "Ġtun": 6731,
      "Ġven": 6732,
      "Ġtypically": 6733,
      "Ġgreatest": 6734,
      "Ġtreated": 6735,
      "Ġroof": 6736,
      "Ġindustrial": 6737,
      "riz": 6738,
      "Ġdance": 6739,
      "antly": 6740,
      "Ð°ÑĢ": 6741,
      "ador": 6742,
      "State": 6743,
      "child": 6744,
      "Ġmarriage": 6745,
      "osc": 6746,
      "ĠEnvironment": 6747,
      "72": 6748,
      "Ġbegins": 6749,
      "Ġgather": 6750,
      "Ġresearchers": 6751,
      "Ġseeking": 6752,
      "Ġparameters": 6753,
      "Ġinspired": 6754,
      "ĠWrit": 6755,
      "Ġformed": 6756,
      "outs": 6757,
      "Ġswe": 6758,
      "ras": 6759,
      "Ġvillage": 6760,
      "Ġnarr": 6761,
      "Ġwalking": 6762,
      "ifications": 6763,
      "ĠPerson": 6764,
      "ĠBeach": 6765,
      "fast": 6766,
      "Ġ;": 6767,
      "Ġregional": 6768,
      "Ġholiday": 6769,
      "Ġcauses": 6770,
      "ĠStudies": 6771,
      "foot": 6772,
      "Ð°ÑĤ": 6773,
      "ĠPass": 6774,
      "Ġbehavi": 6775,
      "from": 6776,
      "Ġ1990": 6777,
      "rieved": 6778,
      "greg": 6779,
      "Ġmir": 6780,
      "PC": 6781,
      "oral": 6782,
      "Ġcharges": 6783,
      "lywood": 6784,
      "eries": 6785,
      "Ġsudden": 6786,
      "aped": 6787,
      "2014": 6788,
      "ĠEll": 6789,
      "ĠRo": 6790,
      "input": 6791,
      "Ġshock": 6792,
      "ĠLog": 6793,
      "Ġselling": 6794,
      "ptions": 6795,
      "Ġsides": 6796,
      "king": 6797,
      "Ġran": 6798,
      "Ġgarden": 6799,
      "ĠCarolina": 6800,
      "Ġposts": 6801,
      "ĠON": 6802,
      "ipal": 6803,
      "73": 6804,
      "nSome": 6805,
      "Ġwedding": 6806,
      "Ġsan": 6807,
      "Ġsubstant": 6808,
      "aylor": 6809,
      "Ġdiscussed": 6810,
      "water": 6811,
      "bsp": 6812,
      "ĠFilm": 6813,
      "ĠMedicine": 6814,
      "vare": 6815,
      "eper": 6816,
      "Ġlayer": 6817,
      "omin": 6818,
      "Ġarrived": 6819,
      "Ġroute": 6820,
      "Ġsolar": 6821,
      "Ġdelivered": 6822,
      "nQ": 6823,
      "Ġcrew": 6824,
      "Delta": 6825,
      "nPosted": 6826,
      "ĠMaster": 6827,
      "Ġsignal": 6828,
      "Ġsister": 6829,
      "Ġconflict": 6830,
      "Ġcolumn": 6831,
      "Ġturns": 6832,
      "Ġchain": 6833,
      "ĠYes": 6834,
      "Ġtow": 6835,
      "Ġemployee": 6836,
      "osite": 6837,
      "Ġimplementation": 6838,
      "Ġicon": 6839,
      "Ġcaught": 6840,
      "Ġinvolve": 6841,
      "legal": 6842,
      "Ġadministr": 6843,
      "61": 6844,
      "Ġaccommod": 6845,
      "ĠChildren": 6846,
      "Ġspons": 6847,
      "Ġdefinition": 6848,
      "ĠBoston": 6849,
      "Ġdifferences": 6850,
      "ĠLook": 6851,
      "[]": 6852,
      "Ġcreation": 6853,
      "Ġrelatively": 6854,
      "ĠAndrew": 6855,
      "Ġresolution": 6856,
      "Ġhundreds": 6857,
      "Ø§": 6858,
      "Ġenem": 6859,
      ".;": 6860,
      "ĠPak": 6861,
      "Ġdisp": 6862,
      "Ã£": 6863,
      "Ġeducational": 6864,
      "ĠArmy": 6865,
      "uts": 6866,
      "Ġfavour": 6867,
      "ĠProte": 6868,
      "Ġpossibly": 6869,
      "Ã©e": 6870,
      "Ġdra": 6871,
      "Ġdollars": 6872,
      "Ġcommission": 6873,
      "Ġgrew": 6874,
      "Ġodd": 6875,
      "ere": 6876,
      "Ġcontrast": 6877,
      "eler": 6878,
      "ading": 6879,
      "raq": 6880,
      "ĠChair": 6881,
      "uma": 6882,
      "onic": 6883,
      "Ġthick": 6884,
      "ĠSpring": 6885,
      "Ġliqu": 6886,
      "Ġrenew": 6887,
      "ĠMake": 6888,
      "oken": 6889,
      "taining": 6890,
      "Ġadvis": 6891,
      "Ġentirely": 6892,
      "actory": 6893,
      "Ġfold": 6894,
      "othe": 6895,
      "ĠExt": 6896,
      "DS": 6897,
      "ĠScot": 6898,
      "Ġacknow": 6899,
      "Ġedition": 6900,
      "rency": 6901,
      "edge": 6902,
      "anges": 6903,
      "Context": 6904,
      "Ġframework": 6905,
      "nSe": 6906,
      "TC": 6907,
      "Ġconsumer": 6908,
      "Ġkm": 6909,
      "nAd": 6910,
      "Ġstudio": 6911,
      "Ġattacks": 6912,
      "orders": 6913,
      "Ġiron": 6914,
      "Ġrooms": 6915,
      "forcement": 6916,
      "ighter": 6917,
      "Ġpositions": 6918,
      "can": 6919,
      "ĠCA": 6920,
      "\\\"></": 6921,
      "Ġquiet": 6922,
      "Ġconfirmed": 6923,
      "ĠThus": 6924,
      "Ġappearance": 6925,
      "Ġcommittee": 6926,
      "Ġwire": 6927,
      "Fr": 6928,
      "========": 6929,
      "Ġuns": 6930,
      "kes": 6931,
      "low": 6932,
      "Ġsigns": 6933,
      "ossible": 6934,
      "ignment": 6935,
      "Ġdecor": 6936,
      "Ġdescription": 6937,
      "bra": 6938,
      "Ġgoods": 6939,
      "ĠOk": 6940,
      "Ġbes": 6941,
      "Ġperman": 6942,
      "Ġnode": 6943,
      "Ð¾ÑĤ": 6944,
      "Ġcandidates": 6945,
      "Ġdrugs": 6946,
      "TR": 6947,
      "Ġauthors": 6948,
      "ifts": 6949,
      "Ġdistinct": 6950,
      "ĠExecutive": 6951,
      "bal": 6952,
      "Ġbought": 6953,
      "Ġstrategies": 6954,
      "ĠProfessor": 6955,
      "Ġ1999": 6956,
      "ums": 6957,
      "ello": 6958,
      "orters": 6959,
      "ĠCode": 6960,
      "noon": 6961,
      "athan": 6962,
      "ansas": 6963,
      "obs": 6964,
      "Ġdangerous": 6965,
      "Ġexecut": 6966,
      "teen": 6967,
      "anche": 6968,
      "Ġbag": 6969,
      "Pl": 6970,
      "Ġnative": 6971,
      "71": 6972,
      "89": 6973,
      "Ġends": 6974,
      "ĠLight": 6975,
      "Ġdomestic": 6976,
      "BI": 6977,
      "Ġrepresents": 6978,
      "62": 6979,
      "Ġcup": 6980,
      "Ġoblig": 6981,
      "Ġexpensive": 6982,
      "Ġking": 6983,
      "Ġrecip": 6984,
      "enced": 6985,
      "Ġforg": 6986,
      "Ġsymptoms": 6987,
      "acle": 6988,
      "ymbol": 6989,
      "ĠFrancisco": 6990,
      "Ġ300": 6991,
      "Ġconfidence": 6992,
      "')\\": 6993,
      "ugh": 6994,
      "Ġchosen": 6995,
      "Ġindeed": 6996,
      "nbsp": 6997,
      "Ġalgorith": 6998,
      "sing": 6999,
      "ĠÐĴ": 7000,
      "Ġzero": 7001,
      "inity": 7002,
      "shop": 7003,
      "Ġancient": 7004,
      "Ġplanet": 7005,
      "TER": 7006,
      "power": 7007,
      "Ġconvert": 7008,
      "abeth": 7009,
      "nCon": 7010,
      "Ġaccepted": 7011,
      "ĠGames": 7012,
      "psilon": 7013,
      "85": 7014,
      "Ġstores": 7015,
      "ĠVan": 7016,
      "esome": 7017,
      "2013": 7018,
      "En": 7019,
      "From": 7020,
      "ĠLiber": 7021,
      "ĠOnly": 7022,
      "Ġtherapy": 7023,
      "Ġemployment": 7024,
      "Ãł": 7025,
      "Ġextended": 7026,
      "pet": 7027,
      "Ġupper": 7028,
      "Ġnewsp": 7029,
      "Ġatmosp": 7030,
      "Ġconcert": 7031,
      "Ġalt": 7032,
      "Ġcircumstances": 7033,
      "Ġsteel": 7034,
      "ĠItaly": 7035,
      "Ġestimated": 7036,
      "PP": 7037,
      "Ġimproved": 7038,
      "Ġenable": 7039,
      "Ġproperly": 7040,
      "born": 7041,
      "OU": 7042,
      "Ġgender": 7043,
      "Ġsubsequ": 7044,
      "Ġtom": 7045,
      "ĠWal": 7046,
      "pass": 7047,
      "Ġassets": 7048,
      "ĠAwards": 7049,
      "razil": 7050,
      "ĠCatholic": 7051,
      "uce": 7052,
      "Ġpure": 7053,
      "ĠKen": 7054,
      "Ġaid": 7055,
      "Ġequival": 7056,
      "CD": 7057,
      "person": 7058,
      "Ġteach": 7059,
      "uality": 7060,
      "Ġdecade": 7061,
      "Ġstopped": 7062,
      "ĠCustom": 7063,
      "cdot": 7064,
      "ĠJoseph": 7065,
      "Index": 7066,
      "ĠOlymp": 7067,
      "law": 7068,
      "Ġagencies": 7069,
      "kt": 7070,
      "Ġworse": 7071,
      "ĠMS": 7072,
      "Ġremind": 7073,
      "Ġinfo": 7074,
      "Ġring": 7075,
      "Ġrecognized": 7076,
      "proof": 7077,
      "Ġdiss": 7078,
      "Ġphen": 7079,
      "Ġrail": 7080,
      "omet": 7081,
      "Ġdomain": 7082,
      "Ġvul": 7083,
      "uing": 7084,
      "Ġencoun": 7085,
      "Inst": 7086,
      "true": 7087,
      "Ġrecon": 7088,
      "Ġdesire": 7089,
      "ĠPhys": 7090,
      "Ġast": 7091,
      "bridge": 7092,
      "ĠAS": 7093,
      "Ġrelative": 7094,
      "Ġdefe": 7095,
      "Ġsitting": 7096,
      "Ġmere": 7097,
      "acter": 7098,
      "Ġfigures": 7099,
      "ĠDaniel": 7100,
      "FC": 7101,
      "Ġprotein": 7102,
      "Ġreceiving": 7103,
      "ĠSpanish": 7104,
      "ĠWalk": 7105,
      "Ġnetworks": 7106,
      "Omega": 7107,
      "Ġexists": 7108,
      "Ġmuseum": 7109,
      "elly": 7110,
      "ĠNig": 7111,
      "ĠUk": 7112,
      "Of": 7113,
      "Ġinn": 7114,
      "php": 7115,
      "74": 7116,
      "Ġourselves": 7117,
      "thon": 7118,
      "PE": 7119,
      "Ġdiverse": 7120,
      "ĠNight": 7121,
      "Ġfees": 7122,
      "Field": 7123,
      "asters": 7124,
      "Form": 7125,
      "ownt": 7126,
      "sole": 7127,
      "iti": 7128,
      "Ġfee": 7129,
      "check": 7130,
      "Ġcourses": 7131,
      "mond": 7132,
      "she": 7133,
      "Ġengineering": 7134,
      "star": 7135,
      "rooms": 7136,
      "Äį": 7137,
      "Ġdescribe": 7138,
      "ĠFurther": 7139,
      "Ġbelieved": 7140,
      "Ġloan": 7141,
      "Ġterrit": 7142,
      "Ġconsidering": 7143,
      "Ġinvestors": 7144,
      "Ġguitar": 7145,
      "Ġneighborhood": 7146,
      "Ġveter": 7147,
      "Ġpractical": 7148,
      "Ġworry": 7149,
      "Not": 7150,
      "ĠColumb": 7151,
      "};\\": 7152,
      "ĠAN": 7153,
      "grade": 7154,
      "ao": 7155,
      "Ġconsumers": 7156,
      "lishing": 7157,
      "ĠWhere": 7158,
      "Ġsufficient": 7159,
      "ĠRef": 7160,
      "Ġsettings": 7161,
      "Ġguests": 7162,
      "arry": 7163,
      "zer": 7164,
      "ĠWild": 7165,
      "Ġcooper": 7166,
      "lient": 7167,
      "ĠSupport": 7168,
      "ĠPay": 7169,
      "Ġentered": 7170,
      "TA": 7171,
      "flow": 7172,
      "Ġyes": 7173,
      "fil": 7174,
      "Ã£o": 7175,
      "Ġplanned": 7176,
      "Ð¾Ðº": 7177,
      "Ġworldwide": 7178,
      "Over": 7179,
      "version": 7180,
      "yers": 7181,
      "Ġ});\\": 7182,
      "ĠHospital": 7183,
      "redit": 7184,
      "uls": 7185,
      "ĠFar": 7186,
      "Ġcharged": 7187,
      "Ġride": 7188,
      "ibilities": 7189,
      "ĠAccess": 7190,
      "OG": 7191,
      "ĠItalian": 7192,
      "Com": 7193,
      "Ġplot": 7194,
      "Ġtaste": 7195,
      "max": 7196,
      "illy": 7197,
      "ogy": 7198,
      "ĠTherefore": 7199,
      "ĠPhot": 7200,
      "gent": 7201,
      "oding": 7202,
      "ĠEst": 7203,
      "Ġcontemporary": 7204,
      "elle": 7205,
      "ĠUpd": 7206,
      "esterday": 7207,
      "ĠEgypt": 7208,
      "Ġ48": 7209,
      "Ġacid": 7210,
      "ĠBritain": 7211,
      "ĠTrust": 7212,
      "Ġsuggested": 7213,
      "Ġtight": 7214,
      "Ġsuit": 7215,
      "ÑĨÐ¸": 7216,
      "Ġwest": 7217,
      "Ġthread": 7218,
      "Ġ/**\\": 7219,
      "osophy": 7220,
      "ĠĠĠĠĠĠĠĠĠĠĠĠĠĠĠĠĠĠĠĠĠĠĠĠĠĠĠ": 7221,
      "Ġwidth": 7222,
      "ĠKim": 7223,
      "struct": 7224,
      "Ġdefine": 7225,
      "Ġmoments": 7226,
      "}}\\\\": 7227,
      "ether": 7228,
      "Ed": 7229,
      "ĠIraq": 7230,
      "Ġtwice": 7231,
      "ĠMic": 7232,
      "Ġcompr": 7233,
      "osa": 7234,
      "Code": 7235,
      "cohol": 7236,
      "ĠÐ·Ð°": 7237,
      "Ġdepth": 7238,
      "Ġurban": 7239,
      "umin": 7240,
      "ĠSpace": 7241,
      "Ġspeaking": 7242,
      "Ġliterature": 7243,
      "opyright": 7244,
      "Ġaudio": 7245,
      "ĠOl": 7246,
      "nDo": 7247,
      "Ġriver": 7248,
      "quare": 7249,
      "apes": 7250,
      "Ġrecovery": 7251,
      "Ġspoke": 7252,
      "orry": 7253,
      "ĠSecretary": 7254,
      "Ġabuse": 7255,
      "Ġbroken": 7256,
      "Ġscholars": 7257,
      "Ġrough": 7258,
      "pire": 7259,
      "Or": 7260,
      "tes": 7261,
      "ĠLive": 7262,
      "ospit": 7263,
      "ĠÂ·": 7264,
      "aron": 7265,
      "Ġju": 7266,
      "nCont": 7267,
      "ensus": 7268,
      "iro": 7269,
      "Ġdebate": 7270,
      "Ġshopping": 7271,
      "Ġfiled": 7272,
      "Ġvictory": 7273,
      "ircraft": 7274,
      "nNot": 7275,
      "ĠThrough": 7276,
      "Ġegg": 7277,
      "reens": 7278,
      "ĠThank": 7279,
      "Ġcart": 7280,
      "Ġhonor": 7281,
      "Ġeffectively": 7282,
      "adow": 7283,
      "Ġenhance": 7284,
      "Ġinnovative": 7285,
      "Ġwave": 7286,
      "pa": 7287,
      "eting": 7288,
      "%\\": 7289,
      "Ġstatements": 7290,
      "Config": 7291,
      "Ġfeatured": 7292,
      "nSince": 7293,
      "Ġcloser": 7294,
      "Ġ00": 7295,
      "Ġspaces": 7296,
      "ĠOR": 7297,
      "Ġbuying": 7298,
      "secut": 7299,
      "Ġfighting": 7300,
      "Ġcro": 7301,
      "Don": 7302,
      "weight": 7303,
      "Ġphotograph": 7304,
      "Ġoccasion": 7305,
      "Att": 7306,
      "Ġpartnership": 7307,
      "Ġemotional": 7308,
      "Ġhun": 7309,
      "ellect": 7310,
      "oir": 7311,
      "onym": 7312,
      "ads": 7313,
      "Ġadm": 7314,
      "title": 7315,
      "Ġassessment": 7316,
      "cor": 7317,
      "ructions": 7318,
      "iform": 7319,
      "varepsilon": 7320,
      "ĠHa": 7321,
      "*\\": 7322,
      "Ġstorm": 7323,
      "That": 7324,
      "Ġongoing": 7325,
      "nNext": 7326,
      "Ġisol": 7327,
      "ĠMid": 7328,
      "Ġmaintenance": 7329,
      "Ġmillions": 7330,
      "ylv": 7331,
      "ĠMain": 7332,
      "ĠCirc": 7333,
      "sem": 7334,
      "ĠType": 7335,
      "Ġhousehold": 7336,
      "Ġregister": 7337,
      ".</": 7338,
      "ĠHon": 7339,
      "Ġtaught": 7340,
      "nDr": 7341,
      "Ġoriginally": 7342,
      "ĠRepublican": 7343,
      "Ġowned": 7344,
      "Ġgenerated": 7345,
      "Home": 7346,
      "ĠDivision": 7347,
      "Ġstret": 7348,
      "Ġencourage": 7349,
      "Ġdepending": 7350,
      "hr": 7351,
      "Ġguard": 7352,
      "Ġstands": 7353,
      "Ġcomprehensive": 7354,
      "nce": 7355,
      "Ġdirected": 7356,
      "ira": 7357,
      "icken": 7358,
      "Ġfriendly": 7359,
      "Ġtalent": 7360,
      "Ġrub": 7361,
      "ĠGra": 7362,
      "Ġelectronic": 7363,
      "ailed": 7364,
      "Ġresulting": 7365,
      "How": 7366,
      "ÐµÐ´": 7367,
      "ĠDC": 7368,
      "Ġreporting": 7369,
      "Ġtelling": 7370,
      "Ġregions": 7371,
      "Ġrecommended": 7372,
      "Ġalleged": 7373,
      "arian": 7374,
      "Ġorders": 7375,
      "Ġlux": 7376,
      "Request": 7377,
      "abet": 7378,
      "ĠGirl": 7379,
      "Ġtrig": 7380,
      "ĠKar": 7381,
      "orough": 7382,
      "Ġinnovation": 7383,
      "chi": 7384,
      "Ġlicense": 7385,
      "Ġinterface": 7386,
      "Ġauto": 7387,
      "issions": 7388,
      "Ġok": 7389,
      "Ġhappening": 7390,
      "Ġtips": 7391,
      "Ġintelligence": 7392,
      "Ġstructures": 7393,
      "rate": 7394,
      "ji": 7395,
      "merce": 7396,
      "ĠKingdom": 7397,
      "';\\": 7398,
      "Ġtempl": 7399,
      "ĠWatch": 7400,
      "Ġtough": 7401,
      "2012": 7402,
      "Ġcheap": 7403,
      "Ġassume": 7404,
      "ĠCross": 7405,
      "Ġplug": 7406,
      "ĠPrem": 7407,
      "ĠKorea": 7408,
      "Ġyield": 7409,
      "Ġstone": 7410,
      "Ġnegoti": 7411,
      "heck": 7412,
      "Ġbeach": 7413,
      "ĠLtd": 7414,
      "Ġfellow": 7415,
      "ĠZeal": 7416,
      "Ġrelation": 7417,
      "Ġrisks": 7418,
      "Ġupdates": 7419,
      "ponse": 7420,
      "ersion": 7421,
      "asketball": 7422,
      "Ġdebut": 7423,
      "Ġdelay": 7424,
      "Info": 7425,
      "crib": 7426,
      "PD": 7427,
      "Ġafternoon": 7428,
      "Ġfacts": 7429,
      "izabeth": 7430,
      "adel": 7431,
      "Ð¼Ð¸": 7432,
      "cons": 7433,
      "Ġexpressed": 7434,
      "Ġadult": 7435,
      "ĠCoast": 7436,
      "pan": 7437,
      "Ġboys": 7438,
      "Ġveget": 7439,
      "IST": 7440,
      "CL": 7441,
      "Ġdinner": 7442,
      "nBe": 7443,
      "xi": 7444,
      "Read": 7445,
      "Ã±": 7446,
      "Ġtopics": 7447,
      "Ġbigger": 7448,
      "Ġevolution": 7449,
      "ĠLink": 7450,
      "Ġped": 7451,
      "Ġmal": 7452,
      "Ġextensive": 7453,
      "ĠSouthern": 7454,
      "Path": 7455,
      "ĠSupreme": 7456,
      "vin": 7457,
      "Ġprepare": 7458,
      "Ġarts": 7459,
      "ĠÐŁ": 7460,
      "anger": 7461,
      "car": 7462,
      "Ġserves": 7463,
      "ĠForce": 7464,
      "enth": 7465,
      "Ps": 7466,
      "Ġpregn": 7467,
      "Ġprovider": 7468,
      "Ġ33": 7469,
      "Ġimagine": 7470,
      "Ġconsistent": 7471,
      "Ġmine": 7472,
      "Ġawareness": 7473,
      "Bl": 7474,
      "Ġmand": 7475,
      "Ġaccomp": 7476,
      "ĠFoot": 7477,
      "ĠNOT": 7478,
      "tra": 7479,
      "Ġbon": 7480,
      "Ġincident": 7481,
      "Ġsuccessfully": 7482,
      "Ġhouses": 7483,
      "Ġinstalled": 7484,
      "ĠMov": 7485,
      "erves": 7486,
      "ĠKn": 7487,
      "ĠGar": 7488,
      "Ġlos": 7489,
      "ĠÐļ": 7490,
      "Ġmanufacturing": 7491,
      "ilton": 7492,
      "ĠFair": 7493,
      "nZ": 7494,
      "Ġconfirm": 7495,
      "Ġgro": 7496,
      "amental": 7497,
      "Ġarms": 7498,
      "ĠDigital": 7499,
      "Ġexpansion": 7500,
      "Ġeating": 7501,
      "ĠHand": 7502,
      "roller": 7503,
      "Ġ36": 7504,
      "Ġroot": 7505,
      "Ġportion": 7506,
      "lights": 7507,
      "rat": 7508,
      "nex": 7509,
      "uzz": 7510,
      "Ġhelpful": 7511,
      "Ġincreases": 7512,
      "acts": 7513,
      "Ġpoly": 7514,
      "Ġvariable": 7515,
      "ifier": 7516,
      "iral": 7517,
      "Ġbusy": 7518,
      "Ġcampus": 7519,
      "ĠCost": 7520,
      "Ġfacing": 7521,
      "ĠPage": 7522,
      "ĠHenry": 7523,
      "Ġsad": 7524,
      "},\\": 7525,
      "Ġcolors": 7526,
      "ĠÑĩ": 7527,
      "Ġtotally": 7528,
      "Ã¼r": 7529,
      "Ġmouth": 7530,
      "Ġforth": 7531,
      "scale": 7532,
      "inent": 7533,
      "Ġrealize": 7534,
      "nRes": 7535,
      "ĠZealand": 7536,
      "Ġexception": 7537,
      "tab": 7538,
      "ĠWin": 7539,
      "ĠControl": 7540,
      "count": 7541,
      "Ġ1998": 7542,
      "Service": 7543,
      "inson": 7544,
      "ĠMichigan": 7545,
      "inally": 7546,
      "shire": 7547,
      "Ġsurprise": 7548,
      "wan": 7549,
      "ĠEnt": 7550,
      "Ġ38": 7551,
      "ĠTem": 7552,
      "Ġplastic": 7553,
      "Ġmel": 7554,
      "Ġvast": 7555,
      "Ġcollaboration": 7556,
      "Ġcounty": 7557,
      "ĠNext": 7558,
      "$$\\": 7559,
      "inton": 7560,
      "ĠCivil": 7561,
      "Ġcycle": 7562,
      "ĠProduct": 7563,
      "Ġreplace": 7564,
      "ificate": 7565,
      "ĠSign": 7566,
      "tw": 7567,
      "Ġparticipate": 7568,
      "ĠSciences": 7569,
      "Ġboat": 7570,
      "ĠDub": 7571,
      "ĠSteve": 7572,
      "ĠEngineering": 7573,
      "ĠFull": 7574,
      "Ġautomatically": 7575,
      "Ġsurrounding": 7576,
      "ĠJr": 7577,
      "ĠHave": 7578,
      "Ġreasonable": 7579,
      "CS": 7580,
      "Ġmenu": 7581,
      "Ġwarn": 7582,
      "LS": 7583,
      "ĠCreat": 7584,
      "ko": 7585,
      "ĠKnow": 7586,
      "erman": 7587,
      "Ġrepair": 7588,
      "ĠFed": 7589,
      "Ġintent": 7590,
      "utation": 7591,
      "\\\\\\\\\\": 7592,
      "ĠPakistan": 7593,
      "ĠPop": 7594,
      "vely": 7595,
      "ulous": 7596,
      "ĠPacific": 7597,
      "AND": 7598,
      "Ġprogramme": 7599,
      "Ġearned": 7600,
      "ls": 7601,
      "ĠSaf": 7602,
      "ĠAR": 7603,
      "ĠJac": 7604,
      "Ġusual": 7605,
      "ned": 7606,
      "Ġfly": 7607,
      "Ġinstrument": 7608,
      "nInd": 7609,
      "Ġgrown": 7610,
      "erg": 7611,
      "Ġlie": 7612,
      "Ġdegrees": 7613,
      "ĠJackson": 7614,
      "Ġchapter": 7615,
      "AV": 7616,
      "Ġroles": 7617,
      "Ġteen": 7618,
      "ĠAgain": 7619,
      "Ġsupports": 7620,
      "iest": 7621,
      "Ġremote": 7622,
      "open": 7623,
      "ĠPrime": 7624,
      "Ġune": 7625,
      "Ġexpertise": 7626,
      "Ent": 7627,
      "Ġfaster": 7628,
      "Ġmurder": 7629,
      "Ġreferred": 7630,
      "Ġcompens": 7631,
      "Hand": 7632,
      "Ġsequence": 7633,
      "ashed": 7634,
      "Ġimpossible": 7635,
      "ĠAT": 7636,
      "Ġeast": 7637,
      "apped": 7638,
      "Ġpursu": 7639,
      "Ġprocedure": 7640,
      "Ġregulations": 7641,
      "ruption": 7642,
      "ĠLittle": 7643,
      "ordan": 7644,
      "Ġlegislation": 7645,
      "Ġvulner": 7646,
      "rog": 7647,
      "ĠWat": 7648,
      "Ġscheme": 7649,
      "Ġstrategic": 7650,
      "ĠDemocratic": 7651,
      "ints": 7652,
      "Ġevol": 7653,
      "Ġreligion": 7654,
      "ĠAndroid": 7655,
      "97": 7656,
      "Ġ1980": 7657,
      "awa": 7658,
      "Ġcolour": 7659,
      "endar": 7660,
      "Ġextent": 7661,
      "ĠRest": 7662,
      "ĠCur": 7663,
      "Ġtalks": 7664,
      "Ġcollected": 7665,
      "Ġanywhere": 7666,
      "Ġmessages": 7667,
      "ĠCe": 7668,
      "Ġcoal": 7669,
      "Ġshooting": 7670,
      "ĠFOR": 7671,
      "Ġadvertising": 7672,
      "Ġwinner": 7673,
      "iki": 7674,
      "utch": 7675,
      "psi": 7676,
      "96": 7677,
      "Ġcovers": 7678,
      "ĠGuide": 7679,
      "Ġjudge": 7680,
      "enger": 7681,
      "ĠNorthern": 7682,
      "Ġprivacy": 7683,
      "Event": 7684,
      "ĠNote": 7685,
      "Ġexistence": 7686,
      "ifies": 7687,
      "Ġfeedback": 7688,
      "ÑĢÑĥ": 7689,
      "ĠTable": 7690,
      "block": 7691,
      "Ġcolle": 7692,
      "rance": 7693,
      "}[": 7694,
      "rend": 7695,
      "ĠAp": 7696,
      "Ġfasc": 7697,
      "vas": 7698,
      "ĠThose": 7699,
      "ĠDonald": 7700,
      "Ġpossibility": 7701,
      "ĠGovern": 7702,
      "umes": 7703,
      "Ġsuc": 7704,
      "Ġlarg": 7705,
      "ennis": 7706,
      "ila": 7707,
      "OV": 7708,
      "Ġvo": 7709,
      "ĠSus": 7710,
      "Ġempty": 7711,
      "Ġpaying": 7712,
      "ĠCa": 7713,
      "Ġvit": 7714,
      "Ġsuggests": 7715,
      "Ġjava": 7716,
      "ells": 7717,
      "Ġpersons": 7718,
      "roph": 7719,
      "nPlease": 7720,
      "Ġexperiment": 7721,
      "^*": 7722,
      "Ġremained": 7723,
      "At": 7724,
      "Ġfounded": 7725,
      "ampion": 7726,
      "ĠManager": 7727,
      "ĠWH": 7728,
      "ĠOhio": 7729,
      "uilder": 7730,
      "aph": 7731,
      "Ġachieved": 7732,
      "Ġpassing": 7733,
      "start": 7734,
      "nCan": 7735,
      "sf": 7736,
      "nEn": 7737,
      "ĠIss": 7738,
      "hus": 7739,
      "ĠAnother": 7740,
      "Ġspin": 7741,
      "Ġefficiency": 7742,
      "Ġgenerate": 7743,
      "orph": 7744,
      "ÑģÑı": 7745,
      "agues": 7746,
      "olean": 7747,
      "Ġhat": 7748,
      "Ġhealthcare": 7749,
      "Ġworst": 7750,
      "Ġtrouble": 7751,
      "ĠInstead": 7752,
      "Ġleague": 7753,
      "front": 7754,
      "Ġunderst": 7755,
      "ĠTheatre": 7756,
      "Ġfantastic": 7757,
      "pecific": 7758,
      "core": 7759,
      "Ġvaluable": 7760,
      "``": 7761,
      "Ġimplic": 7762,
      "itled": 7763,
      "Ġtables": 7764,
      "Ġbrands": 7765,
      "anna": 7766,
      "iversary": 7767,
      "Ġpour": 7768,
      "ima": 7769,
      "Ġvary": 7770,
      "Ġcompetitive": 7771,
      "anes": 7772,
      "Ġclaimed": 7773,
      "ĠRam": 7774,
      "nCom": 7775,
      "ĠTake": 7776,
      "93": 7777,
      "ĠTaylor": 7778,
      "Ġbanks": 7779,
      "Ġagents": 7780,
      "Ġchoices": 7781,
      "nCl": 7782,
      "Ġentertainment": 7783,
      "ĠFind": 7784,
      "Table": 7785,
      "ela": 7786,
      "ĠSea": 7787,
      "Ġfilter": 7788,
      "ican": 7789,
      "lets": 7790,
      "Ġtech": 7791,
      "ependent": 7792,
      "RS": 7793,
      "ĠPsych": 7794,
      "Ġmixed": 7795,
      "Ġmagazine": 7796,
      "Ġhumans": 7797,
      "last": 7798,
      "isa": 7799,
      "rep": 7800,
      "ĠJersey": 7801,
      "ĠHard": 7802,
      "ĠCas": 7803,
      "Big": 7804,
      "Tube": 7805,
      "Ġwindows": 7806,
      "Ġmail": 7807,
      "Ġsugar": 7808,
      "apore": 7809,
      "ĠBrazil": 7810,
      "ync": 7811,
      "Ġclosely": 7812,
      "Ġattorney": 7813,
      "Ġelig": 7814,
      "lean": 7815,
      "Ġultimately": 7816,
      "Ġhistoric": 7817,
      "Ġincreasingly": 7818,
      "ĠIrish": 7819,
      "Be": 7820,
      "ĠIII": 7821,
      "Ġfinds": 7822,
      "then": 7823,
      "edu": 7824,
      "ĠFour": 7825,
      "never": 7826,
      "stone": 7827,
      "ĠLabor": 7828,
      "ĠStart": 7829,
      "Ġupcoming": 7830,
      "Ġacting": 7831,
      "ilipp": 7832,
      "Ġjoy": 7833,
      "ĠInstagram": 7834,
      "tex": 7835,
      "profit": 7836,
      "ĠPoint": 7837,
      "raine": 7838,
      "wa": 7839,
      "ĠField": 7840,
      "Ġsustainable": 7841,
      "Ġaccurate": 7842,
      "ĠSC": 7843,
      "Ġtack": 7844,
      "ando": 7845,
      "ĠLi": 7846,
      "ĠLin": 7847,
      "ĠFinancial": 7848,
      "vy": 7849,
      "Ġsole": 7850,
      "Ġunable": 7851,
      "Ġsynt": 7852,
      "Ġawarded": 7853,
      "Ġbodies": 7854,
      "bro": 7855,
      "lik": 7856,
      "Å¡": 7857,
      "essed": 7858,
      "nSte": 7859,
      "Ġextract": 7860,
      "erver": 7861,
      "Ġfulf": 7862,
      "}_{\\\\": 7863,
      "ĠBrook": 7864,
      "ĠSpain": 7865,
      "Ġlargely": 7866,
      "Ġagric": 7867,
      "Ġsurgery": 7868,
      "Ġnurs": 7869,
      "nRead": 7870,
      "Ġ1997": 7871,
      "Ġmedicine": 7872,
      "Ġflood": 7873,
      "ĠQueen": 7874,
      "ulating": 7875,
      "uan": 7876,
      "nThen": 7877,
      "ĠStan": 7878,
      "Â©": 7879,
      "ĠClin": 7880,
      "Ġdynamic": 7881,
      "ainer": 7882,
      "ĠAction": 7883,
      ")=": 7884,
      "udi": 7885,
      "Ġfacilit": 7886,
      "Ġ75": 7887,
      "Ġdiam": 7888,
      "ĠÐ¿ÑĢ": 7889,
      "Ġmolec": 7890,
      "Ġanx": 7891,
      "Ġincredible": 7892,
      "ĠDar": 7893,
      "ĠRom": 7894,
      "onto": 7895,
      "Ġfrequently": 7896,
      "holders": 7897,
      "unicip": 7898,
      "Ġdesigns": 7899,
      "quar": 7900,
      "ollowing": 7901,
      "Ġdesk": 7902,
      "oking": 7903,
      "Ġ/>\\": 7904,
      "Ġtypical": 7905,
      "Oper": 7906,
      "ĠMult": 7907,
      "Ġmask": 7908,
      "ĠDE": 7909,
      "Ġprocedures": 7910,
      "Ġwidely": 7911,
      "void": 7912,
      "ito": 7913,
      "Ġlandscape": 7914,
      "Ġcouncil": 7915,
      "Ġprofit": 7916,
      "ĠTerm": 7917,
      "Ġguest": 7918,
      "ĠPhoto": 7919,
      "Ãº": 7920,
      "Ġmissed": 7921,
      "Ġlinked": 7922,
      "Log": 7923,
      "arks": 7924,
      "Ġacts": 7925,
      "Ġmeetings": 7926,
      "Ġturning": 7927,
      "Ġvert": 7928,
      "Ġfurniture": 7929,
      "?\"}": 7930,
      "quir": 7931,
      "****************": 7932,
      "When": 7933,
      "Ġauthent": 7934,
      "ben": 7935,
      "][": 7936,
      "Ġknowing": 7937,
      "Ġoccurred": 7938,
      "\\\"/": 7939,
      "ĠRay": 7940,
      "Ġformal": 7941,
      "Ġcapable": 7942,
      "Ġswim": 7943,
      "rovers": 7944,
      "Ġuncertain": 7945,
      "ĠNon": 7946,
      "nw": 7947,
      "Ġduty": 7948,
      "Ġhorse": 7949,
      "Ġzone": 7950,
      "Ġreduction": 7951,
      "Ġdrivers": 7952,
      "Ġkinds": 7953,
      "Ġscheduled": 7954,
      "Map": 7955,
      "Ġprompt": 7956,
      "ureau": 7957,
      "ifer": 7958,
      "duction": 7959,
      "Ġgraduate": 7960,
      "Ġbattery": 7961,
      "ounded": 7962,
      "osm": 7963,
      "Ġcomparison": 7964,
      "Ġreaction": 7965,
      "Size": 7966,
      "Ġtwenty": 7967,
      "ĠSupp": 7968,
      "ournament": 7969,
      "ĠMatt": 7970,
      "Ġreject": 7971,
      "Ġrecording": 7972,
      "iary": 7973,
      "estyle": 7974,
      "Ġanswers": 7975,
      "onav": 7976,
      "Ġstudied": 7977,
      "lib": 7978,
      "ĠBang": 7979,
      "Ġcontaining": 7980,
      "ĠUnivers": 7981,
      "Ġpresentation": 7982,
      "Ġdoors": 7983,
      "nFirst": 7984,
      "ĠSeason": 7985,
      "Ġyounger": 7986,
      "Ġfruit": 7987,
      "eld": 7988,
      "Ð¸Ð½": 7989,
      "Ġhall": 7990,
      "Ġtail": 7991,
      "ĠBal": 7992,
      "ĠSP": 7993,
      "evin": 7994,
      "Ġwalls": 7995,
      "vol": 7996,
      "ÄĻ": 7997,
      "Ġrepeated": 7998,
      "Ġboost": 7999,
      "ÑģÑĮ": 8000,
      "Ġscientists": 8001,
      "2011": 8002,
      "Ġvirus": 8003,
      "Ġhabit": 8004,
      "MC": 8005,
      "Ġbelieves": 8006,
      "BO": 8007,
      "Ġrepresented": 8008,
      "Ġessay": 8009,
      "jection": 8010,
      "acking": 8011,
      "nIm": 8012,
      "omy": 8013,
      "Ġstreets": 8014,
      "db": 8015,
      "Ġsucceed": 8016,
      "Ġcabin": 8017,
      "Ġdiscount": 8018,
      "Ġtrading": 8019,
      "Ġimpressive": 8020,
      "len": 8021,
      "gage": 8022,
      "Ġathlet": 8023,
      "300": 8024,
      "ghan": 8025,
      "nAr": 8026,
      "Ġrevolution": 8027,
      "uting": 8028,
      "image": 8029,
      "Ġ);\\": 8030,
      "ĠPalest": 8031,
      "Ġfindings": 8032,
      "Ġchallenging": 8033,
      "ĠRight": 8034,
      "ĠRetrieved": 8035,
      "ĠGeorgia": 8036,
      "Ġlatter": 8037,
      "anged": 8038,
      "Ġexposure": 8039,
      "ĠBefore": 8040,
      "Ġregularly": 8041,
      "Ġattrib": 8042,
      "Ġrecognition": 8043,
      "Ġvisiting": 8044,
      "Ġproviders": 8045,
      "Ġ150": 8046,
      "Ġpatterns": 8047,
      "cha": 8048,
      "2010": 8049,
      "Ġconserv": 8050,
      "VD": 8051,
      "SU": 8052,
      "Ġarchitecture": 8053,
      "ĠMill": 8054,
      "plete": 8055,
      "Comm": 8056,
      "Ġsolve": 8057,
      "ĠStory": 8058,
      "bles": 8059,
      "nAdd": 8060,
      "\\\\,": 8061,
      "Ġletters": 8062,
      "Ġreader": 8063,
      "Ġ34": 8064,
      "adium": 8065,
      "Ġactor": 8066,
      "!\\\"\\": 8067,
      "ĠVill": 8068,
      "Ġvictims": 8069,
      "ĠSher": 8070,
      "Ġfrag": 8071,
      "}$.": 8072,
      "gener": 8073,
      "Ġ\\\\,": 8074,
      "Ġwriters": 8075,
      "ĠBooks": 8076,
      "ĠInf": 8077,
      "Ġmeat": 8078,
      "Ġcerem": 8079,
      "eqn": 8080,
      "eping": 8081,
      "Ġparking": 8082,
      "enda": 8083,
      "ĠHou": 8084,
      "ĠEth": 8085,
      "Ġax": 8086,
      ".'\\": 8087,
      "razy": 8088,
      "Ġsuitable": 8089,
      "Ġmainly": 8090,
      "Ġapps": 8091,
      "Element": 8092,
      "Ġperfectly": 8093,
      "Ġ1970": 8094,
      "nJust": 8095,
      "Ð¾Ð±": 8096,
      "Ġaircraft": 8097,
      "Ġexcess": 8098,
      "ĠStock": 8099,
      "Ġsimpl": 8100,
      "ĠWord": 8101,
      "ÑĹ": 8102,
      "Ġ1996": 8103,
      "Ġprofessor": 8104,
      "ĠHotel": 8105,
      "(),": 8106,
      "ĠLy": 8107,
      "away": 8108,
      "Ġcorresponding": 8109,
      "oker": 8110,
      "Ġawards": 8111,
      "ĠGuard": 8112,
      "ĠFred": 8113,
      "nAm": 8114,
      "Ġfeaturing": 8115,
      "Ġtasks": 8116,
      "ĠConf": 8117,
      "Ġpharm": 8118,
      "ĠTurn": 8119,
      "Ġretire": 8120,
      "Ġpicked": 8121,
      "amber": 8122,
      "ez": 8123,
      "Ġplate": 8124,
      "Ġelected": 8125,
      "nAbout": 8126,
      "Ġtested": 8127,
      "Ġprinciples": 8128,
      "ĠSon": 8129,
      "ĠPR": 8130,
      "izz": 8131,
      "87": 8132,
      "Ġdispl": 8133,
      "uling": 8134,
      "Reg": 8135,
      "des": 8136,
      "config": 8137,
      "Ġcontrols": 8138,
      "thm": 8139,
      "Ġsurf": 8140,
      "Ġlegisl": 8141,
      "ĠArea": 8142,
      "Ġdisappoint": 8143,
      "nThanks": 8144,
      "!--": 8145,
      "ĠdÃ©": 8146,
      "Model": 8147,
      "ĠHom": 8148,
      "Ġhydro": 8149,
      "ategory": 8150,
      "aints": 8151,
      "Ġdelight": 8152,
      "nis": 8153,
      "ĠMA": 8154,
      "Ġ:=": 8155,
      "Go": 8156,
      "exp": 8157,
      "object": 8158,
      "asts": 8159,
      "Ġstood": 8160,
      "ools": 8161,
      "2021": 8162,
      "Ġcontributions": 8163,
      "nAnother": 8164,
      "TV": 8165,
      "Ġdeals": 8166,
      "2006": 8167,
      "Ġsin": 8168,
      "Ġperforming": 8169,
      "Ġprimarily": 8170,
      "Ġingredients": 8171,
      "Ġfoundation": 8172,
      "ĠRadio": 8173,
      "Ġhyper": 8174,
      "Ġdivision": 8175,
      "cr": 8176,
      "Ġfirms": 8177,
      "api": 8178,
      "Ġcolon": 8179,
      "Ġsky": 8180,
      "Ġwearing": 8181,
      "Ġaccord": 8182,
      "Ġextension": 8183,
      "ĠKh": 8184,
      "Ġentreprene": 8185,
      "LY": 8186,
      "bury": 8187,
      "Fig": 8188,
      "Ġ)\\": 8189,
      "Ġcontest": 8190,
      "Ġsamples": 8191,
      "Ġcounsel": 8192,
      "Ġdropped": 8193,
      "Ġnob": 8194,
      "....\\": 8195,
      "Ġordered": 8196,
      "Ġrelief": 8197,
      "ĠAssist": 8198,
      "owa": 8199,
      "ĠExpl": 8200,
      "ĠOrder": 8201,
      "Ġrestaurants": 8202,
      "ĠBon": 8203,
      "Ġgrade": 8204,
      "Ġengage": 8205,
      "rypt": 8206,
      "estion": 8207,
      "ĠDaily": 8208,
      "ova": 8209,
      "Ġweapons": 8210,
      "Ġ~": 8211,
      "Ġattended": 8212,
      "Ñĺ": 8213,
      "Ġplane": 8214,
      "\\\").": 8215,
      "raphics": 8216,
      "Ġoperator": 8217,
      "ĠHun": 8218,
      "Ġpip": 8219,
      "folio": 8220,
      "Ġstim": 8221,
      "Ġsick": 8222,
      "usal": 8223,
      "Ġkeeps": 8224,
      "ĠAdministration": 8225,
      "ĠRen": 8226,
      "ĠRun": 8227,
      "eding": 8228,
      "TY": 8229,
      "ĠVideo": 8230,
      "rible": 8231,
      "Ġrealized": 8232,
      "oric": 8233,
      "aze": 8234,
      "Ġresistance": 8235,
      "RL": 8236,
      "news": 8237,
      "ĠSanta": 8238,
      "itionally": 8239,
      "oval": 8240,
      "nApp": 8241,
      "Ġcatal": 8242,
      "Ġdiscipl": 8243,
      "Phone": 8244,
      "util": 8245,
      "appy": 8246,
      "92": 8247,
      "ĠOx": 8248,
      "athe": 8249,
      "Ġmodule": 8250,
      "ĠBlog": 8251,
      "Ġalongside": 8252,
      "nMr": 8253,
      "ĠBern": 8254,
      "Ġimmediate": 8255,
      "erd": 8256,
      "Ġfabric": 8257,
      "Ġclar": 8258,
      "Ġunknown": 8259,
      "Ġratio": 8260,
      "Ġsight": 8261,
      "Ġlosing": 8262,
      "Ġstruggle": 8263,
      "Ġrele": 8264,
      "Ġtrained": 8265,
      "etch": 8266,
      "Count": 8267,
      "Ġgod": 8268,
      "emplate": 8269,
      "Ġcontribute": 8270,
      "Ġguidance": 8271,
      "mo": 8272,
      "Ġ1995": 8273,
      "Ġnarrow": 8274,
      "inois": 8275,
      "Ġequivalent": 8276,
      "94": 8277,
      "Ġq": 8278,
      "Ġfundamental": 8279,
      "Ġ__": 8280,
      "ĠAsh": 8281,
      "worth": 8282,
      "rison": 8283,
      "Ġoperate": 8284,
      "onavirus": 8285,
      "ĠRod": 8286,
      "Ġreplaced": 8287,
      "ĠSat": 8288,
      "bel": 8289,
      "BN": 8290,
      "ĠDNA": 8291,
      "nwhere": 8292,
      "icted": 8293,
      "Ġpurchased": 8294,
      "Äħ": 8295,
      "They": 8296,
      "Ġinvent": 8297,
      "thew": 8298,
      "Trans": 8299,
      "Ġcrucial": 8300,
      "%)": 8301,
      "ĠAsian": 8302,
      "Ġexplains": 8303,
      "ĠLuc": 8304,
      "ĠÂ©": 8305,
      "OK": 8306,
      "ĠOp": 8307,
      "Ġpainting": 8308,
      "Ġimprovement": 8309,
      "ĠYet": 8310,
      "ogether": 8311,
      "Ġappreciate": 8312,
      "create": 8313,
      "Ġatmosphere": 8314,
      "ĠTri": 8315,
      "Ġoutdoor": 8316,
      "Ġbroadcast": 8317,
      "Ġlistening": 8318,
      "Ġtab": 8319,
      "Ġlies": 8320,
      "Ġliquid": 8321,
      "Ġcream": 8322,
      "result": 8323,
      "ĠBul": 8324,
      "Ġengaged": 8325,
      "aturally": 8326,
      "nLast": 8327,
      "adelph": 8328,
      "Ġchampions": 8329,
      "Ġaccessible": 8330,
      "Ġtickets": 8331,
      "ĠUsing": 8332,
      "PM": 8333,
      "Ġalcohol": 8334,
      "ĠNick": 8335,
      "Ġfo": 8336,
      "annels": 8337,
      "nDes": 8338,
      "source": 8339,
      "inals": 8340,
      "ellectual": 8341,
      "Ġadds": 8342,
      "Ġapproval": 8343,
      "hol": 8344,
      "Ass": 8345,
      "Ġpapers": 8346,
      "Ġplatforms": 8347,
      "orne": 8348,
      "ĠSystems": 8349,
      "ige": 8350,
      "itud": 8351,
      "anguages": 8352,
      "alo": 8353,
      "Ġlights": 8354,
      "ĠFox": 8355,
      "Ġhidden": 8356,
      "iac": 8357,
      "ĠCON": 8358,
      "ĠMethod": 8359,
      "Ġminister": 8360,
      "Ġexceed": 8361,
      "ĠMaybe": 8362,
      "Node": 8363,
      "ĠSong": 8364,
      "One": 8365,
      "Ġmountain": 8366,
      "IO": 8367,
      "Ġcontrolled": 8368,
      "Ġperm": 8369,
      "Ġwebsites": 8370,
      "####": 8371,
      "ĠThree": 8372,
      "ership": 8373,
      "Ġlaugh": 8374,
      "Ġfiction": 8375,
      "Ġanticip": 8376,
      "Ġtiss": 8377,
      "dim": 8378,
      "Ġarmy": 8379,
      "Ġoutcomes": 8380,
      "you": 8381,
      "ensed": 8382,
      "Date": 8383,
      "Ġmob": 8384,
      "ĠÐľ": 8385,
      "Ġbrowser": 8386,
      "Equ": 8387,
      "include": 8388,
      "Ġobviously": 8389,
      "avid": 8390,
      "Ġtechnique": 8391,
      "ĠColorado": 8392,
      "Ġvisited": 8393,
      "icing": 8394,
      "ante": 8395,
      "Rep": 8396,
      "Ġunion": 8397,
      "frak": 8398,
      "Ġpublication": 8399,
      "Ġmeal": 8400,
      "ĠPract": 8401,
      "ĠDate": 8402,
      "Ġelev": 8403,
      "à¥": 8404,
      "Wh": 8405,
      "..\\": 8406,
      "vo": 8407,
      "iable": 8408,
      "ĠKenn": 8409,
      "ĠLatin": 8410,
      "Ġexclusive": 8411,
      "Ġmonitoring": 8412,
      "ĠMah": 8413,
      "mann": 8414,
      "ĠKent": 8415,
      "Ġtea": 8416,
      "ĠKey": 8417,
      "ĠYouTube": 8418,
      "Ġinstallation": 8419,
      "84": 8420,
      "Ġriv": 8421,
      "ĠDisney": 8422,
      "Ġsi": 8423,
      "Ġdans": 8424,
      "owe": 8425,
      "Ġinvolving": 8426,
      "ĠUr": 8427,
      "nSc": 8428,
      "Inter": 8429,
      "Ġcreates": 8430,
      "Ġinformed": 8431,
      "Ġsituations": 8432,
      "ista": 8433,
      "adelphia": 8434,
      "Ġintegrated": 8435,
      "Ġcommunications": 8436,
      "ĠSU": 8437,
      "Ġsuspect": 8438,
      "ĠRon": 8439,
      "owntown": 8440,
      "pay": 8441,
      "atics": 8442,
      "Ġmoves": 8443,
      "Ġyesterday": 8444,
      "Ġbrown": 8445,
      "ĠAdam": 8446,
      "Ġspiritual": 8447,
      "info": 8448,
      "Ġseriously": 8449,
      "ete": 8450,
      "ĠFac": 8451,
      "Ġrecognize": 8452,
      "ĠMinistry": 8453,
      "icide": 8454,
      "Ġaffordable": 8455,
      "nl": 8456,
      "Ġcutting": 8457,
      "Ġconstantly": 8458,
      "Ġstake": 8459,
      "rell": 8460,
      "Ġapproaches": 8461,
      "Ġ37": 8462,
      "ĠElizabeth": 8463,
      "Ġ400": 8464,
      "Ġfrequency": 8465,
      "ĠConc": 8466,
      "summary": 8467,
      "Ġexhibition": 8468,
      "Ġconver": 8469,
      "Ġexpectations": 8470,
      "rizona": 8471,
      "ycl": 8472,
      "ĠComput": 8473,
      "Ġillegal": 8474,
      "Ġmonthly": 8475,
      "Ġpotentially": 8476,
      "Ġpulled": 8477,
      "ĠHollywood": 8478,
      "Ġorganic": 8479,
      "missions": 8480,
      "Ġcapture": 8481,
      "ĠOfficer": 8482,
      "Ġdogs": 8483,
      "Ġpercentage": 8484,
      "ĠSwed": 8485,
      "ceived": 8486,
      "nAlso": 8487,
      "ÂŃ": 8488,
      "Ġvital": 8489,
      "ials": 8490,
      "Ġorganized": 8491,
      "Ġspecified": 8492,
      "Ġnoise": 8493,
      "EP": 8494,
      "ĠĠĠĠĠĠĠĠĠĠ": 8495,
      "Ġsplit": 8496,
      "Ġengagement": 8497,
      "ĠÑģÑĤ": 8498,
      "Ġillness": 8499,
      "Out": 8500,
      "uis": 8501,
      "ĠMach": 8502,
      "query": 8503,
[...]
